<unk>	0
<s>	0
</s>	0
<pad>	0
<0x00>	0
<0x01>	0
<0x02>	0
<0x03>	0
<0x04>	0
<0x05>	0
<0x06>	0
<0x07>	0
<0x08>	0
<0x09>	0
<0x0A>	0
<0x0B>	0
<0x0C>	0
<0x0D>	0
<0x0E>	0
<0x0F>	0
<0x10>	0
<0x11>	0
<0x12>	0
<0x13>	0
<0x14>	0
<0x15>	0
<0x16>	0
<0x17>	0
<0x18>	0
<0x19>	0
<0x1A>	0
<0x1B>	0
<0x1C>	0
<0x1D>	0
<0x1E>	0
<0x1F>	0
<0x20>	0
<0x21>	0
<0x22>	0
<0x23>	0
<0x24>	0
<0x25>	0
<0x26>	0
<0x27>	0
<0x28>	0
<0x29>	0
<0x2A>	0
<0x2B>	0
<0x2C>	0
<0x2D>	0
<0x2E>	0
<0x2F>	0
<0x30>	0
<0x31>	0
<0x32>	0
<0x33>	0
<0x34>	0
<0x35>	0
<0x36>	0
<0x37>	0
<0x38>	0
<0x39>	0
<0x3A>	0
<0x3B>	0
<0x3C>	0
<0x3D>	0
<0x3E>	0
<0x3F>	0
<0x40>	0
<0x41>	0
<0x42>	0
<0x43>	0
<0x44>	0
<0x45>	0
<0x46>	0
<0x47>	0
<0x48>	0
<0x49>	0
<0x4A>	0
<0x4B>	0
<0x4C>	0
<0x4D>	0
<0x4E>	0
<0x4F>	0
<0x50>	0
<0x51>	0
<0x52>	0
<0x53>	0
<0x54>	0
<0x55>	0
<0x56>	0
<0x57>	0
<0x58>	0
<0x59>	0
<0x5A>	0
<0x5B>	0
<0x5C>	0
<0x5D>	0
<0x5E>	0
<0x5F>	0
<0x60>	0
<0x61>	0
<0x62>	0
<0x63>	0
<0x64>	0
<0x65>	0
<0x66>	0
<0x67>	0
<0x68>	0
<0x69>	0
<0x6A>	0
<0x6B>	0
<0x6C>	0
<0x6D>	0
<0x6E>	0
<0x6F>	0
<0x70>	0
<0x71>	0
<0x72>	0
<0x73>	0
<0x74>	0
<0x75>	0
<0x76>	0
<0x77>	0
<0x78>	0
<0x79>	0
<0x7A>	0
<0x7B>	0
<0x7C>	0
<0x7D>	0
<0x7E>	0
<0x7F>	0
<0x80>	0
<0x81>	0
<0x82>	0
<0x83>	0
<0x84>	0
<0x85>	0
<0x86>	0
<0x87>	0
<0x88>	0
<0x89>	0
<0x8A>	0
<0x8B>	0
<0x8C>	0
<0x8D>	0
<0x8E>	0
<0x8F>	0
<0x90>	0
<0x91>	0
<0x92>	0
<0x93>	0
<0x94>	0
<0x95>	0
<0x96>	0
<0x97>	0
<0x98>	0
<0x99>	0
<0x9A>	0
<0x9B>	0
<0x9C>	0
<0x9D>	0
<0x9E>	0
<0x9F>	0
<0xA0>	0
<0xA1>	0
<0xA2>	0
<0xA3>	0
<0xA4>	0
<0xA5>	0
<0xA6>	0
<0xA7>	0
<0xA8>	0
<0xA9>	0
<0xAA>	0
<0xAB>	0
<0xAC>	0
<0xAD>	0
<0xAE>	0
<0xAF>	0
<0xB0>	0
<0xB1>	0
<0xB2>	0
<0xB3>	0
<0xB4>	0
<0xB5>	0
<0xB6>	0
<0xB7>	0
<0xB8>	0
<0xB9>	0
<0xBA>	0
<0xBB>	0
<0xBC>	0
<0xBD>	0
<0xBE>	0
<0xBF>	0
<0xC0>	0
<0xC1>	0
<0xC2>	0
<0xC3>	0
<0xC4>	0
<0xC5>	0
<0xC6>	0
<0xC7>	0
<0xC8>	0
<0xC9>	0
<0xCA>	0
<0xCB>	0
<0xCC>	0
<0xCD>	0
<0xCE>	0
<0xCF>	0
<0xD0>	0
<0xD1>	0
<0xD2>	0
<0xD3>	0
<0xD4>	0
<0xD5>	0
<0xD6>	0
<0xD7>	0
<0xD8>	0
<0xD9>	0
<0xDA>	0
<0xDB>	0
<0xDC>	0
<0xDD>	0
<0xDE>	0
<0xDF>	0
<0xE0>	0
<0xE1>	0
<0xE2>	0
<0xE3>	0
<0xE4>	0
<0xE5>	0
<0xE6>	0
<0xE7>	0
<0xE8>	0
<0xE9>	0
<0xEA>	0
<0xEB>	0
<0xEC>	0
<0xED>	0
<0xEE>	0
<0xEF>	0
<0xF0>	0
<0xF1>	0
<0xF2>	0
<0xF3>	0
<0xF4>	0
<0xF5>	0
<0xF6>	0
<0xF7>	0
<0xF8>	0
<0xF9>	0
<0xFA>	0
<0xFB>	0
<0xFC>	0
<0xFD>	0
<0xFE>	0
<0xFF>	0
▁t	-0
he	-1
▁a	-2
in	-3
▁the	-4
re	-5
▁w	-6
▁o	-7
▁s	-8
ou	-9
is	-10
er	-11
on	-12
at	-13
▁c	-14
an	-15
it	-16
▁b	-17
or	-18
▁f	-19
▁m	-20
▁to	-21
en	-22
es	-23
▁p	-24
ed	-25
▁d	-26
▁h	-27
ing	-28
▁of	-29
▁I	-30
ll	-31
▁an	-32
▁in	-33
▁th	-34
▁y	-35
ar	-36
▁n	-37
▁T	-38
▁you	-39
▁l	-40
om	-41
▁is	-42
as	-43
▁and	-44
ve	-45
al	-46
▁be	-47
ot	-48
le	-49
ion	-50
ic	-51
▁g	-52
us	-53
▁e	-54
ow	-55
▁re	-56
ay	-57
▁The	-58
ent	-59
▁A	-60
▁for	-61
id	-62
▁on	-63
im	-64
ut	-65
et	-66
▁he	-67
▁it	-68
ver	-69
▁that	-70
▁ha	-71
ld	-72
ct	-73
▁are	-74
ro	-75
▁we	-76
▁S	-77
▁W	-78
st	-79
▁H	-80
ill	-81
ly	-82
ur	-83
am	-84
ce	-85
ig	-86
▁wh	-87
▁"	-88
▁st	-89
ir	-90
▁not	-91
ith	-92
od	-93
se	-94
ad	-95
if	-96
▁with	-97
▁have	-98
ation	-99
ch	-100
nd	-101
▁M	-102
..	-103
her	-104
▁me	-105
▁do	-106
▁k	-107
▁was	-108
▁will	-109
▁this	-110
▁as	-111
▁C	-112
th	-113
op	-114
ter	-115
▁com	-116
▁se	-117
▁wor	-118
▁ne	-119
ke	-120
ant	-121
▁u	-122
all	-123
▁can	-124
▁B	-125
ht	-126
il	-127
▁fr	-128
▁He	-129
▁pro	-130
ess	-131
ra	-132
▁G	-133
ers	-134
▁de	-135
▁go	-136
▁us	-137
ge	-138
▁your	-139
▁D	-140
▁all	-141
ul	-142
▁Y	-143
ol	-144
▁con	-145
ore	-146
est	-147
pp	-148
▁P	-149
▁at	-150
▁Th	-151
and	-152
nt	-153
ight	-154
▁L	-155
ri	-156
ble	-157
▁my	-158
ear	-159
▁kn	-160
ist	-161
▁N	-162
▁F	-163
▁they	-164
ain	-165
ust	-166
▁al	-167
▁1	-168
▁It	-169
very	-170
ate	-171
▁from	-172
out	-173
ment	-174
▁sa	-175
▁ex	-176
ity	-177
▁ch	-178
▁lo	-179
▁E	-180
▁know	-181
▁You	-182
▁has	-183
ort	-184
ome	-185
▁We	-186
art	-187
▁su	-188
ive	-189
▁r	-190
ould	-191
▁or	-192
▁sh	-193
ac	-194
▁O	-195
▁ab	-196
▁2	-197
ok	-198
end	-199
one	-200
▁them	-201
ime	-202
pe	-203
▁v	-204
▁(	-205
em	-206
os	-207
ie	-208
ame	-209
▁pl	-210
▁by	-211
ies	-212
qu	-213
▁one	-214
ry	-215
▁who	-216
▁about	-217
▁there	-218
ake	-219
▁so	-220
res	-221
ther	-222
▁time	-223
iv	-224
▁want	-225
eop	-226
...	-227
un	-228
um	-229
ong	-230
▁his	-231
eople	-232
▁R	-233
▁In	-234
red	-235
our	-236
▁whe	-237
▁year	-238
ide	-239
."	-240
▁day	-241
el	-242
ci	-243
▁man	-244
▁comp	-245
so	-246
▁people	-247
ard	-248
ect	-249
▁This	-250
▁j	-251
ally	-252
▁their	-253
▁U	-254
ak	-255
▁him	-256
▁what	-257
ost	-258
oug	-259
▁said	-260
▁but	-261
▁work	-262
▁God	-263
▁our	-264
▁other	-265
▁And	-266
▁ag	-267
ep	-268
ud	-269
▁J	-270
ure	-271
▁out	-272
▁im	-273
▁Wh	-274
ia	-275
▁up	-276
ast	-277
cc	-278
▁also	-279
ife	-280
ount	-281
▁been	-282
ind	-283
▁le	-284
▁li	-285
▁tr	-286
▁en	-287
▁te	-288
▁am	-289
▁any	-290
ice	-291
▁no	-292
ord	-293
are	-294
▁20	-295
reat	-296
▁every	-297
ink	-298
ous	-299
▁don	-300
▁pr	-301
ions	-302
ber	-303
ace	-304
ine	-305
ich	-306
▁were	-307
age	-308
▁need	-309
lo	-310
▁They	-311
▁int	-312
▁more	-313
ans	-314
▁like	-315
port	-316
ack	-317
▁-	-318
▁get	-319
ild	-320
ap	-321
▁world	-322
ree	-323
ff	-324
▁did	-325
▁see	-326
▁cont	-327
▁There	-328
ven	-329
▁than	-330
irst	-331
ase	-332
▁new	-333
▁res	-334
ab	-335
ough	-336
ere	-337
▁bec	-338
ite	-339
other	-340
▁if	-341
per	-342
▁part	-343
▁life	-344
▁fo	-345
pt	-346
ach	-347
▁had	-348
▁which	-349
▁ad	-350
▁say	-351
▁only	-352
ag	-353
▁But	-354
act	-355
able	-356
du	-357
▁Ch	-358
ue	-359
▁some	-360
iz	-361
use	-362
▁years	-363
ence	-364
▁how	-365
hing	-366
ook	-367
▁when	-368
ult	-369
ip	-370
▁fe	-371
▁tw	-372
ose	-373
ound	-374
▁un	-375
orm	-376
▁If	-377
▁qu	-378
ance	-379
▁ar	-380
▁would	-381
ings	-382
ated	-383
▁good	-384
vel	-385
ign	-386
▁first	-387
▁look	-388
▁think	-389
ire	-390
▁now	-391
▁right	-392
▁cl	-393
ck	-394
▁count	-395
ily	-396
ations	-397
ang	-398
▁here	-399
00	-400
▁app	-401
ause	-402
▁wr	-403
ary	-404
ish	-405
▁again	-406
▁does	-407
ren	-408
ub	-409
si	-410
og	-411
▁K	-412
nder	-413
▁dis	-414
▁make	-415
▁very	-416
▁ser	-417
▁So	-418
ade	-419
ark	-420
▁two	-421
▁per	-422
▁just	-423
▁comm	-424
ail	-425
▁sp	-426
lp	-427
iff	-428
▁What	-429
fter	-430
▁many	-431
▁br	-432
form	-433
▁under	-434
▁off	-435
day	-436
▁St	-437
tern	-438
ug	-439
▁happ	-440
▁going	-441
▁play	-442
sel	-443
▁child	-444
▁may	-445
ory	-446
▁help	-447
any	-448
▁diff	-449
▁On	-450
lic	-451
ved	-452
▁over	-453
▁use	-454
cial	-455
omet	-456
▁gr	-457
wn	-458
▁spe	-459
▁acc	-460
▁should	-461
▁My	-462
own	-463
▁Whe	-464
▁back	-465
▁way	-466
way	-467
▁How	-468
ater	-469
▁3	-470
ical	-471
thing	-472
ond	-473
▁bel	-474
▁her	-475
▁these	-476
▁bet	-477
▁read	-478
▁inc	-479
▁dec	-480
fore	-481
▁co	-482
▁fam	-483
alk	-484
erson	-485
ful	-486
▁she	-487
ple	-488
▁long	-489
▁Do	-490
▁take	-491
▁where	-492
itt	-493
▁She	-494
ress	-495
▁rem	-496
▁most	-497
▁well	-498
we	-499
pl	-500
duct	-501
ents	-502
ass	-503
▁Is	-504
▁act	-505
▁its	-506
▁mo	-507
▁All	-508
ition	-509
ates	-510
ile	-511
▁ask	-512
▁ph	-513
▁As	-514
▁wom	-515
▁Un	-516
▁import	-517
▁into	-518
ave	-519
▁That	-520
▁pos	-521
▁made	-522
vers	-523
ning	-524
ial	-525
▁person	-526
hed	-527
▁could	-528
▁lot	-529
▁201	-530
▁because	-531
▁belie	-532
ens	-533
▁ind	-534
▁For	-535
ise	-536
▁rel	-537
ited	-538
ational	-539
▁pre	-540
▁somet	-541
▁come	-542
▁bus	-543
▁tra	-544
▁great	-545
▁own	-546
ever	-547
mer	-548
uch	-549
▁same	-550
▁rec	-551
).	-552
▁serv	-553
ather	-554
ied	-555
▁then	-556
ors	-557
▁'	-558
ew	-559
iness	-560
▁differe	-561
▁sec	-562
▁home	-563
▁des	-564
▁after	-565
▁those	-566
iend	-567
▁start	-568
▁friend	-569
▁po	-570
ities	-571
▁stud	-572
▁love	-573
▁ro	-574
▁call	-575
▁Ind	-576
▁family	-577
ower	-578
ft	-579
self	-580
▁bu	-581
▁ear	-582
▁ent	-583
ath	-584
cess	-585
▁product	-586
▁19	-587
▁important	-588
ious	-589
av	-590
▁country	-591
pport	-592
igh	-593
urn	-594
▁No	-595
ange	-596
ident	-597
▁hand	-598
▁str	-599
bs	-600
ank	-601
ng	-602
▁never	-603
▁mon	-604
▁4	-605
▁When	-606
oth	-607
▁each	-608
▁too	-609
▁thr	-610
ian	-611
▁talk	-612
ces	-613
get	-614
▁much	-615
ody	-616
▁Lord	-617
blem	-618
▁pol	-619
llow	-620
stand	-621
▁book	-622
ah	-623
▁prov	-624
?"	-625
int	-626
alth	-627
uth	-628
▁used	-629
▁problem	-630
▁something	-631
▁tell	-632
arket	-633
sible	-634
▁today	-635
▁must	-636
▁sc	-637
gr	-638
ec	-639
▁name	-640
pen	-641
ouse	-642
▁5	-643
imes	-644
▁things	-645
▁la	-646
ick	-647
▁Go	-648
▁best	-649
▁cons	-650
ought	-651
hip	-652
▁still	-653
▁att	-654
vern	-655
▁old	-656
▁end	-657
ject	-658
ull	-659
▁business	-660
▁reg	-661
▁sin	-662
▁Chin	-663
▁understand	-664
ness	-665
▁before	-666
als	-667
▁company	-668
▁children	-669
▁exper	-670
▁ev	-671
▁last	-672
▁got	-673
▁different	-674
▁list	-675
pect	-676
erm	-677
▁try	-678
▁market	-679
▁place	-680
▁through	-681
▁med	-682
lease	-683
▁night	-684
be	-685
▁car	-686
▁gu	-687
ution	-688
▁down	-689
▁follow	-690
ons	-691
ried	-692
ced	-693
ict	-694
velop	-695
The	-696
tain	-697
ments	-698
▁month	-699
▁days	-700
▁even	-701
▁em	-702
oy	-703
▁sy	-704
▁imp	-705
▁find	-706
ries	-707
▁num	-708
▁quest	-709
ased	-710
lect	-711
cy	-712
▁word	-713
▁eff	-714
ific	-715
▁pres	-716
ool	-717
ember	-718
uring	-719
▁V	-720
▁why	-721
ves	-722
▁liv	-723
,"	-724
▁fin	-725
▁didn	-726
▁inform	-727
▁ke	-728
▁open	-729
oney	-730
ru	-731
xt	-732
▁give	-733
ek	-734
ving	-735
▁feel	-736
led	-737
read	-738
arch	-739
▁let	-740
▁believe	-741
▁An	-742
aking	-743
▁able	-744
ices	-745
▁care	-746
vernment	-747
chool	-748
▁three	-749
▁another	-750
ual	-751
▁real	-752
iss	-753
We	-754
▁develop	-755
▁ra	-756
ility	-757
▁eas	-758
ween	-759
▁house	-760
ward	-761
▁power	-762
▁such	-763
▁beg	-764
▁mem	-765
▁intern	-766
li	-767
▁min	-768
▁hum	-769
▁both	-770
▁between	-771
▁dat	-772
▁Don	-773
▁thing	-774
▁add	-775
ular	-776
▁trans	-777
▁women	-778
old	-779
▁inv	-780
▁Now	-781
stem	-782
uro	-783
▁money	-784
▁high	-785
▁information	-786
▁10	-787
orn	-788
ared	-789
▁week	-790
▁resp	-791
ustom	-792
te	-793
ital	-794
▁everything	-795
▁change	-796
ph	-797
▁happen	-798
▁Every	-799
▁Re	-800
▁doesn	-801
▁ins	-802
▁mean	-803
les	-804
▁shall	-805
▁school	-806
▁came	-807
ublic	-808
▁meet	-809
▁cr	-810
unity	-811
▁giv	-812
▁vis	-813
▁being	-814
ating	-815
▁show	-816
▁free	-817
▁number	-818
▁experi	-819
erest	-820
▁creat	-821
▁At	-822
▁i	-823
▁China	-824
▁sit	-825
▁ac	-826
akes	-827
▁dep	-828
ually	-829
▁ey	-830
▁exam	-831
▁against	-832
▁sign	-833
lud	-834
ty	-835
line	-836
meric	-837
▁requ	-838
▁war	-839
ob	-840
▁away	-841
▁[	-842
ope	-843
▁live	-844
▁His	-845
▁reas	-846
▁sm	-847
▁6	-848
▁health	-849
▁countries	-850
▁looking	-851
gy	-852
ork	-853
▁inst	-854
▁av	-855
▁system	-856
ell	-857
ording	-858
urp	-859
▁Euro	-860
▁United	-861
▁bl	-862
▁cour	-863
▁possible	-864
con	-865
cept	-866
▁saf	-867
uture	-868
▁really	-869
▁Americ	-870
▁cle	-871
omm	-872
▁custom	-873
ction	-874
▁interest	-875
ages	-876
▁lear	-877
▁fact	-878
▁contin	-879
▁One	-880
▁water	-881
▁Al	-882
ting	-883
ccess	-884
▁webs	-885
▁support	-886
▁stay	-887
aug	-888
▁game	-889
▁done	-890
ener	-891
▁government	-892
▁data	-893
▁blo	-894
▁mother	-895
▁since	-896
hes	-897
ised	-898
▁India	-899
ics	-900
▁asked	-901
▁Europe	-902
olog	-903
▁future	-904
▁friends	-905
▁lead	-906
▁hour	-907
▁ret	-908
▁art	-909
irl	-910
▁without	-911
▁200	-912
iting	-913
▁comple	-914
Wh	-915
▁put	-916
angu	-917
▁dr	-918
▁keep	-919
▁US	-920
▁human	-921
▁better	-922
▁Then	-923
▁exp	-924
▁Let	-925
▁state	-926
ided	-927
▁.	-928
▁fil	-929
ures	-930
▁seen	-931
ways	-932
▁process	-933
▁To	-934
▁ans	-935
▁set	-936
ister	-937
▁However	-938
oc	-939
▁7	-940
▁mar	-941
▁loc	-942
▁hear	-943
ety	-944
eng	-945
ished	-946
▁ref	-947
rib	-948
oup	-949
▁8	-950
▁father	-951
▁ord	-952
▁found	-953
ract	-954
▁social	-955
▁plan	-956
▁Fr	-957
▁prot	-958
ands	-959
▁vide	-960
ream	-961
▁earth	-962
▁doing	-963
▁few	-964
▁during	-965
ned	-966
▁working	-967
ered	-968
▁unt	-969
ird	-970
▁mod	-971
ists	-972
▁conf	-973
▁law	-974
gram	-975
iew	-976
▁sure	-977
ames	-978
▁rep	-979
▁sim	-980
ee	-981
ision	-982
▁allow	-983
ative	-984
▁hard	-985
▁heart	-986
ality	-987
uck	-988
▁rest	-989
▁Be	-990
▁city	-991
▁chang	-992
ss	-993
ware	-994
▁anything	-995
▁Our	-996
ired	-997
▁includ	-998
ote	-999
▁success	-1000
ys	-1001
▁happy	-1002
ood	-1003
▁means	-1004
▁met	-1005
▁test	-1006
▁told	-1007
▁pri	-1008
und	-1009
▁Your	-1010
ten	-1011
▁heard	-1012
ted	-1013
cer	-1014
ese	-1015
▁langu	-1016
cus	-1017
▁stop	-1018
▁def	-1019
▁woman	-1020
aut	-1021
ately	-1022
▁become	-1023
chn	-1024
ove	-1025
▁main	-1026
▁times	-1027
▁fore	-1028
▁men	-1029
apan	-1030
▁Tr	-1031
▁age	-1032
▁cur	-1033
lish	-1034
▁Why	-1035
▁result	-1036
ef	-1037
▁ass	-1038
▁went	-1039
▁example	-1040
▁everyone	-1041
▁nothing	-1042
▁question	-1043
ib	-1044
▁sol	-1045
▁kill	-1046
▁always	-1047
ctor	-1048
▁cent	-1049
▁second	-1050
bers	-1051
▁truth	-1052
▁says	-1053
▁effect	-1054
▁called	-1055
▁left	-1056
▁around	-1057
▁mom	-1058
▁mat	-1059
ts	-1060
▁respon	-1061
its	-1062
uc	-1063
▁won	-1064
▁son	-1065
▁food	-1066
▁elect	-1067
conom	-1068
▁four	-1069
▁adv	-1070
▁fl	-1071
▁full	-1072
gan	-1073
▁girl	-1074
ized	-1075
▁isn	-1076
▁thought	-1077
▁cap	-1078
▁Some	-1079
▁Japan	-1080
▁hope	-1081
▁easy	-1082
ric	-1083
▁enough	-1084
▁website	-1085
▁avail	-1086
▁program	-1087
ner	-1088
▁ed	-1089
▁within	-1090
▁Who	-1091
arent	-1092
▁big	-1093
You	-1094
▁products	-1095
▁lar	-1096
▁online	-1097
▁service	-1098
gest	-1099
▁9	-1100
rael	-1101
▁Eng	-1102
▁experience	-1103
▁others	-1104
▁ext	-1105
▁Pro	-1106
ready	-1107
▁next	-1108
▁wrong	-1109
:1	-1110
▁prof	-1111
▁body	-1112
▁eyes	-1113
▁public	-1114
▁death	-1115
ention	-1116
ants	-1117
ient	-1118
▁build	-1119
▁begin	-1120
the	-1121
▁Me	-1122
▁coll	-1123
▁far	-1124
▁States	-1125
20	-1126
▁news	-1127
▁already	-1128
▁remember	-1129
▁Israel	-1130
▁Can	-1131
▁might	-1132
med	-1133
000	-1134
▁group	-1135
▁speak	-1136
▁contro	-1137
▁indust	-1138
▁pass	-1139
▁These	-1140
▁Q	-1141
▁mind	-1142
▁sing	-1143
▁partic	-1144
▁protect	-1145
▁pray	-1146
oun	-1147
▁iss	-1148
▁polit	-1149
▁fun	-1150
ute	-1151
▁available	-1152
▁Pr	-1153
▁fa	-1154
body	-1155
▁ma	-1156
ism	-1157
▁ago	-1158
err	-1159
ivers	-1160
▁toget	-1161
▁together	-1162
ize	-1163
▁hist	-1164
▁light	-1165
▁months	-1166
▁saw	-1167
up	-1168
▁ob	-1169
Th	-1170
▁cre	-1171
ues	-1172
▁run	-1173
▁Here	-1174
oh	-1175
▁report	-1176
▁el	-1177
▁words	-1178
fra	-1179
▁safe	-1180
▁account	-1181
iful	-1182
▁inter	-1183
epal	-1184
▁video	-1185
▁techn	-1186
▁De	-1187
▁sub	-1188
▁Are	-1189
▁econom	-1190
▁wanted	-1191
▁New	-1192
▁Rus	-1193
atch	-1194
▁listen	-1195
▁May	-1196
fraid	-1197
ides	-1198
▁Yes	-1199
▁reason	-1200
outh	-1201
▁fear	-1202
az	-1203
▁case	-1204
ittle	-1205
▁dire	-1206
▁pop	-1207
▁train	-1208
▁With	-1209
▁ever	-1210
▁point	-1211
▁mill	-1212
▁trying	-1213
▁media	-1214
▁prom	-1215
▁gener	-1216
▁young	-1217
▁Nepal	-1218
ball	-1219
▁...	-1220
▁kind	-1221
▁whole	-1222
▁After	-1223
ines	-1224
▁che	-1225
▁answ	-1226
▁brother	-1227
ural	-1228
▁Not	-1229
urity	-1230
▁Sp	-1231
▁cer	-1232
▁ready	-1233
▁det	-1234
less	-1235
▁given	-1236
rist	-1237
▁dream	-1238
▁wife	-1239
▁nat	-1240
▁wa	-1241
▁film	-1242
▁afraid	-1243
▁grow	-1244
▁cor	-1245
▁beaut	-1246
▁applic	-1247
book	-1248
▁air	-1249
▁var	-1250
▁ide	-1251
not	-1252
▁while	-1253
▁course	-1254
▁stand	-1255
ying	-1256
ks	-1257
urch	-1258
▁appro	-1259
▁form	-1260
▁return	-1261
▁incre	-1262
aven	-1263
▁turn	-1264
▁land	-1265
▁leave	-1266
▁rece	-1267
rent	-1268
▁opt	-1269
▁true	-1270
▁dem	-1271
ourn	-1272
▁until	-1273
▁phone	-1274
▁design	-1275
▁little	-1276
ledge	-1277
ral	-1278
▁born	-1279
▁foot	-1280
ix	-1281
),	-1282
oice	-1283
▁wants	-1284
▁site	-1285
▁past	-1286
▁dist	-1287
▁order	-1288
▁Sh	-1289
▁coming	-1290
▁story	-1291
here	-1292
▁king	-1293
▁project	-1294
▁clear	-1295
▁inf	-1296
▁aff	-1297
▁needs	-1298
▁es	-1299
▁knew	-1300
▁later	-1301
▁eat	-1302
▁ty	-1303
eace	-1304
▁among	-1305
▁personal	-1306
▁level	-1307
▁Intern	-1308
▁compan	-1309
▁services	-1310
▁12	-1311
work	-1312
selves	-1313
▁often	-1314
loy	-1315
▁organ	-1316
▁someone	-1317
▁dev	-1318
▁created	-1319
▁char	-1320
▁bo	-1321
▁students	-1322
▁Con	-1323
▁parent	-1324
▁sent	-1325
icult	-1326
▁die	-1327
cially	-1328
ters	-1329
ined	-1330
ering	-1331
▁dest	-1332
acebook	-1333
▁win	-1334
▁Acc	-1335
▁step	-1336
oud	-1337
▁Please	-1338
▁known	-1339
alf	-1340
▁mus	-1341
sib	-1342
▁yourself	-1343
▁Wor	-1344
side	-1345
▁comes	-1346
▁team	-1347
▁dri	-1348
▁18	-1349
▁international	-1350
▁15	-1351
▁started	-1352
▁gl	-1353
amp	-1354
▁opport	-1355
▁language	-1356
▁Or	-1357
ession	-1358
▁beh	-1359
osed	-1360
▁rese	-1361
▁community	-1362
▁Christ	-1363
▁Ar	-1364
app	-1365
ission	-1366
▁depend	-1367
▁knows	-1368
io	-1369
oses	-1370
▁val	-1371
▁learn	-1372
▁third	-1373
ogle	-1374
▁English	-1375
▁cannot	-1376
ases	-1377
▁following	-1378
▁expl	-1379
lose	-1380
▁offic	-1381
ible	-1382
,000	-1383
ecause	-1384
ploy	-1385
utes	-1386
It	-1387
ax	-1388
▁$	-1389
nce	-1390
▁Af	-1391
▁yet	-1392
br	-1393
▁hands	-1394
▁fire	-1395
▁travel	-1396
▁World	-1397
▁Most	-1398
ey	-1399
dom	-1400
ority	-1401
▁bring	-1402
▁hours	-1403
▁knowledge	-1404
▁pay	-1405
▁difficult	-1406
oint	-1407
▁control	-1408
osp	-1409
▁cost	-1410
▁compet	-1411
▁post	-1412
▁industry	-1413
▁oper	-1414
▁companies	-1415
▁Well	-1416
▁mess	-1417
▁relations	-1418
▁Facebook	-1419
▁est	-1420
▁rev	-1421
▁Where	-1422
▁users	-1423
▁phot	-1424
▁took	-1425
▁eng	-1426
▁five	-1427
▁lives	-1428
ids	-1429
▁football	-1430
ars	-1431
▁decision	-1432
ale	-1433
▁current	-1434
▁supp	-1435
icle	-1436
▁ris	-1437
▁job	-1438
pecially	-1439
▁top	-1440
ield	-1441
▁history	-1442
▁provide	-1443
▁invest	-1444
▁maj	-1445
augh	-1446
most	-1447
▁trust	-1448
▁Google	-1449
▁term	-1450
▁certain	-1451
....	-1452
▁move	-1453
▁const	-1454
▁write	-1455
▁leg	-1456
▁else	-1457
▁situ	-1458
irth	-1459
cient	-1460
▁using	-1461
▁problems	-1462
aken	-1463
▁According	-1464
me	-1465
▁expect	-1466
ret	-1467
▁seem	-1468
▁works	-1469
▁development	-1470
▁answer	-1471
air	-1472
▁Him	-1473
ization	-1474
▁thous	-1475
ically	-1476
▁parents	-1477
▁fight	-1478
iron	-1479
oday	-1480
▁People	-1481
▁gave	-1482
▁Tw	-1483
▁Le	-1484
▁present	-1485
▁journ	-1486
▁close	-1487
▁treat	-1488
▁ben	-1489
▁complete	-1490
ified	-1491
▁mov	-1492
▁visit	-1493
▁happened	-1494
▁dead	-1495
joy	-1496
itive	-1497
▁exist	-1498
urpr	-1499
▁educ	-1500
▁Br	-1501
ology	-1502
▁special	-1503
▁11	-1504
▁talking	-1505
▁less	-1506
ites	-1507
land	-1508
▁near	-1509
▁save	-1510
iod	-1511
▁heaven	-1512
▁necess	-1513
▁equ	-1514
▁alone	-1515
▁Pres	-1516
▁forg	-1517
istan	-1518
▁ann	-1519
▁members	-1520
▁Ex	-1521
▁living	-1522
ains	-1523
▁strong	-1524
▁god	-1525
▁activ	-1526
ai	-1527
▁area	-1528
fort	-1529
▁customers	-1530
ense	-1531
ross	-1532
▁questions	-1533
▁search	-1534
viron	-1535
▁class	-1536
▁room	-1537
▁chall	-1538
▁least	-1539
▁music	-1540
▁cult	-1541
▁upon	-1542
▁Allah	-1543
▁blog	-1544
▁impro	-1545
▁bas	-1546
▁Comm	-1547
▁Because	-1548
ency	-1549
▁sour	-1550
omp	-1551
▁bad	-1552
▁spec	-1553
▁auth	-1554
▁party	-1555
▁please	-1556
▁quality	-1557
▁sur	-1558
den	-1559
▁moment	-1560
▁dou	-1561
lob	-1562
▁First	-1563
ged	-1564
▁entire	-1565
▁local	-1566
ected	-1567
▁period	-1568
ians	-1569
▁agree	-1570
▁club	-1571
▁page	-1572
▁benef	-1573
▁Many	-1574
▁lost	-1575
ential	-1576
lished	-1577
▁national	-1578
▁peace	-1579
▁face	-1580
▁sk	-1581
uly	-1582
▁Ph	-1583
▁head	-1584
man	-1585
▁Thank	-1586
▁enjoy	-1587
▁half	-1588
▁Min	-1589
▁sex	-1590
▁wasn	-1591
▁matter	-1592
cent	-1593
itiz	-1594
▁security	-1595
▁making	-1596
▁surpr	-1597
ives	-1598
▁side	-1599
▁concer	-1600
▁beautiful	-1601
▁ener	-1602
▁spend	-1603
▁tri	-1604
▁birth	-1605
▁Today	-1606
vironment	-1607
esus	-1608
▁vers	-1609
▁direct	-1610
ued	-1611
▁drink	-1612
▁longer	-1613
ets	-1614
icy	-1615
▁create	-1616
reed	-1617
▁daugh	-1618
iversity	-1619
▁single	-1620
▁enter	-1621
▁Ab	-1622
▁once	-1623
ling	-1624
▁anyone	-1625
leep	-1626
▁mist	-1627
▁priv	-1628
raph	-1629
▁prev	-1630
▁Day	-1631
▁teac	-1632
▁outside	-1633
▁Ad	-1634
ows	-1635
▁sell	-1636
▁short	-1637
eed	-1638
▁sl	-1639
ffic	-1640
▁bank	-1641
▁buy	-1642
▁President	-1643
▁access	-1644
▁Germ	-1645
▁though	-1646
▁rul	-1647
▁having	-1648
▁million	-1649
▁Pl	-1650
ently	-1651
▁European	-1652
hen	-1653
▁situation	-1654
ept	-1655
▁comput	-1656
▁study	-1657
▁100	-1658
▁married	-1659
irit	-1660
▁prop	-1661
▁large	-1662
▁rights	-1663
ier	-1664
etwork	-1665
▁walk	-1666
▁Just	-1667
ump	-1668
▁purp	-1669
▁games	-1670
come	-1671
uge	-1672
▁30	-1673
itted	-1674
▁decided	-1675
▁research	-1676
mber	-1677
▁finan	-1678
▁deal	-1679
itten	-1680
▁fail	-1681
ection	-1682
▁continue	-1683
▁including	-1684
▁relationship	-1685
▁minutes	-1686
▁American	-1687
This	-1688
▁wond	-1689
▁political	-1690
▁send	-1691
▁song	-1692
lf	-1693
com	-1694
▁tem	-1695
sia	-1696
▁energy	-1697
chie	-1698
▁adm	-1699
▁common	-1700
▁proper	-1701
ince	-1702
▁employ	-1703
▁necessary	-1704
▁da	-1705
▁according	-1706
▁Jesus	-1707
!"	-1708
lobal	-1709
▁aren	-1710
ash	-1711
▁foreign	-1712
▁himself	-1713
▁especially	-1714
ards	-1715
▁occ	-1716
ison	-1717
▁popular	-1718
▁web	-1719
▁content	-1720
▁hot	-1721
▁conn	-1722
▁pict	-1723
ained	-1724
▁field	-1725
ern	-1726
rain	-1727
▁profession	-1728
ched	-1729
orth	-1730
▁lim	-1731
▁focus	-1732
▁mil	-1733
▁Aust	-1734
ike	-1735
aby	-1736
▁environment	-1737
▁hosp	-1738
▁citiz	-1739
ably	-1740
▁relig	-1741
pr	-1742
▁whether	-1743
▁makes	-1744
▁Am	-1745
▁worry	-1746
▁watch	-1747
▁cond	-1748
▁became	-1749
▁taken	-1750
▁Oh	-1751
▁14	-1752
ully	-1753
▁prep	-1754
erv	-1755
▁opportunity	-1756
ivid	-1757
▁fac	-1758
iter	-1759
.'	-1760
itions	-1761
▁achie	-1762
▁addition	-1763
What	-1764
ended	-1765
▁sever	-1766
though	-1767
olution	-1768
▁199	-1769
▁forget	-1770
OR	-1771
load	-1772
ov	-1773
▁playing	-1774
▁small	-1775
▁beginning	-1776
▁ones	-1777
▁event	-1778
▁hold	-1779
▁saying	-1780
ham	-1781
▁hon	-1782
▁trad	-1783
iqu	-1784
▁col	-1785
▁various	-1786
▁simple	-1787
▁anim	-1788
▁idea	-1789
▁Have	-1790
raz	-1791
ship	-1792
iet	-1793
▁view	-1794
where	-1795
▁Man	-1796
eous	-1797
▁books	-1798
▁South	-1799
▁written	-1800
ories	-1801
▁line	-1802
▁themselves	-1803
▁teach	-1804
now	-1805
aw	-1806
▁based	-1807
▁contact	-1808
▁several	-1809
utions	-1810
ider	-1811
ont	-1812
▁Sec	-1813
ik	-1814
ration	-1815
▁produ	-1816
han	-1817
ciety	-1818
▁strate	-1819
▁Of	-1820
fully	-1821
▁getting	-1822
▁jo	-1823
atform	-1824
▁Te	-1825
aster	-1826
row	-1827
att	-1828
▁boy	-1829
▁network	-1830
sian	-1831
aught	-1832
▁Look	-1833
▁America	-1834
▁King	-1835
▁user	-1836
ury	-1837
oura	-1838
▁writing	-1839
▁Par	-1840
ftware	-1841
▁By	-1842
▁doub	-1843
▁tool	-1844
▁respect	-1845
▁almost	-1846
▁desc	-1847
ger	-1848
usb	-1849
▁Maybe	-1850
▁production	-1851
▁non	-1852
▁pain	-1853
▁plac	-1854
▁daily	-1855
cl	-1856
ived	-1857
▁however	-1858
wards	-1859
fact	-1860
▁ways	-1861
▁mid	-1862
▁perform	-1863
▁internet	-1864
▁financial	-1865
:2	-1866
ners	-1867
▁changed	-1868
itution	-1869
▁kids	-1870
▁results	-1871
-1	-1872
▁faith	-1873
▁role	-1874
▁platform	-1875
▁individ	-1876
▁town	-1877
▁ple	-1878
▁died	-1879
▁wish	-1880
▁daughter	-1881
ither	-1882
▁proud	-1883
▁brought	-1884
▁estab	-1885
▁enem	-1886
ament	-1887
sibility	-1888
▁Austral	-1889
▁bill	-1890
▁repres	-1891
arm	-1892
▁cho	-1893
▁movie	-1894
ilities	-1895
▁thank	-1896
▁doctor	-1897
▁teacher	-1898
▁link	-1899
▁Somet	-1900
▁commun	-1901
ising	-1902
▁particip	-1903
ilt	-1904
He	-1905
▁thinking	-1906
▁pat	-1907
▁risk	-1908
▁accept	-1909
▁education	-1910
▁customer	-1911
▁mor	-1912
▁share	-1913
▁husb	-1914
▁consum	-1915
▁inside	-1916
▁Chinese	-1917
▁actually	-1918
▁Indian	-1919
▁ve	-1920
medi	-1921
road	-1922
ature	-1923
na	-1924
▁hig	-1925
▁attack	-1926
▁member	-1927
▁police	-1928
▁manage	-1929
And	-1930
▁pract	-1931
ination	-1932
▁Russia	-1933
▁worked	-1934
▁computer	-1935
▁president	-1936
ades	-1937
cience	-1938
ured	-1939
▁,	-1940
▁aut	-1941
▁bre	-1942
rat	-1943
wh	-1944
▁model	-1945
▁camp	-1946
por	-1947
▁ens	-1948
▁changes	-1949
▁require	-1950
▁sat	-1951
▁official	-1952
acy	-1953
▁technology	-1954
▁17	-1955
ograph	-1956
urs	-1957
▁check	-1958
▁More	-1959
▁24	-1960
▁nation	-1961
▁hospital	-1962
▁jud	-1963
▁destro	-1964
▁global	-1965
▁forward	-1966
▁software	-1967
▁16	-1968
▁Ear	-1969
▁Kore	-1970
▁society	-1971
iol	-1972
▁leaders	-1973
cing	-1974
▁particular	-1975
▁due	-1976
▁Life	-1977
ients	-1978
▁disc	-1979
▁voice	-1980
▁tried	-1981
▁behind	-1982
reen	-1983
▁application	-1984
ript	-1985
cle	-1986
▁self	-1987
▁played	-1988
ances	-1989
▁amaz	-1990
used	-1991
▁effort	-1992
gress	-1993
▁article	-1994
ogn	-1995
▁Se	-1996
▁Comp	-1997
▁building	-1998
imate	-1999
▁poor	-2000
▁Mr	-2001
▁sound	-2002
ored	-2003
▁2020	-2004
▁husband	-2005
▁percent	-2006
idence	-2007
▁sleep	-2008
▁couldn	-2009
▁mult	-2010
▁purch	-2011
ones	-2012
▁saved	-2013
▁issue	-2014
▁Z	-2015
▁13	-2016
anger	-2017
rab	-2018
▁yes	-2019
▁Moses	-2020
▁impact	-2021
error	-2022
▁sal	-2023
reng	-2024
▁effective	-2025
▁25	-2026
iver	-2027
▁taking	-2028
unately	-2029
oke	-2030
▁norm	-2031
▁rele	-2032
of	-2033
ins	-2034
▁economic	-2035
▁Take	-2036
cuss	-2037
▁seven	-2038
▁sister	-2039
aly	-2040
ohn	-2041
▁baby	-2042
▁suff	-2043
ock	-2044
▁(1	-2045
▁weeks	-2046
▁office	-2047
▁marketing	-2048
ode	-2049
elie	-2050
▁phys	-2051
▁Mar	-2052
ior	-2053
▁Internet	-2054
▁Afric	-2055
▁version	-2056
▁Su	-2057
▁ce	-2058
▁required	-2059
▁sug	-2060
▁prob	-2061
▁Good	-2062
▁specific	-2063
▁happens	-2064
igital	-2065
▁reasons	-2066
▁cry	-2067
aps	-2068
gel	-2069
▁Ag	-2070
▁needed	-2071
▁Did	-2072
▁ru	-2073
reme	-2074
▁offer	-2075
▁Pol	-2076
ples	-2077
▁immedi	-2078
▁enc	-2079
▁whom	-2080
aim	-2081
▁Res	-2082
gn	-2083
▁pot	-2084
▁policy	-2085
akistan	-2086
▁tour	-2087
▁Therefore	-2088
▁source	-2089
▁evil	-2090
▁aware	-2091
iding	-2092
▁rules	-2093
ability	-2094
itter	-2095
aper	-2096
▁recomm	-2097
▁streng	-2098
▁From	-2099
iven	-2100
▁wrote	-2101
▁usually	-2102
▁record	-2103
to	-2104
riend	-2105
▁amount	-2106
▁active	-2107
aring	-2108
▁bless	-2109
oot	-2110
aterial	-2111
ORD	-2112
▁began	-2113
▁successful	-2114
▁sw	-2115
▁represent	-2116
▁wait	-2117
▁Sa	-2118
▁discuss	-2119
inal	-2120
▁typ	-2121
▁Part	-2122
▁natural	-2123
▁mob	-2124
▁pun	-2125
ulation	-2126
▁destroy	-2127
▁sun	-2128
mb	-2129
▁increase	-2130
▁lab	-2131
▁App	-2132
epend	-2133
▁Rep	-2134
▁arri	-2135
▁LORD	-2136
▁major	-2137
ify	-2138
ium	-2139
▁tax	-2140
▁takes	-2141
▁Pakistan	-2142
▁six	-2143
▁sold	-2144
▁tre	-2145
▁Tell	-2146
▁fall	-2147
une	-2148
▁region	-2149
▁worship	-2150
ique	-2151
▁becom	-2152
▁chance	-2153
▁pub	-2154
▁21	-2155
▁wis	-2156
▁Mus	-2157
rench	-2158
▁reading	-2159
▁author	-2160
irm	-2161
over	-2162
▁low	-2163
▁luck	-2164
▁nature	-2165
lcome	-2166
▁modern	-2167
▁suggest	-2168
▁culture	-2169
▁improve	-2170
erc	-2171
▁ap	-2172
▁50	-2173
yle	-2174
▁hur	-2175
▁famil	-2176
▁sometimes	-2177
▁professional	-2178
my	-2179
orry	-2180
▁div	-2181
▁key	-2182
▁bit	-2183
▁righteous	-2184
▁detail	-2185
▁ca	-2186
▁ill	-2187
ober	-2188
▁worth	-2189
dle	-2190
▁card	-2191
▁Japanese	-2192
My	-2193
▁Lot	-2194
▁material	-2195
inist	-2196
▁dark	-2197
▁goes	-2198
▁France	-2199
▁Rem	-2200
▁remain	-2201
▁Jan	-2202
▁repl	-2203
▁challeng	-2204
▁Right	-2205
▁press	-2206
▁experien	-2207
ached	-2208
▁viol	-2209
▁probably	-2210
▁areas	-2211
▁thousands	-2212
ees	-2213
▁value	-2214
▁ident	-2215
▁tot	-2216
▁signific	-2217
▁hotel	-2218
▁morning	-2219
▁Only	-2220
▁myself	-2221
▁scient	-2222
▁Everyone	-2223
mm	-2224
▁type	-2225
▁redu	-2226
▁road	-2227
▁defin	-2228
oul	-2229
▁clean	-2230
▁opened	-2231
year	-2232
cu	-2233
▁door	-2234
▁weak	-2235
▁recogn	-2236
rict	-2237
▁purpose	-2238
▁command	-2239
▁meeting	-2240
▁seems	-2241
elt	-2242
▁Sw	-2243
▁meas	-2244
▁surprised	-2245
iously	-2246
▁Even	-2247
:3	-2248
lim	-2249
orrow	-2250
ufact	-2251
▁journey	-2252
▁early	-2253
ipp	-2254
▁held	-2255
▁Will	-2256
▁Russian	-2257
▁across	-2258
▁spirit	-2259
▁players	-2260
▁Trump	-2261
for	-2262
▁citizens	-2263
▁subject	-2264
▁dise	-2265
▁danger	-2266
▁allowed	-2267
itting	-2268
▁finally	-2269
▁built	-2270
▁lif	-2271
▁wonder	-2272
eg	-2273
hold	-2274
▁Read	-2275
itable	-2276
ran	-2277
▁disapp	-2278
▁blood	-2279
▁meaning	-2280
▁Fin	-2281
▁allows	-2282
▁invol	-2283
▁Minister	-2284
cell	-2285
more	-2286
undred	-2287
▁regard	-2288
eah	-2289
ped	-2290
▁French	-2291
ches	-2292
▁North	-2293
▁killed	-2294
▁provided	-2295
iday	-2296
▁vac	-2297
▁useful	-2298
▁message	-2299
▁price	-2300
▁sea	-2301
▁front	-2302
▁cities	-2303
fortunately	-2304
▁quite	-2305
▁private	-2306
▁orig	-2307
ports	-2308
▁lose	-2309
▁positive	-2310
▁difference	-2311
▁opp	-2312
▁Arab	-2313
▁announ	-2314
ara	-2315
rect	-2316
▁table	-2317
reedom	-2318
▁mobile	-2319
▁doubt	-2320
1.	-2321
▁depends	-2322
▁looked	-2323
▁interesting	-2324
vert	-2325
itary	-2326
▁Both	-2327
▁National	-2328
▁Earth	-2329
▁states	-2330
▁express	-2331
▁Father	-2332
urther	-2333
▁seek	-2334
▁cases	-2335
▁eye	-2336
▁download	-2337
▁issues	-2338
▁parts	-2339
▁manufact	-2340
▁exc	-2341
▁receive	-2342
▁rain	-2343
▁sons	-2344
udi	-2345
▁par	-2346
▁laug	-2347
▁cause	-2348
eds	-2349
▁ten	-2350
▁digital	-2351
▁En	-2352
het	-2353
oper	-2354
▁gra	-2355
▁International	-2356
aged	-2357
fect	-2358
▁den	-2359
▁turned	-2360
ER	-2361
ery	-2362
▁economy	-2363
▁attention	-2364
reet	-2365
▁40	-2366
▁Us	-2367
uary	-2368
▁Sy	-2369
▁career	-2370
ama	-2371
ino	-2372
▁mount	-2373
▁Australia	-2374
▁email	-2375
▁Get	-2376
▁loss	-2377
artment	-2378
▁haven	-2379
▁responsible	-2380
▁dom	-2381
▁neg	-2382
▁medical	-2383
ctober	-2384
eal	-2385
lebr	-2386
room	-2387
soci	-2388
▁events	-2389
ada	-2390
▁John	-2391
▁goal	-2392
ging	-2393
▁along	-2394
▁wouldn	-2395
▁wealth	-2396
Do	-2397
▁gone	-2398
▁places	-2399
▁achieve	-2400
▁taught	-2401
▁Sometimes	-2402
head	-2403
▁upd	-2404
▁drug	-2405
▁choose	-2406
▁March	-2407
gypt	-2408
era	-2409
▁wind	-2410
▁hundred	-2411
▁request	-2412
▁sil	-2413
plement	-2414
▁Cl	-2415
▁Sept	-2416
▁prison	-2417
▁therefore	-2418
9.	-2419
lu	-2420
▁War	-2421
▁deli	-2422
hod	-2423
rew	-2424
asing	-2425
▁provides	-2426
▁contrib	-2427
▁date	-2428
ruction	-2429
▁angel	-2430
hest	-2431
ruct	-2432
▁fish	-2433
▁basis	-2434
empt	-2435
▁dad	-2436
▁Other	-2437
▁picture	-2438
▁ri	-2439
hood	-2440
▁Egypt	-2441
▁address	-2442
omen	-2443
▁safety	-2444
▁Germany	-2445
▁Sat	-2446
▁Sc	-2447
▁Love	-2448
▁hate	-2449
▁waiting	-2450
ason	-2451
▁student	-2452
▁Co	-2453
▁miss	-2454
▁normal	-2455
▁October	-2456
irus	-2457
▁Dav	-2458
▁interested	-2459
ron	-2460
▁nor	-2461
Why	-2462
▁believed	-2463
▁appear	-2464
▁satis	-2465
ats	-2466
▁store	-2467
▁activities	-2468
▁cred	-2469
erence	-2470
▁space	-2471
ung	-2472
▁Any	-2473
▁Those	-2474
0.	-2475
▁Each	-2476
▁September	-2477
▁throughout	-2478
raw	-2479
▁options	-2480
ube	-2481
▁Dr	-2482
▁Her	-2483
▁resour	-2484
aid	-2485
wered	-2486
ises	-2487
▁engine	-2488
▁largest	-2489
▁2016	-2490
▁implement	-2491
▁Since	-2492
▁gives	-2493
▁developed	-2494
▁ess	-2495
▁celebr	-2496
▁growth	-2497
▁consider	-2498
▁related	-2499
8.	-2500
idered	-2501
ially	-2502
▁insp	-2503
▁option	-2504
▁trip	-2505
▁legal	-2506
ugg	-2507
▁soul	-2508
▁reach	-2509
▁review	-2510
itness	-2511
▁January	-2512
▁Twitter	-2513
▁22	-2514
antly	-2515
illed	-2516
▁helped	-2517
▁July	-2518
▁spent	-2519
▁regular	-2520
▁medic	-2521
▁method	-2522
▁treatment	-2523
▁doll	-2524
▁received	-2525
ape	-2526
razy	-2527
by	-2528
▁potential	-2529
emic	-2530
▁perm	-2531
▁century	-2532
▁transl	-2533
▁training	-2534
▁felt	-2535
▁unique	-2536
▁Union	-2537
▁Im	-2538
▁respond	-2539
▁considered	-2540
▁del	-2541
▁David	-2542
▁responsibility	-2543
ude	-2544
aving	-2545
▁laun	-2546
▁Child	-2547
▁general	-2548
rop	-2549
▁player	-2550
▁languages	-2551
▁tradition	-2552
belie	-2553
▁Korea	-2554
▁ensure	-2555
▁running	-2556
▁position	-2557
oly	-2558
ires	-2559
▁cou	-2560
▁Inst	-2561
▁mag	-2562
▁Government	-2563
ift	-2564
▁prayer	-2565
isions	-2566
▁looks	-2567
▁competition	-2568
aff	-2569
par	-2570
ourage	-2571
▁capital	-2572
▁secret	-2573
▁install	-2574
play	-2575
▁democ	-2576
do	-2577
riage	-2578
▁maintain	-2579
▁property	-2580
▁thousand	-2581
▁Fe	-2582
term	-2583
▁fru	-2584
▁mention	-2585
▁Cent	-2586
▁fast	-2587
▁above	-2588
▁super	-2589
itor	-2590
▁While	-2591
▁answered	-2592
urance	-2593
OT	-2594
eder	-2595
verage	-2596
▁immediately	-2597
▁decl	-2598
ief	-2599
oid	-2600
▁pregn	-2601
▁established	-2602
co	-2603
▁Afg	-2604
▁ele	-2605
▁animals	-2606
▁&	-2607
ots	-2608
▁recommend	-2609
hi	-2610
▁added	-2611
▁sites	-2612
▁charact	-2613
▁Mess	-2614
▁stat	-2615
oo	-2616
▁huge	-2617
ask	-2618
If	-2619
xic	-2620
▁fly	-2621
▁final	-2622
▁claim	-2623
▁enemy	-2624
▁quick	-2625
▁Cong	-2626
▁Act	-2627
▁State	-2628
▁solution	-2629
▁worried	-2630
time	-2631
▁thee	-2632
▁amazing	-2633
.)	-2634
▁except	-2635
▁freedom	-2636
▁object	-2637
edic	-2638
imum	-2639
▁science	-2640
▁progress	-2641
▁Although	-2642
ened	-2643
ilar	-2644
▁towards	-2645
enge	-2646
▁cal	-2647
▁partner	-2648
▁affect	-2649
ony	-2650
▁religion	-2651
▁fav	-2652
ensive	-2653
▁deb	-2654
iving	-2655
▁glad	-2656
▁court	-2657
iveness	-2658
▁select	-2659
▁learned	-2660
▁committed	-2661
▁oil	-2662
▁military	-2663
▁management	-2664
▁Em	-2665
ann	-2666
ulf	-2667
▁Tur	-2668
▁either	-2669
▁partners	-2670
▁Hell	-2671
▁break	-2672
▁strength	-2673
▁Gr	-2674
attle	-2675
▁election	-2676
▁docu	-2677
ceed	-2678
sh	-2679
▁path	-2680
▁fund	-2681
▁guide	-2682
▁crazy	-2683
▁tou	-2684
cember	-2685
▁University	-2686
▁veh	-2687
▁op	-2688
▁Paris	-2689
▁powerful	-2690
▁mer	-2691
denly	-2692
enty	-2693
▁Two	-2694
edia	-2695
▁late	-2696
cil	-2697
egr	-2698
ator	-2699
▁dam	-2700
▁rate	-2701
▁truly	-2702
▁physical	-2703
2.	-2704
▁UK	-2705
uted	-2706
▁Des	-2707
▁smart	-2708
▁bur	-2709
▁rich	-2710
▁ability	-2711
amb	-2712
▁port	-2713
isis	-2714
nown	-2715
▁threat	-2716
▁Mon	-2717
istry	-2718
▁reve	-2719
▁apply	-2720
7.	-2721
haps	-2722
▁determ	-2723
▁perfect	-2724
aign	-2725
▁ment	-2726
▁disease	-2727
▁expected	-2728
▁continued	-2729
▁stopped	-2730
hers	-2731
▁weather	-2732
▁Remember	-2733
▁See	-2734
enger	-2735
▁likely	-2736
▁administ	-2737
▁Everything	-2738
▁dut	-2739
ctors	-2740
▁brothers	-2741
▁agreement	-2742
▁girls	-2743
▁colle	-2744
5.	-2745
▁December	-2746
▁currently	-2747
▁lived	-2748
icket	-2749
▁wide	-2750
ossible	-2751
▁communic	-2752
▁mistakes	-2753
▁disp	-2754
▁host	-2755
▁park	-2756
There	-2757
▁soon	-2758
▁individual	-2759
▁Iran	-2760
▁compl	-2761
▁Afghan	-2762
▁choice	-2763
fer	-2764
ivil	-2765
▁Also	-2766
▁Serv	-2767
▁rad	-2768
▁York	-2769
▁ahead	-2770
raham	-2771
▁crit	-2772
friend	-2773
▁certainly	-2774
▁ton	-2775
ina	-2776
▁imm	-2777
▁Health	-2778
lier	-2779
▁published	-2780
▁autom	-2781
They	-2782
▁Sol	-2783
wide	-2784
▁cir	-2785
▁terms	-2786
▁response	-2787
wise	-2788
▁alive	-2789
▁Word	-2790
▁trade	-2791
▁completely	-2792
▁parties	-2793
▁strategy	-2794
▁total	-2795
▁cas	-2796
▁families	-2797
▁text	-2798
▁journal	-2799
▁lic	-2800
▁strugg	-2801
Who	-2802
▁independ	-2803
▁aw	-2804
▁tele	-2805
▁stage	-2806
▁belong	-2807
▁presence	-2808
ha	-2809
▁Ke	-2810
▁correct	-2811
▁mistake	-2812
▁prin	-2813
▁vill	-2814
▁Africa	-2815
▁further	-2816
▁hor	-2817
▁extreme	-2818
▁workers	-2819
uct	-2820
▁challenge	-2821
▁Ne	-2822
vember	-2823
▁concept	-2824
▁mach	-2825
▁easily	-2826
aled	-2827
▁Brit	-2828
liament	-2829
▁ban	-2830
▁crisis	-2831
lled	-2832
▁exact	-2833
▁weight	-2834
iety	-2835
▁cell	-2836
▁fully	-2837
▁hell	-2838
▁mine	-2839
▁healthy	-2840
▁majority	-2841
▁rule	-2842
▁groups	-2843
▁campaign	-2844
IN	-2845
mas	-2846
▁witness	-2847
▁June	-2848
▁moon	-2849
▁clients	-2850
▁brain	-2851
▁Gu	-2852
▁eight	-2853
▁attract	-2854
▁concern	-2855
▁millions	-2856
▁assist	-2857
▁November	-2858
3.	-2859
▁init	-2860
▁intro	-2861
▁followed	-2862
▁significant	-2863
▁•	-2864
▁brand	-2865
▁marriage	-2866
ulations	-2867
▁fulf	-2868
▁returned	-2869
pril	-2870
▁note	-2871
▁drive	-2872
▁limited	-2873
▁importance	-2874
▁attempt	-2875
▁scared	-2876
▁X	-2877
rest	-2878
▁Time	-2879
▁closed	-2880
lam	-2881
▁nations	-2882
▁vot	-2883
In	-2884
lear	-2885
ointed	-2886
▁purchase	-2887
▁challenges	-2888
anish	-2889
▁busy	-2890
▁ant	-2891
▁recent	-2892
▁tar	-2893
ondon	-2894
▁protection	-2895
ex	-2896
▁websites	-2897
icles	-2898
▁High	-2899
go	-2900
▁Hey	-2901
▁During	-2902
▁action	-2903
▁organization	-2904
But	-2905
uman	-2906
▁laws	-2907
▁influ	-2908
▁cooper	-2909
▁projects	-2910
▁cook	-2911
▁Women	-2912
▁error	-2913
▁serve	-2914
▁church	-2915
▁welcome	-2916
▁released	-2917
▁understanding	-2918
ead	-2919
iable	-2920
▁schools	-2921
▁contract	-2922
▁names	-2923
▁dreams	-2924
▁Republic	-2925
▁Per	-2926
▁benefit	-2927
EO	-2928
ply	-2929
iverse	-2930
▁separ	-2931
▁types	-2932
▁lie	-2933
▁unto	-2934
els	-2935
▁size	-2936
▁punish	-2937
ze	-2938
▁ship	-2939
▁decide	-2940
▁higher	-2941
▁existence	-2942
racy	-2943
▁Know	-2944
▁pret	-2945
▁loved	-2946
▁prepared	-2947
▁ur	-2948
▁inn	-2949
▁mot	-2950
▁Over	-2951
▁imag	-2952
▁Mexic	-2953
rap	-2954
▁impossible	-2955
der	-2956
...]	-2957
rupt	-2958
▁198	-2959
▁trou	-2960
ouncil	-2961
▁connect	-2962
▁fem	-2963
▁pack	-2964
▁Social	-2965
▁Bar	-2966
▁Son	-2967
icked	-2968
atever	-2969
▁April	-2970
4.	-2971
▁shows	-2972
▁spread	-2973
fficient	-2974
▁creation	-2975
▁population	-2976
ification	-2977
▁businesses	-2978
▁London	-2979
kay	-2980
unt	-2981
▁sud	-2982
▁flight	-2983
▁Like	-2984
▁color	-2985
ID	-2986
▁Give	-2987
known	-2988
▁code	-2989
▁guess	-2990
▁associ	-2991
▁integr	-2992
▁revolution	-2993
ittee	-2994
▁youth	-2995
▁conduct	-2996
▁similar	-2997
▁tools	-2998
▁whose	-2999
▁govern	-3000
▁interv	-3001
▁videos	-3002
cel	-3003
▁paper	-3004
▁plans	-3005
▁transport	-3006
IS	-3007
▁flo	-3008
▁sense	-3009
icro	-3010
▁vict	-3011
▁applications	-3012
▁goals	-3013
▁older	-3014
▁growing	-3015
igr	-3016
▁staff	-3017
▁Abraham	-3018
0%	-3019
▁excell	-3020
oon	-3021
ton	-3022
▁middle	-3023
▁describ	-3024
▁employees	-3025
▁cut	-3026
▁sky	-3027
atory	-3028
▁justice	-3029
▁Gener	-3030
▁kingdom	-3031
▁strateg	-3032
▁City	-3033
▁speaking	-3034
▁esc	-3035
▁libr	-3036
▁sales	-3037
▁couple	-3038
▁ground	-3039
▁memory	-3040
cies	-3041
▁politics	-3042
▁steps	-3043
▁resources	-3044
uff	-3045
▁et	-3046
ne	-3047
uals	-3048
▁abroad	-3049
▁decades	-3050
▁systems	-3051
▁tonight	-3052
▁requirements	-3053
▁essential	-3054
▁explain	-3055
ager	-3056
▁efforts	-3057
▁charge	-3058
eth	-3059
▁Asia	-3060
▁Muslim	-3061
▁itself	-3062
▁collect	-3063
▁include	-3064
▁happening	-3065
▁device	-3066
ges	-3067
▁bro	-3068
▁nice	-3069
▁decisions	-3070
▁beauty	-3071
▁conditions	-3072
erve	-3073
▁sum	-3074
▁photo	-3075
key	-3076
▁cy	-3077
▁Ask	-3078
▁credit	-3079
▁multip	-3080
▁remind	-3081
▁stories	-3082
▁(2	-3083
amed	-3084
▁poll	-3085
▁demand	-3086
▁announced	-3087
▁Unfortunately	-3088
▁2.	-3089
▁speed	-3090
▁planet	-3091
▁concerned	-3092
▁display	-3093
▁entered	-3094
▁Children	-3095
▁style	-3096
▁designed	-3097
unities	-3098
7,	-3099
▁Does	-3100
▁mis	-3101
▁abs	-3102
▁evening	-3103
▁serious	-3104
▁German	-3105
▁effects	-3106
▁List	-3107
▁carry	-3108
9,	-3109
▁lat	-3110
▁reality	-3111
▁Qu	-3112
▁Air	-3113
ugust	-3114
▁file	-3115
▁advice	-3116
▁satisf	-3117
▁meant	-3118
▁EU	-3119
▁sitting	-3120
▁expand	-3121
▁minute	-3122
ival	-3123
▁helps	-3124
▁refuge	-3125
▁sector	-3126
▁weap	-3127
8,	-3128
▁Cont	-3129
oss	-3130
▁sorry	-3131
▁angels	-3132
▁photos	-3133
▁wisdom	-3134
itely	-3135
▁guy	-3136
ills	-3137
▁clos	-3138
▁spoke	-3139
▁Canada	-3140
▁billion	-3141
▁1.	-3142
▁terr	-3143
▁statement	-3144
▁Car	-3145
▁Great	-3146
▁birthday	-3147
▁occur	-3148
▁biggest	-3149
▁emer	-3150
▁UN	-3151
▁tom	-3152
▁Dad	-3153
▁stri	-3154
▁series	-3155
▁traffic	-3156
▁violence	-3157
▁aim	-3158
▁red	-3159
▁feeling	-3160
▁involved	-3161
▁tells	-3162
50	-3163
▁sus	-3164
▁organiz	-3165
▁character	-3166
▁destroyed	-3167
▁extremely	-3168
asks	-3169
raft	-3170
▁climate	-3171
▁Spe	-3172
▁although	-3173
▁Once	-3174
▁battle	-3175
▁indeed	-3176
▁Del	-3177
▁Const	-3178
▁advert	-3179
▁careful	-3180
▁Feb	-3181
right	-3182
▁signs	-3183
▁electric	-3184
▁letter	-3185
ences	-3186
▁Sing	-3187
▁appl	-3188
ert	-3189
▁ut	-3190
▁Che	-3191
▁Reg	-3192
▁Pre	-3193
▁Mal	-3194
▁mouth	-3195
:4	-3196
▁forth	-3197
▁August	-3198
▁average	-3199
▁greatest	-3200
▁minister	-3201
ona	-3202
word	-3203
▁leader	-3204
▁TV	-3205
▁cop	-3206
▁offers	-3207
▁season	-3208
hib	-3209
useum	-3210
▁becomes	-3211
▁completed	-3212
▁ver	-3213
▁YouT	-3214
▁pleased	-3215
▁benefits	-3216
▁Christmas	-3217
AN	-3218
▁clot	-3219
▁comb	-3220
▁touch	-3221
▁struct	-3222
▁target	-3223
ems	-3224
▁pie	-3225
▁desire	-3226
How	-3227
▁function	-3228
ruary	-3229
▁simply	-3230
▁highest	-3231
▁opportunities	-3232
ES	-3233
ming	-3234
▁Last	-3235
▁Prime	-3236
▁pages	-3237
▁Sam	-3238
▁hurt	-3239
▁station	-3240
▁programs	-3241
▁26	-3242
irt	-3243
▁prim	-3244
▁histor	-3245
sy	-3246
▁effic	-3247
▁remem	-3248
▁Mother	-3249
▁pra	-3250
▁Bank	-3251
▁fine	-3252
atives	-3253
vent	-3254
▁solutions	-3255
pro	-3256
▁Ma	-3257
▁Make	-3258
▁Their	-3259
▁Thanks	-3260
▁airport	-3261
▁YouTube	-3262
▁convers	-3263
▁etc	-3264
▁Open	-3265
▁hearts	-3266
▁z	-3267
▁Cour	-3268
▁feed	-3269
▁image	-3270
▁pictures	-3271
OU	-3272
ata	-3273
▁Play	-3274
▁House	-3275
▁board	-3276
▁thanks	-3277
▁ourselves	-3278
▁Ob	-3279
▁anymore	-3280
▁watching	-3281
▁university	-3282
val	-3283
▁Keep	-3284
engers	-3285
▁raised	-3286
▁Spanish	-3287
▁sources	-3288
▁avoid	-3289
▁February	-3290
▁Art	-3291
▁mur	-3292
▁Spain	-3293
▁force	-3294
▁sight	-3295
▁Americans	-3296
▁manufacture	-3297
ternal	-3298
▁easier	-3299
iah	-3300
1,	-3301
▁Pri	-3302
▁inj	-3303
▁distrib	-3304
▁gods	-3305
▁suitable	-3306
▁condition	-3307
▁tree	-3308
▁instit	-3309
▁library	-3310
uclear	-3311
▁quiet	-3312
▁obtain	-3313
ological	-3314
▁devices	-3315
▁introdu	-3316
▁Human	-3317
▁fault	-3318
▁passed	-3319
▁tomorrow	-3320
▁197	-3321
▁famous	-3322
▁numbers	-3323
▁approach	-3324
ms	-3325
▁river	-3326
▁directly	-3327
'.	-3328
▁comfort	-3329
bit	-3330
▁led	-3331
▁laugh	-3332
▁standard	-3333
▁hous	-3334
▁kept	-3335
▁advant	-3336
▁writer	-3337
umb	-3338
lt	-3339
atic	-3340
▁duty	-3341
▁fair	-3342
▁star	-3343
▁dedic	-3344
ON	-3345
▁paid	-3346
▁cover	-3347
▁reduce	-3348
▁NOT	-3349
▁join	-3350
▁opin	-3351
▁Party	-3352
▁Nations	-3353
araoh	-3354
▁radio	-3355
▁promise	-3356
▁activity	-3357
▁202	-3358
▁rid	-3359
▁Stud	-3360
▁circ	-3361
▁flow	-3362
▁lucky	-3363
▁learning	-3364
▁starting	-3365
▁ideas	-3366
▁failed	-3367
ush	-3368
▁los	-3369
▁shut	-3370
▁Dub	-3371
ishing	-3372
▁Spirit	-3373
▁worldwide	-3374
▁deg	-3375
▁firm	-3376
▁Jer	-3377
ented	-3378
▁sins	-3379
▁deeds	-3380
▁asking	-3381
▁intell	-3382
▁recently	-3383
▁wonderful	-3384
▁Finally	-3385
▁sad	-3386
▁costs	-3387
▁mercy	-3388
▁track	-3389
AT	-3390
▁Was	-3391
aul	-3392
vision	-3393
▁maybe	-3394
▁commer	-3395
▁moving	-3396
▁stayed	-3397
omon	-3398
onna	-3399
arant	-3400
▁sett	-3401
estern	-3402
▁fig	-3403
▁former	-3404
▁greater	-3405
▁release	-3406
▁hop	-3407
▁acqu	-3408
▁signed	-3409
▁experienced	-3410
vere	-3411
LL	-3412
ny	-3413
iger	-3414
pite	-3415
ators	-3416
ederal	-3417
▁block	-3418
well	-3419
▁Jud	-3420
▁driver	-3421
ague	-3422
nces	-3423
▁cars	-3424
▁rail	-3425
Is	-3426
airs	-3427
inated	-3428
▁Cor	-3429
▁hol	-3430
5,	-3431
vey	-3432
▁Tom	-3433
▁college	-3434
ether	-3435
▁vacc	-3436
▁indic	-3437
cious	-3438
▁lock	-3439
ground	-3440
▁Second	-3441
▁promot	-3442
based	-3443
▁dear	-3444
action	-3445
▁excellent	-3446
▁showed	-3447
▁dangerous	-3448
▁Bl	-3449
▁trouble	-3450
▁performance	-3451
▁feat	-3452
▁shop	-3453
▁center	-3454
▁Afghanistan	-3455
ott	-3456
▁Dep	-3457
▁purposes	-3458
sec	-3459
▁Lu	-3460
ffee	-3461
uses	-3462
light	-3463
▁giving	-3464
▁pretty	-3465
▁complain	-3466
That	-3467
▁lots	-3468
▁Mexico	-3469
dy	-3470
▁196	-3471
▁Law	-3472
▁cam	-3473
▁gift	-3474
▁complex	-3475
▁details	-3476
▁shot	-3477
▁Islam	-3478
apter	-3479
▁Pray	-3480
▁harm	-3481
▁levels	-3482
▁Dem	-3483
▁fix	-3484
▁fruit	-3485
▁obs	-3486
▁heavens	-3487
▁providing	-3488
sequ	-3489
▁emb	-3490
▁equal	-3491
▁everybody	-3492
▁fuck	-3493
▁$1	-3494
▁bed	-3495
▁films	-3496
▁shown	-3497
▁Solomon	-3498
▁lack	-3499
▁village	-3500
▁Book	-3501
ray	-3502
▁mad	-3503
▁exch	-3504
▁cross	-3505
▁animal	-3506
▁movies	-3507
▁negative	-3508
For	-3509
▁slow	-3510
▁commit	-3511
▁Council	-3512
▁affected	-3513
▁rise	-3514
▁gonna	-3515
▁secure	-3516
▁Another	-3517
▁British	-3518
▁insurance	-3519
razil	-3520
▁temple	-3521
irac	-3522
▁fourth	-3523
▁nearly	-3524
▁Bel	-3525
▁Again	-3526
▁creating	-3527
▁punishment	-3528
▁righteousness	-3529
acity	-3530
▁100%	-3531
▁princi	-3532
▁replied	-3533
▁Es	-3534
▁civil	-3535
▁range	-3536
gu	-3537
let	-3538
▁joy	-3539
ables	-3540
gment	-3541
▁Person	-3542
▁Ah	-3543
inary	-3544
▁approved	-3545
▁investig	-3546
▁reported	-3547
▁individuals	-3548
anced	-3549
▁East	-3550
bo	-3551
iced	-3552
▁arrived	-3553
▁Mom	-3554
▁Work	-3555
andemic	-3556
▁additional	-3557
▁seeing	-3558
AR	-3559
▁Ge	-3560
▁Note	-3561
▁democracy	-3562
When	-3563
▁hit	-3564
▁multiple	-3565
▁bread	-3566
▁incred	-3567
▁authority	-3568
▁photograph	-3569
▁[...]	-3570
▁traditional	-3571
▁spok	-3572
▁judge	-3573
▁pregnant	-3574
▁#	-3575
▁sports	-3576
part	-3577
usion	-3578
▁shouldn	-3579
ech	-3580
▁favor	-3581
▁exactly	-3582
▁practice	-3583
aging	-3584
▁reached	-3585
▁increased	-3586
alys	-3587
▁deep	-3588
▁TH	-3589
clud	-3590
face	-3591
erciful	-3592
▁Brazil	-3593
▁Apple	-3594
▁breat	-3595
▁Commission	-3596
▁28	-3597
izing	-3598
▁refer	-3599
▁female	-3600
ane	-3601
▁60	-3602
rial	-3603
▁Never	-3604
ED	-3605
ales	-3606
ests	-3607
▁Year	-3608
▁innov	-3609
▁section	-3610
weet	-3611
▁gets	-3612
idents	-3613
▁suddenly	-3614
▁Com	-3615
▁Dubai	-3616
▁enemies	-3617
.,	-3618
arc	-3619
▁remo	-3620
▁limit	-3621
▁shoot	-3622
imately	-3623
▁nuclear	-3624
▁movement	-3625
▁Uk	-3626
down	-3627
▁songs	-3628
▁produce	-3629
▁definitely	-3630
alt	-3631
ateg	-3632
lands	-3633
▁mental	-3634
▁previous	-3635
▁increasing	-3636
cr	-3637
▁CO	-3638
aries	-3639
▁Court	-3640
▁mentioned	-3641
mp	-3642
▁Fam	-3643
▁Mod	-3644
▁kinds	-3645
▁religious	-3646
▁Cal	-3647
▁Har	-3648
arily	-3649
▁analy	-3650
▁Rec	-3651
▁tit	-3652
▁quickly	-3653
▁continues	-3654
AS	-3655
avy	-3656
▁Come	-3657
lex	-3658
▁Mary	-3659
▁deliver	-3660
▁hearing	-3661
formation	-3662
2,	-3663
▁Prop	-3664
▁leading	-3665
abor	-3666
ancy	-3667
estic	-3668
▁subm	-3669
▁solve	-3670
▁manufacturer	-3671
ene	-3672
▁USA	-3673
phone	-3674
▁Whether	-3675
▁/	-3676
▁pen	-3677
earch	-3678
order	-3679
▁shared	-3680
▁privacy	-3681
▁Bo	-3682
pped	-3683
▁green	-3684
▁pandemic	-3685
▁adult	-3686
▁basic	-3687
ighb	-3688
▁Constitution	-3689
▁click	-3690
▁decade	-3691
▁listening	-3692
▁spiritual	-3693
ays	-3694
lig	-3695
▁Try	-3696
▁box	-3697
▁dog	-3698
▁kid	-3699
▁highly	-3700
▁reject	-3701
No	-3702
▁mission	-3703
▁evidence	-3704
▁suc	-3705
▁conv	-3706
▁Security	-3707
▁construction	-3708
itch	-3709
▁Dis	-3710
▁compared	-3711
▁independent	-3712
lock	-3713
▁stuff	-3714
▁fighting	-3715
▁wat	-3716
▁occas	-3717
▁machine	-3718
▁prevent	-3719
mical	-3720
▁Wind	-3721
▁servants	-3722
3,	-3723
onav	-3724
▁vol	-3725
▁corpor	-3726
▁Qur	-3727
▁pleas	-3728
▁arrest	-3729
▁citizen	-3730
▁Best	-3731
▁variety	-3732
▁SEO	-3733
▁fre	-3734
onavirus	-3735
▁launched	-3736
▁pressure	-3737
▁Paul	-3738
▁Which	-3739
▁eating	-3740
▁servant	-3741
pri	-3742
aming	-3743
istic	-3744
▁moved	-3745
▁commercial	-3746
▁Wik	-3747
▁bar	-3748
▁sides	-3749
▁becoming	-3750
▁interview	-3751
ram	-3752
▁hy	-3753
▁aspect	-3754
▁summer	-3755
▁Jew	-3756
▁Bill	-3757
▁West	-3758
▁labor	-3759
ma	-3760
ribe	-3761
▁Isn	-3762
hered	-3763
▁Kingdom	-3764
▁willing	-3765
▁realized	-3766
▁location	-3767
▁stars	-3768
▁experts	-3769
▁Mad	-3770
▁Port	-3771
▁served	-3772
did	-3773
hern	-3774
▁rank	-3775
▁extra	-3776
▁measures	-3777
▁restrict	-3778
sibilities	-3779
rep	-3780
▁pred	-3781
itude	-3782
▁Hello	-3783
▁document	-3784
▁scientific	-3785
spe	-3786
▁Under	-3787
▁equip	-3788
▁master	-3789
▁doctors	-3790
▁unbelie	-3791
▁produced	-3792
▁Saudi	-3793
▁draw	-3794
af	-3795
urning	-3796
▁Before	-3797
▁organizations	-3798
▁El	-3799
▁loves	-3800
▁imagine	-3801
▁located	-3802
▁hasn	-3803
▁points	-3804
▁speaks	-3805
▁succeed	-3806
▁mountain	-3807
▁somebody	-3808
usal	-3809
▁ren	-3810
astic	-3811
▁About	-3812
▁capacity	-3813
▁studying	-3814
▁grace	-3815
▁novel	-3816
▁neighb	-3817
▁continu	-3818
▁seat	-3819
▁materials	-3820
▁satisfied	-3821
▁0	-3822
▁Pet	-3823
▁Friday	-3824
▁teachers	-3825
▁dedicated	-3826
bey	-3827
▁cert	-3828
▁vote	-3829
▁twice	-3830
▁bought	-3831
▁consult	-3832
▁bath	-3833
▁grand	-3834
▁Company	-3835
▁studies	-3836
▁Think	-3837
▁Trust	-3838
▁reward	-3839
▁leaving	-3840
▁staying	-3841
▁teaching	-3842
een	-3843
▁glory	-3844
▁oppos	-3845
ria	-3846
ength	-3847
▁Yeah	-3848
▁coffee	-3849
▁Pharaoh	-3850
IC	-3851
▁Fore	-3852
▁nine	-3853
ressed	-3854
▁black	-3855
▁income	-3856
▁direction	-3857
Ph	-3858
mers	-3859
alysis	-3860
▁Turkey	-3861
▁institutions	-3862
oman	-3863
ional	-3864
▁lord	-3865
▁exerc	-3866
▁goods	-3867
▁humans	-3868
▁univers	-3869
4,	-3870
__	-3871
osen	-3872
▁School	-3873
▁expert	-3874
▁forgive	-3875
▁sir	-3876
▁heat	-3877
▁latest	-3878
▁supply	-3879
..."	-3880
semb	-3881
ending	-3882
▁Three	-3883
▁forgot	-3884
oms	-3885
▁max	-3886
▁jail	-3887
rection	-3888
▁sexual	-3889
▁earlier	-3890
▁connected	-3891
▁particularly	-3892
▁Int	-3893
▁unable	-3894
▁remains	-3895
uel	-3896
Every	-3897
▁sick	-3898
▁uses	-3899
▁opinion	-3900
Yes	-3901
▁Home	-3902
▁client	-3903
▁vehicle	-3904
6.	-3905
gen	-3906
idge	-3907
vant	-3908
▁Hope	-3909
▁wise	-3910
▁testing	-3911
▁cooperation	-3912
▁rob	-3913
▁ste	-3914
rency	-3915
▁poet	-3916
▁pros	-3917
▁files	-3918
▁Listen	-3919
▁status	-3920
▁guarant	-3921
duc	-3922
back	-3923
ience	-3924
▁holiday	-3925
▁fol	-3926
▁lad	-3927
▁lik	-3928
▁guys	-3929
▁liter	-3930
▁mirac	-3931
▁perman	-3932
▁rather	-3933
▁window	-3934
▁anywhere	-3935
▁searching	-3936
▁Up	-3937
ster	-3938
▁fif	-3939
▁jobs	-3940
▁adop	-3941
▁Would	-3942
▁cards	-3943
▁forever	-3944
▁accident	-3945
▁investment	-3946
udd	-3947
onst	-3948
▁award	-3949
▁broad	-3950
▁Ministry	-3951
▁army	-3952
▁casino	-3953
▁Congress	-3954
▁darkness	-3955
ollow	-3956
▁Jose	-3957
▁realize	-3958
▁believes	-3959
▁?	-3960
men	-3961
▁milk	-3962
▁complic	-3963
▁cultural	-3964
▁Christian	-3965
aches	-3966
▁Swed	-3967
▁England	-3968
▁changing	-3969
▁confident	-3970
▁technical	-3971
ait	-3972
▁Say	-3973
▁altern	-3974
ume	-3975
bered	-3976
▁asks	-3977
▁exec	-3978
▁load	-3979
▁Service	-3980
▁Someone	-3981
▁equipment	-3982
OD	-3983
ping	-3984
▁wear	-3985
raight	-3986
ulated	-3987
ana	-3988
▁gen	-3989
ivity	-3990
▁Step	-3991
▁brows	-3992
▁honor	-3993
▁honest	-3994
▁origin	-3995
▁temper	-3996
▁scientists	-3997
son	-3998
▁beings	-3999
▁standards	-4000
▁okay	-4001
▁sort	-4002
▁circum	-4003
▁Tra	-4004
▁wall	-4005
▁newsp	-4006
▁terror	-4007
▁promised	-4008
▁operation	-4009
▁Sm	-4010
ctions	-4011
▁internal	-4012
lder	-4013
▁Yet	-4014
▁banks	-4015
▁General	-4016
cast	-4017
▁behav	-4018
▁reports	-4019
▁childhood	-4020
▁Jac	-4021
▁YOU	-4022
iders	-4023
▁forces	-4024
▁27	-4025
▁owner	-4026
▁pollution	-4027
iab	-4028
▁burn	-4029
▁talked	-4030
▁Ro	-4031
▁ge	-4032
▁thou	-4033
▁chann	-4034
▁cancer	-4035
▁original	-4036
urday	-4037
▁sens	-4038
▁owners	-4039
▁Windows	-4040
▁background	-4041
just	-4042
sych	-4043
▁none	-4044
▁lower	-4045
▁measure	-4046
▁finished	-4047
▁Cr	-4048
irmed	-4049
▁tough	-4050
▁hundreds	-4051
▁sufficient	-4052
ining	-4053
▁gold	-4054
▁seconds	-4055
▁appropri	-4056
▁transfer	-4057
▁repe	-4058
▁Truth	-4059
▁appre	-4060
▁cried	-4061
▁developing	-4062
owd	-4063
yond	-4064
▁pick	-4065
▁museum	-4066
▁answers	-4067
▁rout	-4068
▁ancient	-4069
▁forgiveness	-4070
▁administration	-4071
▁fell	-4072
▁Peace	-4073
stances	-4074
▁existing	-4075
▁includes	-4076
▁generally	-4077
mail	-4078
▁Organ	-4079
▁polic	-4080
▁Isa	-4081
gency	-4082
▁Cons	-4083
▁Thus	-4084
▁Family	-4085
▁expensive	-4086
ban	-4087
ring	-4088
▁medicine	-4089
like	-4090
▁hom	-4091
ya	-4092
▁base	-4093
hab	-4094
lling	-4095
▁Delhi	-4096
▁incident	-4097
▁advantage	-4098
▁encourage	-4099
-19	-4100
▁begins	-4101
▁camera	-4102
▁comment	-4103
▁prayers	-4104
▁revealed	-4105
▁obv	-4106
▁Democ	-4107
▁below	-4108
▁Que	-4109
▁lay	-4110
▁ter	-4111
▁houses	-4112
▁household	-4113
rom	-4114
▁Fl	-4115
eared	-4116
ender	-4117
▁empt	-4118
▁stated	-4119
▁participate	-4120
▁Bus	-4121
▁chosen	-4122
▁constitution	-4123
▁Prot	-4124
usalem	-4125
▁agreed	-4126
▁thoughts	-4127
▁everywhere	-4128
iles	-4129
▁Sim	-4130
▁cast	-4131
▁mass	-4132
▁marry	-4133
▁patient	-4134
iar	-4135
▁depart	-4136
▁Develop	-4137
▁markets	-4138
▁weapons	-4139
urrection	-4140
reg	-4141
▁Mos	-4142
▁hair	-4143
▁till	-4144
▁street	-4145
▁carried	-4146
▁universe	-4147
▁Jerusalem	-4148
▁ult	-4149
▁regarding	-4150
verty	-4151
▁poverty	-4152
▁Saturday	-4153
▁accounts	-4154
▁drinking	-4155
▁possibility	-4156
ses	-4157
▁cricket	-4158
▁whatever	-4159
rible	-4160
▁pull	-4161
▁calls	-4162
▁dance	-4163
▁candid	-4164
▁Department	-4165
OS	-4166
▁remove	-4167
▁calling	-4168
▁standing	-4169
▁straight	-4170
▁establish	-4171
▁Col	-4172
▁crowd	-4173
▁reflect	-4174
▁reliable	-4175
▁elections	-4176
RE	-4177
set	-4178
alse	-4179
▁links	-4180
▁actions	-4181
▁collection	-4182
sc	-4183
pid	-4184
▁sn	-4185
oring	-4186
▁bike	-4187
▁stock	-4188
ologies	-4189
▁length	-4190
▁conference	-4191
God	-4192
▁Educ	-4193
▁spoken	-4194
▁included	-4195
▁carefully	-4196
▁Wr	-4197
ares	-4198
aron	-4199
ends	-4200
▁2019	-4201
▁gain	-4202
▁Jacob	-4203
▁cloud	-4204
isation	-4205
▁Market	-4206
▁keeping	-4207
put	-4208
kind	-4209
▁Tal	-4210
▁Bang	-4211
▁audi	-4212
▁associated	-4213
▁23	-4214
▁ign	-4215
ratic	-4216
▁datab	-4217
▁excited	-4218
nes	-4219
▁cru	-4220
▁Data	-4221
▁pers	-4222
▁Satan	-4223
▁agency	-4224
▁beyond	-4225
▁proced	-4226
▁selling	-4227
▁achieved	-4228
▁explained	-4229
▁appropriate	-4230
201	-4231
mad	-4232
Your	-4233
abilities	-4234
Our	-4235
icip	-4236
▁screen	-4237
▁chemical	-4238
▁map	-4239
▁guard	-4240
▁Arabia	-4241
▁starts	-4242
▁focused	-4243
▁perhaps	-4244
▁Sud	-4245
anted	-4246
▁Gree	-4247
▁Happ	-4248
▁Niger	-4249
▁prior	-4250
▁artist	-4251
▁researc	-4252
▁interests	-4253
So	-4254
▁Ser	-4255
▁Micro	-4256
▁yours	-4257
▁disappoint	-4258
▁analysis	-4259
▁confirmed	-4260
▁Nothing	-4261
ipedia	-4262
▁prove	-4263
▁declared	-4264
-2	-4265
▁Red	-4266
▁copy	-4267
▁empty	-4268
▁Without	-4269
▁dollars	-4270
▁Free	-4271
▁images	-4272
▁features	-4273
omb	-4274
overed	-4275
▁mark	-4276
ustain	-4277
▁weren	-4278
▁described	-4279
▁Parliament	-4280
▁reb	-4281
▁Prophet	-4282
▁appreci	-4283
▁contains	-4284
mpt	-4285
you	-4286
▁Lut	-4287
▁tal	-4288
▁named	-4289
▁Science	-4290
▁officials	-4291
▁advertising	-4292
▁Ed	-4293
itors	-4294
▁catch	-4295
▁contr	-4296
quality	-4297
▁via	-4298
oking	-4299
▁sche	-4300
▁categ	-4301
▁lines	-4302
▁removed	-4303
ntil	-4304
rees	-4305
▁Phil	-4306
terday	-4307
▁phase	-4308
▁accepted	-4309
▁Messenger	-4310
VID	-4311
apt	-4312
idden	-4313
▁Joseph	-4314
▁banned	-4315
▁offered	-4316
▁telling	-4317
▁confidence	-4318
--	-4319
▁ate	-4320
▁Four	-4321
▁bal	-4322
▁coun	-4323
▁subs	-4324
▁tired	-4325
▁Monday	-4326
▁distance	-4327
vest	-4328
▁damage	-4329
▁speech	-4330
▁factory	-4331
▁prophet	-4332
▁1,	-4333
▁era	-4334
adesh	-4335
▁acad	-4336
▁Trans	-4337
30	-4338
▁Out	-4339
▁Fear	-4340
▁placed	-4341
▁license	-4342
▁district	-4343
stood	-4344
▁surv	-4345
iation	-4346
▁priority	-4347
▁television	-4348
All	-4349
adu	-4350
▁Sun	-4351
ambling	-4352
▁coronavirus	-4353
▁31	-4354
▁2020.	-4355
▁update	-4356
▁wishes	-4357
▁influence	-4358
▁communities	-4359
:5	-4360
▁Put	-4361
rough	-4362
▁Such	-4363
▁skills	-4364
▁planning	-4365
▁happiness	-4366
rene	-4367
▁sen	-4368
▁Count	-4369
▁Queen	-4370
▁domestic	-4371
▁relative	-4372
▁structure	-4373
iban	-4374
▁Ver	-4375
erved	-4376
▁African	-4377
▁monitor	-4378
▁Something	-4379
▁remembered	-4380
▁Holy	-4381
▁yeah	-4382
▁Creat	-4383
▁unknown	-4384
▁suffering	-4385
▁thy	-4386
▁arch	-4387
▁bear	-4388
▁oblig	-4389
▁institution	-4390
▁3.	-4391
imin	-4392
lcom	-4393
ipped	-4394
ively	-4395
▁lawy	-4396
▁lies	-4397
▁prices	-4398
▁suffer	-4399
▁central	-4400
▁warning	-4401
raine	-4402
▁dele	-4403
▁forms	-4404
▁sport	-4405
Oh	-4406
▁Bu	-4407
▁generation	-4408
iment	-4409
▁earn	-4410
▁Heaven	-4411
▁losing	-4412
▁separate	-4413
aves	-4414
▁degree	-4415
▁issued	-4416
▁clearly	-4417
au	-4418
iam	-4419
ops	-4420
▁poss	-4421
▁susp	-4422
▁Welcome	-4423
▁capable	-4424
▁maximum	-4425
iers	-4426
▁Med	-4427
▁IS	-4428
▁Dan	-4429
.....	-4430
▁sale	-4431
▁Taliban	-4432
AD	-4433
place	-4434
▁wood	-4435
oned	-4436
rated	-4437
▁summ	-4438
▁survey	-4439
▁transp	-4440
▁helping	-4441
▁leadership	-4442
▁*	-4443
ole	-4444
rel	-4445
ension	-4446
▁James	-4447
▁stood	-4448
ken	-4449
rief	-4450
▁Bet	-4451
▁holy	-4452
▁false	-4453
▁corrupt	-4454
▁driving	-4455
▁mountains	-4456
olute	-4457
▁wake	-4458
▁accur	-4459
▁drugs	-4460
▁raise	-4461
▁forest	-4462
▁failure	-4463
▁connection	-4464
aur	-4465
▁194	-4466
▁Rev	-4467
▁Char	-4468
▁exchange	-4469
▁inspired	-4470
▁industrial	-4471
▁fest	-4472
▁accord	-4473
▁inspir	-4474
▁vision	-4475
▁Ins	-4476
▁Its	-4477
▁Off	-4478
inner	-4479
▁instance	-4480
▁supported	-4481
▁communication	-4482
ding	-4483
▁primary	-4484
▁patients	-4485
ael	-4486
▁ast	-4487
▁und	-4488
odies	-4489
▁2010	-4490
▁disci	-4491
▁sympt	-4492
duction	-4493
▁overall	-4494
▁database	-4495
ilty	-4496
▁piece	-4497
▁amazed	-4498
▁blessed	-4499
▁policies	-4500
▁believers	-4501
▁90	-4502
rate	-4503
▁gas	-4504
Where	-4505
▁beat	-4506
▁notice	-4507
▁wild	-4508
▁Italy	-4509
▁struggle	-4510
▁circumstances	-4511
su	-4512
Don	-4513
while	-4514
▁hung	-4515
agement	-4516
▁prophe	-4517
▁efficient	-4518
▁magic	-4519
▁print	-4520
▁praise	-4521
▁regist	-4522
▁sisters	-4523
▁boys	-4524
▁psych	-4525
▁mainly	-4526
▁welcom	-4527
▁manager	-4528
BC	-4529
EN	-4530
ompl	-4531
▁pow	-4532
Are	-4533
▁Mean	-4534
itation	-4535
▁bathroom	-4536
▁Wikipedia	-4537
ta	-4538
esides	-4539
athered	-4540
▁Police	-4541
▁consumer	-4542
▁Budd	-4543
▁refugees	-4544
▁Sorry	-4545
▁match	-4546
▁theme	-4547
▁authorities	-4548
alled	-4549
▁boat	-4550
▁trial	-4551
▁waste	-4552
reprene	-4553
▁Nobody	-4554
what	-4555
▁virt	-4556
▁warm	-4557
▁blame	-4558
▁accompl	-4559
▁audience	-4560
▁visitors	-4561
▁Mid	-4562
▁Find	-4563
▁Mich	-4564
▁capt	-4565
▁sees	-4566
▁annual	-4567
▁emp	-4568
arden	-4569
▁cold	-4570
▁dying	-4571
▁uncle	-4572
▁Business	-4573
nam	-4574
▁iPh	-4575
▁purs	-4576
▁thus	-4577
▁Aaron	-4578
▁topic	-4579
▁double	-4580
▁escape	-4581
oph	-4582
wer	-4583
▁35	-4584
▁Dire	-4585
istics	-4586
▁Power	-4587
▁heavy	-4588
▁guilty	-4589
▁persons	-4590
▁complicated	-4591
▁29	-4592
craft	-4593
▁Food	-4594
▁qual	-4595
▁rare	-4596
▁Group	-4597
▁masks	-4598
▁caused	-4599
▁supports	-4600
▁80	-4601
ounds	-4602
▁ride	-4603
▁renew	-4604
▁severe	-4605
▁Personal	-4606
▁intellig	-4607
▁consumers	-4608
▁researchers	-4609
ua	-4610
▁visa	-4611
▁blind	-4612
▁tests	-4613
▁Follow	-4614
▁crying	-4615
▁wicked	-4616
▁understood	-4617
mir	-4618
mon	-4619
iforn	-4620
celona	-4621
▁crime	-4622
ription	-4623
▁script	-4624
mark	-4625
▁Def	-4626
▁twe	-4627
▁feet	-4628
▁seemed	-4629
▁Ukraine	-4630
▁clothes	-4631
▁conflic	-4632
▁encoura	-4633
▁Mo	-4634
that	-4635
▁sacr	-4636
▁sweet	-4637
ifornia	-4638
▁Commun	-4639
▁stress	-4640
▁tested	-4641
▁federal	-4642
▁Australian	-4643
▁experiences	-4644
▁News	-4645
▁folks	-4646
▁Everybody	-4647
▁destination	-4648
iel	-4649
ler	-4650
▁Back	-4651
▁Hind	-4652
ounded	-4653
▁critic	-4654
▁manner	-4655
▁confirm	-4656
▁tourists	-4657
mar	-4658
▁Ac	-4659
,...	-4660
izes	-4661
ibility	-4662
▁Church	-4663
▁denied	-4664
▁launch	-4665
▁surprise	-4666
▁operating	-4667
enses	-4668
▁cove	-4669
▁plays	-4670
▁virus	-4671
▁worst	-4672
▁minimum	-4673
ev	-4674
▁(3	-4675
soft	-4676
▁Cup	-4677
▁Use	-4678
▁ears	-4679
encies	-4680
▁optim	-4681
▁humanity	-4682
alu	-4683
ext	-4684
ography	-4685
▁actual	-4686
▁partnership	-4687
anch	-4688
▁Water	-4689
▁dwell	-4690
▁homes	-4691
▁resol	-4692
▁export	-4693
▁department	-4694
):	-4695
▁32	-4696
▁Add	-4697
▁initi	-4698
▁Education	-4699
isl	-4700
▁Nor	-4701
▁Friend	-4702
▁silence	-4703
▁strengthe	-4704
▁Amaz	-4705
▁Until	-4706
▁talks	-4707
▁forced	-4708
▁conducted	-4709
▁emergency	-4710
Did	-4711
iled	-4712
porary	-4713
▁devil	-4714
actions	-4715
▁gathered	-4716
▁California	-4717
icide	-4718
▁loan	-4719
▁Techn	-4720
▁stable	-4721
▁Perhaps	-4722
▁species	-4723
▁electron	-4724
▁Help	-4725
employ	-4726
iction	-4727
sembly	-4728
▁Third	-4729
▁risks	-4730
▁Rights	-4731
▁compon	-4732
emy	-4733
ips	-4734
night	-4735
▁fort	-4736
ancing	-4737
▁promote	-4738
▁symptoms	-4739
▁committee	-4740
cow	-4741
▁Hi	-4742
▁Fire	-4743
▁obey	-4744
▁mankind	-4745
▁apolog	-4746
▁finish	-4747
▁iPhone	-4748
uham	-4749
▁task	-4750
▁sheep	-4751
▁exercise	-4752
▁determine	-4753
▁platforms	-4754
▁temperature	-4755
hens	-4756
▁Rel	-4757
▁buying	-4758
▁enjoyed	-4759
▁Especially	-4760
▁permission	-4761
▁suggestions	-4762
hel	-4763
▁Web	-4764
▁Light	-4765
▁widely	-4766
▁permanent	-4767
▁competitive	-4768
▁aud	-4769
▁Sund	-4770
▁illeg	-4771
▁conven	-4772
▁Cap	-4773
▁Den	-4774
▁Mor	-4775
lines	-4776
ateful	-4777
lement	-4778
▁Custom	-4779
▁managed	-4780
▁spending	-4781
▁Barcelona	-4782
5%	-4783
▁--	-4784
▁36	-4785
▁frame	-4786
▁consist	-4787
▁implemented	-4788
IV	-4789
▁emot	-4790
Please	-4791
▁missing	-4792
▁vehicles	-4793
▁Committee	-4794
▁parliament	-4795
▁Coll	-4796
▁courage	-4797
▁appointed	-4798
▁Due	-4799
▁Mat	-4800
▁bud	-4801
▁log	-4802
sibly	-4803
▁title	-4804
▁trees	-4805
uhammad	-4806
▁Econom	-4807
hh	-4808
ING	-4809
bon	-4810
▁Priv	-4811
▁Stay	-4812
▁rock	-4813
▁proof	-4814
▁caught	-4815
▁noticed	-4816
▁advanced	-4817
▁supposed	-4818
▁ye	-4819
▁items	-4820
▁compre	-4821
▁judgment	-4822
▁transform	-4823
10	-4824
lly	-4825
▁70	-4826
▁Met	-4827
erous	-4828
▁Jews	-4829
▁plug	-4830
▁unit	-4831
father	-4832
▁gambling	-4833
▁daughters	-4834
▁accordance	-4835
▁constantly	-4836
▁<	-4837
▁bi	-4838
ption	-4839
▁silent	-4840
▁opening	-4841
▁relevant	-4842
▁definition	-4843
gent	-4844
▁Bangl	-4845
▁prepare	-4846
▁absolute	-4847
▁incredible	-4848
AE	-4849
cean	-4850
using	-4851
▁mask	-4852
▁Moscow	-4853
▁twenty	-4854
atically	-4855
▁immediate	-4856
▁bott	-4857
▁Despite	-4858
▁Western	-4859
▁girlfriend	-4860
IT	-4861
anc	-4862
▁har	-4863
▁bird	-4864
▁attacks	-4865
▁walking	-4866
▁documents	-4867
▁processing	-4868
:11	-4869
alm	-4870
apore	-4871
ously	-4872
▁factors	-4873
▁collabor	-4874
▁familiar	-4875
▁employment	-4876
▁facts	-4877
▁south	-4878
▁withd	-4879
▁advance	-4880
▁wherever	-4881
etherlands	-4882
▁strategic	-4883
▁Ben	-4884
▁Prof	-4885
▁joined	-4886
▁orders	-4887
▁victory	-4888
▁yesterday	-4889
▁assistance	-4890
▁Development	-4891
▁relationships	-4892
roid	-4893
ulate	-4894
▁blue	-4895
▁motor	-4896
▁Nepali	-4897
▁brings	-4898
▁divided	-4899
▁expressed	-4900
care	-4901
▁Cur	-4902
▁bra	-4903
▁2018	-4904
▁anti	-4905
▁ours	-4906
▁white	-4907
▁Korean	-4908
▁demonst	-4909
▁teaches	-4910
▁instruct	-4911
▁resurrection	-4912
▁ang	-4913
▁Ital	-4914
▁cool	-4915
▁applied	-4916
▁covered	-4917
▁delivery	-4918
mbol	-4919
owed	-4920
enced	-4921
▁Bible	-4922
issions	-4923
▁prayed	-4924
▁Central	-4925
yo	-4926
ari	-4927
▁Next	-4928
▁alternative	-4929
▁conversation	-4930
force	-4931
▁Want	-4932
▁COVID	-4933
▁contain	-4934
▁networks	-4935
yl	-4936
▁bat	-4937
▁Geor	-4938
▁murd	-4939
▁founded	-4940
▁Ans	-4941
▁apps	-4942
▁spot	-4943
▁installed	-4944
▁entreprene	-4945
▁195	-4946
▁Congrat	-4947
▁belongs	-4948
▁occasion	-4949
▁Netherlands	-4950
▁differences	-4951
chan	-4952
▁Sup	-4953
▁ran	-4954
tered	-4955
▁recommended	-4956
▁Jo	-4957
▁Old	-4958
▁squ	-4959
▁reven	-4960
▁afford	-4961
▁propos	-4962
▁fulfill	-4963
▁newspaper	-4964
pre	-4965
ught	-4966
▁(1)	-4967
▁sam	-4968
▁smile	-4969
▁Foreign	-4970
ours	-4971
▁Obama	-4972
igrants	-4973
▁sustain	-4974
▁examples	-4975
▁protected	-4976
6,	-4977
▁Test	-4978
▁Peter	-4979
▁valid	-4980
▁arrested	-4981
▁investors	-4982
▁comfortable	-4983
▁environmental	-4984
▁wed	-4985
icial	-4986
▁Lear	-4987
▁pride	-4988
theless	-4989
▁transm	-4990
▁studied	-4991
▁trading	-4992
▁visited	-4993
▁depending	-4994
US	-4995
▁4.	-4996
agram	-4997
merce	-4998
▁ended	-4999
▁relax	-5000
▁gather	-5001
▁regions	-5002
▁articles	-5003
▁fulfilled	-5004
ocol	-5005
▁2015	-5006
▁fans	-5007
▁frequ	-5008
▁Script	-5009
▁Secret	-5010
▁Sunday	-5011
▁Singapore	-5012
▁recognized	-5013
zer	-5014
iber	-5015
▁unf	-5016
▁Plan	-5017
▁poem	-5018
▁Start	-5019
▁Indeed	-5020
▁Looking	-5021
▁entering	-5022
▁translation	-5023
ald	-5024
▁Tok	-5025
▁Call	-5026
ricult	-5027
▁follows	-5028
▁seeking	-5029
▁director	-5030
▁Microsoft	-5031
▁transportation	-5032
raq	-5033
▁Aut	-5034
▁dece	-5035
▁util	-5036
▁Quest	-5037
▁estim	-5038
▁border	-5039
▁filled	-5040
▁hungry	-5041
▁visible	-5042
▁strategies	-5043
▁journalists	-5044
As	-5045
rol	-5046
▁bon	-5047
▁Policy	-5048
▁creative	-5049
▁messages	-5050
▁Lat	-5051
▁Hist	-5052
▁exists	-5053
▁facing	-5054
▁phones	-5055
▁symbol	-5056
▁consequ	-5057
▁Men	-5058
▁Dear	-5059
▁Real	-5060
▁fill	-5061
▁bodies	-5062
▁helpful	-5063
▁terrible	-5064
▁blessings	-5065
▁successfully	-5066
××	-5067
ris	-5068
▁Dec	-5069
▁warn	-5070
▁dress	-5071
▁trend	-5072
▁assess	-5073
▁hoping	-5074
▁classes	-5075
▁vacation	-5076
▁practical	-5077
▁educational	-5078
▁universities	-5079
EA	-5080
:18	-5081
▁tend	-5082
▁plane	-5083
anguage	-5084
▁Michael	-5085
▁Bangladesh	-5086
▁browser	-5087
▁agricult	-5088
▁pleasure	-5089
Ch	-5090
▁Sad	-5091
▁aid	-5092
▁attend	-5093
inations	-5094
▁actress	-5095
▁describe	-5096
▁fee	-5097
▁vital	-5098
▁belief	-5099
▁chapter	-5100
▁cookies	-5101
▁suicide	-5102
she	-5103
elve	-5104
▁Jack	-5105
▁Moon	-5106
▁ages	-5107
▁chief	-5108
▁floor	-5109
▁winner	-5110
▁improved	-5111
▁II	-5112
▁League	-5113
▁politic	-5114
▁critical	-5115
▁detailed	-5116
▁discussed	-5117
▁disappointed	-5118
how	-5119
▁Mem	-5120
iters	-5121
itute	-5122
▁Sign	-5123
▁Sure	-5124
▁ball	-5125
iminal	-5126
▁models	-5127
aced	-5128
▁Asian	-5129
▁plant	-5130
▁broken	-5131
▁dinner	-5132
▁supporting	-5133
▁professionals	-5134
▁Name	-5135
ashion	-5136
assion	-5137
▁exhib	-5138
▁aspects	-5139
▁fathers	-5140
itals	-5141
▁feels	-5142
▁plenty	-5143
▁context	-5144
▁methods	-5145
▁requires	-5146
▁introduced	-5147
▁Stop	-5148
▁lying	-5149
▁height	-5150
▁legisl	-5151
▁killing	-5152
▁treated	-5153
▁currency	-5154
▁dependent	-5155
DP	-5156
▁Pal	-5157
▁fle	-5158
osing	-5159
▁sole	-5160
aration	-5161
▁figure	-5162
▁formed	-5163
▁payment	-5164
▁refused	-5165
▁pregnancy	-5166
:12	-5167
gin	-5168
▁Sri	-5169
▁Iraq	-5170
▁crypt	-5171
▁values	-5172
▁possess	-5173
▁appeared	-5174
▁weakness	-5175
▁Instagram	-5176
,'	-5177
].	-5178
▁2017	-5179
▁Luck	-5180
▁Need	-5181
▁resc	-5182
certain	-5183
▁territ	-5184
▁Italian	-5185
▁Muslims	-5186
▁Program	-5187
▁faithful	-5188
▁numerous	-5189
▁suffered	-5190
aj	-5191
▁Park	-5192
▁forum	-5193
▁Portug	-5194
▁Supreme	-5195
▁engaged	-5196
▁remained	-5197
▁exception	-5198
▁improving	-5199
▁unfortunately	-5200
aces	-5201
▁reader	-5202
▁tourism	-5203
▁buildings	-5204
▁otherwise	-5205
▁stability	-5206
free	-5207
lymp	-5208
▁Lib	-5209
▁gun	-5210
akers	-5211
words	-5212
▁Aren	-5213
▁joint	-5214
▁Master	-5215
xy	-5216
▁guarantee	-5217
▁Information	-5218
▁OK	-5219
tics	-5220
apers	-5221
utive	-5222
▁valu	-5223
arter	-5224
▁Kash	-5225
▁Lank	-5226
▁Music	-5227
▁bound	-5228
▁writes	-5229
▁entertain	-5230
▁recognize	-5231
AM	-5232
yal	-5233
erem	-5234
▁rapid	-5235
▁farmers	-5236
▁knowing	-5237
▁identity	-5238
▁1:	-5239
▁Bh	-5240
▁Non	-5241
▁san	-5242
ening	-5243
▁2000	-5244
▁Girl	-5245
▁Elect	-5246
▁whoever	-5247
Let	-5248
▁Fort	-5249
▁Mill	-5250
▁rely	-5251
▁appeal	-5252
▁compar	-5253
▁Nigeria	-5254
▁dispute	-5255
verse	-5256
estyle	-5257
▁horse	-5258
ootball	-5259
▁enterpr	-5260
▁Services	-5261
▁governments	-5262
▁participants	-5263
CC	-5264
inos	-5265
▁rej	-5266
▁Very	-5267
▁System	-5268
▁colors	-5269
▁listed	-5270
ij	-5271
resh	-5272
▁Eas	-5273
▁Pay	-5274
▁Sal	-5275
▁entry	-5276
▁hated	-5277
orthern	-5278
▁medium	-5279
▁Through	-5280
▁elements	-5281
▁punished	-5282
▁traveling	-5283
log	-5284
▁ALL	-5285
▁elder	-5286
▁controlled	-5287
▁historical	-5288
%.	-5289
anna	-5290
race	-5291
▁2013	-5292
ivered	-5293
▁surely	-5294
▁chances	-5295
▁defined	-5296
▁external	-5297
▁interact	-5298
rs	-5299
ux	-5300
▁IP	-5301
▁Ass	-5302
▁Ram	-5303
iring	-5304
▁ease	-5305
▁herself	-5306
▁prosper	-5307
▁5.	-5308
cont	-5309
uries	-5310
▁argu	-5311
ifying	-5312
▁nobody	-5313
▁resist	-5314
▁victim	-5315
▁commanded	-5316
▁presented	-5317
▁challenging	-5318
▁Organization	-5319
ties	-5320
iency	-5321
▁drop	-5322
▁tweet	-5323
▁elected	-5324
▁fundament	-5325
▁officially	-5326
▁technologies	-5327
bed	-5328
after	-5329
igned	-5330
▁Super	-5331
▁Tokyo	-5332
▁fields	-5333
▁celebrate	-5334
▁wondering	-5335
orders	-5336
▁greet	-5337
▁noted	-5338
▁poetry	-5339
▁reform	-5340
▁commission	-5341
▁eventually	-5342
▁industries	-5343
ica	-5344
▁Sum	-5345
▁hes	-5346
▁uns	-5347
▁hide	-5348
▁Olymp	-5349
▁round	-5350
▁teams	-5351
▁Doctor	-5352
▁channel	-5353
▁predict	-5354
▁Suddenly	-5355
▁behavior	-5356
▁discussion	-5357
rid	-5358
▁Ev	-5359
▁Train	-5360
▁voted	-5361
▁adults	-5362
▁operate	-5363
▁readers	-5364
▁understands	-5365
▁manufacturing	-5366
olic	-5367
▁Wed	-5368
▁Alex	-5369
▁Hong	-5370
▁Talk	-5371
▁tong	-5372
▁Death	-5373
▁rates	-5374
▁teeth	-5375
hensive	-5376
▁lawyer	-5377
▁commitment	-5378
iest	-5379
teen	-5380
overy	-5381
▁Media	-5382
▁hidden	-5383
▁Kashmir	-5384
▁balance	-5385
▁delight	-5386
▁officer	-5387
▁restaur	-5388
▁comments	-5389
▁48	-5390
crib	-5391
▁2008	-5392
▁coord	-5393
▁fucking	-5394
▁corporate	-5395
▁forgotten	-5396
4)	-5397
St	-5398
▁500	-5399
arian	-5400
▁Noah	-5401
▁Belie	-5402
▁Still	-5403
▁clubs	-5404
▁liber	-5405
▁desired	-5406
▁ordered	-5407
▁session	-5408
▁soldiers	-5409
de	-5410
▁San	-5411
▁err	-5412
▁tast	-5413
▁gradu	-5414
▁shock	-5415
▁neither	-5416
▁totally	-5417
▁announce	-5418
▁selected	-5419
la	-5420
ox	-5421
aker	-5422
▁nut	-5423
▁Kong	-5424
▁stre	-5425
▁Check	-5426
▁ought	-5427
▁appears	-5428
▁aircraft	-5429
▁blessing	-5430
▁concerns	-5431
▁typically	-5432
▁personally	-5433
:)	-5434
Be	-5435
coh	-5436
ault	-5437
ccer	-5438
oted	-5439
▁arr	-5440
cknow	-5441
▁Money	-5442
▁evalu	-5443
▁incor	-5444
▁truck	-5445
▁illness	-5446
▁delivered	-5447
▁regularly	-5448
▁operations	-5449
▁effectively	-5450
▁restrictions	-5451
tt	-5452
▁£	-5453
rian	-5454
stery	-5455
angers	-5456
▁Night	-5457
▁suppl	-5458
▁Middle	-5459
▁obtained	-5460
▁regional	-5461
▁rejected	-5462
▁receiving	-5463
▁beer	-5464
▁2015.	-5465
▁stands	-5466
▁illegal	-5467
▁previously	-5468
?'	-5469
▁pe	-5470
irty	-5471
itect	-5472
▁2020,	-5473
▁breath	-5474
▁island	-5475
▁flowers	-5476
▁updated	-5477
▁vaccine	-5478
▁disbelie	-5479
▁everyday	-5480
▁regulations	-5481
ipping	-5482
▁Bless	-5483
▁scale	-5484
▁Should	-5485
▁gained	-5486
▁matters	-5487
▁profile	-5488
▁Revolution	-5489
▁citizenship	-5490
▁inspiration	-5491
OW	-5492
aint	-5493
unch	-5494
aling	-5495
ighty	-5496
▁Webs	-5497
▁2008.	-5498
▁trave	-5499
▁Public	-5500
▁handle	-5501
▁captain	-5502
▁strange	-5503
▁discovered	-5504
▁cup	-5505
▁Stand	-5506
▁acknow	-5507
▁records	-5508
AC	-5509
▁Po	-5510
▁id	-5511
▁arm	-5512
▁Conf	-5513
▁male	-5514
▁walked	-5515
▁valuable	-5516
▁facilities	-5517
▁Auth	-5518
▁dies	-5519
orters	-5520
▁Malay	-5521
▁apart	-5522
▁budget	-5523
▁flying	-5524
▁fruits	-5525
▁literature	-5526
▁situations	-5527
hem	-5528
▁amb	-5529
▁adjust	-5530
▁Moreover	-5531
▁procedure	-5532
▁concerning	-5533
ps	-5534
:00	-5535
coin	-5536
▁Ant	-5537
▁GOD	-5538
▁meal	-5539
▁Syria	-5540
▁prime	-5541
▁garden	-5542
ervation	-5543
▁instead	-5544
▁Students	-5545
▁unemploy	-5546
▁versions	-5547
onom	-5548
▁ain	-5549
▁Mark	-5550
▁pure	-5551
idance	-5552
▁asleep	-5553
▁upload	-5554
▁identify	-5555
oti	-5556
▁45	-5557
▁fit	-5558
itate	-5559
▁diss	-5560
▁phil	-5561
▁vast	-5562
igrant	-5563
▁north	-5564
▁Amazon	-5565
▁Center	-5566
ximately	-5567
▁affects	-5568
▁monthly	-5569
▁lifestyle	-5570
Now	-5571
▁eth	-5572
iling	-5573
▁gate	-5574
rative	-5575
urally	-5576
ression	-5577
▁fought	-5578
▁feature	-5579
▁extended	-5580
▁lockdown	-5581
▁electricity	-5582
lin	-5583
oga	-5584
▁Turk	-5585
▁bridge	-5586
▁painful	-5587
▁surprising	-5588
▁Je	-5589
▁cat	-5590
icing	-5591
▁prec	-5592
venant	-5593
▁doors	-5594
▁Office	-5595
▁smoking	-5596
▁wedding	-5597
▁computers	-5598
▁satisfact	-5599
▁somewhere	-5600
iant	-5601
▁UAE	-5602
▁grew	-5603
▁mode	-5604
▁domain	-5605
▁flower	-5606
▁Otherwise	-5607
▁difficulty	-5608
▁unbelievers	-5609
IM	-5610
mn	-5611
oes	-5612
▁Adm	-5613
▁fat	-5614
etime	-5615
▁gaming	-5616
▁Android	-5617
▁proposed	-5618
▁stronger	-5619
▁uncertain	-5620
uk	-5621
ley	-5622
▁Ap	-5623
▁Loc	-5624
▁tro	-5625
▁calc	-5626
▁White	-5627
▁glass	-5628
▁likes	-5629
▁queen	-5630
▁Almost	-5631
▁Things	-5632
▁instantly	-5633
▁processes	-5634
▁passengers	-5635
rd	-5636
▁wine	-5637
▁2016.	-5638
▁mechan	-5639
▁Football	-5640
▁Fil	-5641
▁Num	-5642
▁stick	-5643
▁lights	-5644
▁criminal	-5645
▁infection	-5646
venth	-5647
▁Didn	-5648
▁hadn	-5649
▁midst	-5650
▁causes	-5651
▁relatively	-5652
essor	-5653
itled	-5654
orage	-5655
▁sake	-5656
anging	-5657
▁coach	-5658
▁score	-5659
▁larger	-5660
▁senior	-5661
▁Ron	-5662
▁pan	-5663
hamed	-5664
▁Search	-5665
▁crucial	-5666
▁infected	-5667
▁displayed	-5668
▁Gl	-5669
▁IT	-5670
going	-5671
▁Baby	-5672
▁boss	-5673
▁desk	-5674
nesday	-5675
▁Young	-5676
▁Global	-5677
etic	-5678
hand	-5679
tery	-5680
party	-5681
▁2012	-5682
▁Army	-5683
▁cycle	-5684
▁grown	-5685
▁toward	-5686
▁agencies	-5687
law	-5688
▁Bit	-5689
▁Sir	-5690
▁dra	-5691
▁dro	-5692
orter	-5693
▁chair	-5694
▁extent	-5695
▁theory	-5696
▁responded	-5697
▁37	-5698
▁Sov	-5699
class	-5700
ifies	-5701
sians	-5702
▁diet	-5703
vation	-5704
▁ideal	-5705
▁shape	-5706
reement	-5707
▁streets	-5708
▁guidance	-5709
▁determined	-5710
mes	-5711
▁$2	-5712
▁38	-5713
▁ir	-5714
▁Ann	-5715
▁Ret	-5716
▁spl	-5717
▁(201	-5718
ilater	-5719
▁subst	-5720
▁Anyone	-5721
▁festival	-5722
▁grateful	-5723
▁whenever	-5724
▁terrified	-5725
▁convenient	-5726
▁corruption	-5727
fe	-5728
vis	-5729
▁hero	-5730
pected	-5731
▁owned	-5732
▁appoint	-5733
▁explore	-5734
▁setting	-5735
▁forgiven	-5736
▁expression	-5737
▁Nevertheless	-5738
5)	-5739
asc	-5740
▁Av	-5741
▁Dut	-5742
▁deny	-5743
▁micro	-5744
▁steal	-5745
erences	-5746
▁brands	-5747
▁conver	-5748
▁Brother	-5749
▁compare	-5750
▁conflict	-5751
▁foundation	-5752
ero	-5753
que	-5754
▁pet	-5755
unate	-5756
▁Online	-5757
▁murder	-5758
▁strict	-5759
▁warned	-5760
▁sharing	-5761
▁contribute	-5762
EM	-5763
ibet	-5764
cohol	-5765
inate	-5766
▁Lanka	-5767
▁Watch	-5768
▁linked	-5769
standing	-5770
▁courses	-5771
▁calm	-5772
▁Found	-5773
▁Inter	-5774
▁solid	-5775
▁History	-5776
▁ashamed	-5777
▁messenger	-5778
HO	-5779
She	-5780
erves	-5781
▁2011	-5782
▁corn	-5783
▁surr	-5784
▁posts	-5785
▁union	-5786
▁instru	-5787
▁fashion	-5788
▁flights	-5789
▁referred	-5790
▁awareness	-5791
John	-5792
lick	-5793
▁lady	-5794
▁agent	-5795
▁views	-5796
▁testim	-5797
igration	-5798
▁revenue	-5799
▁Language	-5800
▁entitled	-5801
▁friendly	-5802
▁welcomed	-5803
▁footballer	-5804
▁8.	-5805
anged	-5806
claim	-5807
▁worse	-5808
▁Daniel	-5809
▁Soviet	-5810
▁Sweden	-5811
▁Research	-5812
▁informed	-5813
:6	-5814
enn	-5815
▁Sub	-5816
house	-5817
umbai	-5818
▁ends	-5819
▁errors	-5820
▁philos	-5821
▁Wednesday	-5822
▁33	-5823
▁AN	-5824
▁arg	-5825
▁2014	-5826
▁cells	-5827
▁graph	-5828
▁assets	-5829
▁closer	-5830
▁fright	-5831
▁stores	-5832
▁anybody	-5833
▁tourist	-5834
▁intended	-5835
▁Has	-5836
eness	-5837
▁west	-5838
▁Thous	-5839
▁route	-5840
▁swear	-5841
▁Associ	-5842
▁Washing	-5843
▁package	-5844
▁replace	-5845
▁returning	-5846
▁implementation	-5847
.[	-5848
:17	-5849
urg	-5850
aped	-5851
obile	-5852
▁reply	-5853
▁smoke	-5854
▁centre	-5855
▁compete	-5856
▁concent	-5857
▁purchased	-5858
▁electronic	-5859
ipl	-5860
clus	-5861
▁Gen	-5862
▁Hon	-5863
▁east	-5864
▁magn	-5865
▁kings	-5866
idering	-5867
▁lifetime	-5868
▁offering	-5869
▁stations	-5870
▁applicable	-5871
▁2,	-5872
Well	-5873
▁Nat	-5874
▁anx	-5875
▁cab	-5876
▁Phot	-5877
▁hast	-5878
reland	-5879
▁regul	-5880
▁throw	-5881
▁Success	-5882
▁showing	-5883
▁employee	-5884
-3	-5885
99	-5886
:7	-5887
PS	-5888
VE	-5889
rant	-5890
▁Dam	-5891
▁2017.	-5892
▁bigger	-5893
▁eternal	-5894
▁recover	-5895
▁feelings	-5896
▁glo	-5897
uting	-5898
▁dial	-5899
▁Verily	-5900
▁prefer	-5901
▁Ireland	-5902
▁artists	-5903
▁conclud	-5904
▁surface	-5905
▁Economic	-5906
▁certific	-5907
▁neighbor	-5908
1]	-5909
Not	-5910
chol	-5911
rely	-5912
▁Travel	-5913
▁negoti	-5914
▁exciting	-5915
▁foreigners	-5916
yes	-5917
quake	-5918
▁Prov	-5919
▁depos	-5920
▁inher	-5921
▁quant	-5922
▁Mumbai	-5923
▁burden	-5924
▁remark	-5925
▁architect	-5926
▁collected	-5927
ded	-5928
wan	-5929
▁7.	-5930
esty	-5931
▁Wait	-5932
▁incl	-5933
ostles	-5934
▁stream	-5935
▁mystery	-5936
▁listened	-5937
-4	-5938
:8	-5939
▁Vis	-5940
▁multi	-5941
▁Philipp	-5942
▁amongst	-5943
▁obvious	-5944
▁storage	-5945
▁hospitals	-5946
▁innovation	-5947
▁automatically	-5948
rish	-5949
abled	-5950
iance	-5951
▁Adam	-5952
▁Lead	-5953
▁Isaac	-5954
▁Answer	-5955
▁Having	-5956
▁Turkish	-5957
▁railway	-5958
▁covenant	-5959
▁reaction	-5960
▁preparing	-5961
▁respected	-5962
▁distribution	-5963
cles	-5964
▁doz	-5965
▁mix	-5966
▁Show	-5967
▁chat	-5968
▁hack	-5969
▁Learn	-5970
▁winning	-5971
▁Whatever	-5972
▁celebrated	-5973
▁protecting	-5974
▁possibilities	-5975
ili	-5976
osh	-5977
▁300	-5978
which	-5979
▁Post	-5980
▁runs	-5981
viously	-5982
▁adopted	-5983
▁watched	-5984
);	-5985
aren	-5986
▁BBC	-5987
▁Tai	-5988
▁Luke	-5989
▁fool	-5990
▁hurting	-5991
▁entirely	-5992
▁mut	-5993
▁Beaut	-5994
▁broke	-5995
▁officers	-5996
▁boyfriend	-5997
▁Washington	-5998
▁Congratulations	-5999
ror	-6000
umn	-6001
yan	-6002
▁Mac	-6003
▁debt	-6004
▁Tibet	-6005
▁solar	-6006
▁soccer	-6007
▁Chapter	-6008
▁merciful	-6009
▁occurred	-6010
▁beneficial	-6011
▁comprehensive	-6012
:10	-6013
▁Sea	-6014
Press	-6015
iplom	-6016
▁Black	-6017
▁Board	-6018
▁ocean	-6019
▁reput	-6020
ogether	-6021
▁output	-6022
▁sounds	-6023
▁elderly	-6024
▁finding	-6025
▁accurate	-6026
ander	-6027
▁faces	-6028
▁fresh	-6029
▁tongue	-6030
ilateral	-6031
▁Website	-6032
▁despite	-6033
▁planned	-6034
▁Somebody	-6035
▁passport	-6036
▁Management	-6037
▁democratic	-6038
▁principles	-6039
▁Tem	-6040
▁ing	-6041
agues	-6042
▁None	-6043
▁Rome	-6044
▁funds	-6045
▁Argent	-6046
▁Indust	-6047
▁ruined	-6048
▁stages	-6049
▁winter	-6050
▁alcohol	-6051
▁category	-6052
▁provider	-6053
▁resource	-6054
▁friendship	-6055
▁communicate	-6056
IF	-6057
NA	-6058
TM	-6059
Then	-6060
life	-6061
phas	-6062
▁Gal	-6063
▁laid	-6064
▁twelve	-6065
▁drivers	-6066
▁engines	-6067
▁password	-6068
▁PC	-6069
resp	-6070
uter	-6071
▁Ken	-6072
▁Down	-6073
▁Green	-6074
▁chose	-6075
▁leads	-6076
▁tasks	-6077
▁discover	-6078
▁integrated	-6079
▁fundamental	-6080
ein	-6081
inst	-6082
odes	-6083
▁tea	-6084
▁prem	-6085
▁inhab	-6086
▁plants	-6087
▁element	-6088
▁trusted	-6089
▁ordinary	-6090
▁recorded	-6091
▁shopping	-6092
▁resolution	-6093
asts	-6094
▁Mah	-6095
▁Pat	-6096
unicip	-6097
▁desires	-6098
▁experiment	-6099
equ	-6100
rast	-6101
uild	-6102
▁Lad	-6103
▁THE	-6104
atell	-6105
xygen	-6106
▁2017,	-6107
▁powers	-6108
▁commands	-6109
▁sensitive	-6110
LE	-6111
bre	-6112
itzer	-6113
▁Rail	-6114
▁wash	-6115
▁define	-6116
▁posted	-6117
▁Further	-6118
▁constant	-6119
▁WordPress	-6120
DA	-6121
ifts	-6122
urse	-6123
press	-6124
▁Modi	-6125
▁spam	-6126
▁Angel	-6127
▁defend	-6128
▁lifted	-6129
▁weapon	-6130
▁Instead	-6131
▁holding	-6132
▁Question	-6133
OM	-6134
Ind	-6135
elf	-6136
▁Ty	-6137
omed	-6138
▁Sen	-6139
▁fate	-6140
▁Civil	-6141
▁holds	-6142
▁scene	-6143
▁seats	-6144
related	-6145
ructure	-6146
▁dating	-6147
▁Justice	-6148
▁granted	-6149
▁compassion	-6150
▁Att	-6151
▁bag	-6152
▁fant	-6153
▁quit	-6154
▁2019.	-6155
▁Exper	-6156
▁actor	-6157
▁cyber	-6158
▁faced	-6159
▁fifth	-6160
vention	-6161
▁pieces	-6162
▁Current	-6163
▁Islamic	-6164
▁consent	-6165
▁historic	-6166
▁Thousands	-6167
▁disciples	-6168
min	-6169
Give	-6170
▁Belg	-6171
▁Buddh	-6172
▁decre	-6173
▁occup	-6174
pective	-6175
▁format	-6176
commerce	-6177
▁ministry	-6178
▁Israelites	-6179
▁approximately	-6180
:13	-6181
:14	-6182
▁44	-6183
▁Teac	-6184
▁flood	-6185
osphere	-6186
▁sought	-6187
▁withdraw	-6188
▁estimated	-6189
▁intellect	-6190
▁residents	-6191
500	-6192
bel	-6193
inem	-6194
ingu	-6195
esome	-6196
▁Dist	-6197
▁glor	-6198
erring	-6199
▁Games	-6200
▁Latin	-6201
▁simpl	-6202
▁Though	-6203
▁oldest	-6204
iability	-6205
▁wearing	-6206
▁performed	-6207
▁absolutely	-6208
adays	-6209
▁Miss	-6210
▁evol	-6211
▁2016,	-6212
uration	-6213
▁Merciful	-6214
▁extensive	-6215
▁territory	-6216
▁importantly	-6217
▁investigation	-6218
agers	-6219
▁clin	-6220
▁noise	-6221
▁claims	-6222
▁volunt	-6223
▁Project	-6224
itzerland	-6225
▁bringing	-6226
▁opposite	-6227
▁programme	-6228
▁testimony	-6229
▁candidates	-6230
▁maintained	-6231
VER	-6232
▁Lo	-6233
▁Lin	-6234
▁Maj	-6235
▁Roy	-6236
▁euro	-6237
asters	-6238
▁Polit	-6239
▁fixed	-6240
▁writers	-6241
▁conscious	-6242
:9	-6243
lis	-6244
win	-6245
▁6.	-6246
with	-6247
▁Long	-6248
▁Judah	-6249
▁aband	-6250
ception	-6251
▁limits	-6252
▁Administ	-6253
▁functions	-6254
▁healthcare	-6255
▁intelligence	-6256
roll	-6257
▁Five	-6258
▁Term	-6259
▁angry	-6260
▁assum	-6261
▁conce	-6262
▁Forget	-6263
▁Madrid	-6264
▁arrive	-6265
▁topics	-6266
ographic	-6267
▁claimed	-6268
▁putting	-6269
▁properly	-6270
nel	-6271
olen	-6272
board	-6273
▁cash	-6274
▁Drink	-6275
▁proven	-6276
▁saving	-6277
▁Article	-6278
▁miracle	-6279
▁serving	-6280
▁enjoying	-6281
▁equality	-6282
▁prophets	-6283
▁capabilities	-6284
▁consequences	-6285
',	-6286
ideo	-6287
stan	-6288
▁Hot	-6289
antic	-6290
▁2009	-6291
▁Meet	-6292
▁Analy	-6293
▁Change	-6294
▁Invest	-6295
▁Besides	-6296
▁reduced	-6297
▁diseases	-6298
▁proposal	-6299
▁Technology	-6300
▁struggling	-6301
imb	-6302
ogue	-6303
▁sear	-6304
▁vary	-6305
▁Later	-6306
▁advis	-6307
▁faster	-6308
▁honour	-6309
▁Federal	-6310
▁Privacy	-6311
▁plastic	-6312
▁favorite	-6313
▁Communist	-6314
▁components	-6315
noon	-6316
▁jump	-6317
▁mail	-6318
ificial	-6319
▁explan	-6320
▁meetings	-6321
▁suggested	-6322
but	-6323
▁34	-6324
thew	-6325
▁phr	-6326
These	-6327
▁entr	-6328
▁2019,	-6329
▁Denmark	-6330
▁enables	-6331
▁academic	-6332
▁followers	-6333
▁organized	-6334
▁accessible	-6335
▁contribution	-6336
▁participation	-6337
ST	-6338
aud	-6339
ney	-6340
▁Inc	-6341
▁hun	-6342
ifice	-6343
▁beach	-6344
▁wanna	-6345
▁electr	-6346
▁unless	-6347
▁bedroom	-6348
▁register	-6349
▁Agreement	-6350
▁encouraged	-6351
▁strengthen	-6352
7)	-6353
On	-6354
▁Bas	-6355
▁Eli	-6356
▁Sil	-6357
under	-6358
▁Exam	-6359
▁Prin	-6360
▁2013.	-6361
cluding	-6362
▁favour	-6363
▁retail	-6364
▁burning	-6365
▁normally	-6366
▁Switzerland	-6367
▁considering	-6368
EC	-6369
aka	-6370
▁Mil	-6371
▁bonus	-6372
▁lands	-6373
▁button	-6374
▁doubts	-6375
▁engage	-6376
▁overse	-6377
▁advised	-6378
▁casinos	-6379
▁quarter	-6380
▁peaceful	-6381
▁resident	-6382
▁Secretary	-6383
▁marketers	-6384
▁characters	-6385
▁opposition	-6386
▁Big	-6387
▁atm	-6388
▁Gand	-6389
▁Dutch	-6390
ampions	-6391
▁accomp	-6392
▁mostly	-6393
▁trains	-6394
▁Digital	-6395
▁attracted	-6396
ET	-6397
Go	-6398
:16	-6399
Lord	-6400
▁rat	-6401
▁Zeal	-6402
▁trib	-6403
▁brief	-6404
▁urged	-6405
▁carbon	-6406
▁diplom	-6407
▁moments	-6408
▁miracles	-6409
▁translated	-6410
inn	-6411
dule	-6412
ocur	-6413
▁pur	-6414
▁Save	-6415
▁Among	-6416
▁talent	-6417
▁ticket	-6418
▁disaster	-6419
▁Institute	-6420
▁registered	-6421
ita	-6422
rets	-6423
▁Fuck	-6424
▁toile	-6425
clusion	-6426
▁Within	-6427
▁bright	-6428
▁formal	-6429
▁thinks	-6430
▁Medical	-6431
▁repeated	-6432
▁principle	-6433
▁submitted	-6434
▁earthquake	-6435
▁destruction	-6436
)?	-6437
ida	-6438
▁Mart	-6439
coming	-6440
▁Canad	-6441
▁Prayer	-6442
▁fellow	-6443
▁stolen	-6444
▁Usually	-6445
▁defense	-6446
▁passion	-6447
▁western	-6448
rastructure	-6449
IG	-6450
▁(2)	-6451
▁flu	-6452
being	-6453
ffect	-6454
▁reci	-6455
▁shit	-6456
▁2011.	-6457
▁Chair	-6458
▁Messi	-6459
▁Sadly	-6460
▁recru	-6461
▁Depend	-6462
▁picked	-6463
entially	-6464
▁Zealand	-6465
▁applies	-6466
▁Muhammad	-6467
▁keywords	-6468
▁permitted	-6469
▁represents	-6470
▁Association	-6471
iny	-6472
▁dia	-6473
▁Kill	-6474
ickets	-6475
▁minds	-6476
▁Taiwan	-6477
▁oxygen	-6478
cription	-6479
▁opposed	-6480
▁Assembly	-6481
▁Malaysia	-6482
▁Meanwhile	-6483
▁transparent	-6484
EL	-6485
.'"	-6486
ien	-6487
tion	-6488
level	-6489
orses	-6490
worth	-6491
▁Forg	-6492
acific	-6493
▁Palest	-6494
▁behalf	-6495
▁debate	-6496
▁safely	-6497
▁Product	-6498
▁younger	-6499
▁highlight	-6500
▁providers	-6501
▁approached	-6502
▁nar	-6503
hance	-6504
▁Cult	-6505
▁congr	-6506
▁globe	-6507
▁taxes	-6508
▁treas	-6509
▁reviews	-6510
▁sending	-6511
▁approval	-6512
▁construct	-6513
▁LO	-6514
▁dy	-6515
aded	-6516
ethe	-6517
uled	-6518
▁Thou	-6519
▁unity	-6520
▁Scient	-6521
▁awards	-6522
▁remote	-6523
iversary	-6524
▁dealing	-6525
▁explains	-6526
▁possibly	-6527
▁afternoon	-6528
▁introduce	-6529
▁popularity	-6530
ils	-6531
▁Tour	-6532
▁fees	-6533
▁item	-6534
▁Hindu	-6535
▁Journ	-6536
▁priest	-6537
▁hosting	-6538
▁accomplish	-6539
▁consumption	-6540
▁sustainable	-6541
▁CB	-6542
arents	-6543
▁accused	-6544
▁choices	-6545
▁laughed	-6546
▁wanting	-6547
▁interface	-6548
▁residence	-6549
▁Foundation	-6550
▁properties	-6551
▁x	-6552
▁150	-6553
person	-6554
▁Enter	-6555
▁Roman	-6556
▁awake	-6557
▁meets	-6558
▁editor	-6559
▁expecting	-6560
pret	-6561
▁GDP	-6562
▁Mag	-6563
▁Str	-6564
▁der	-6565
itage	-6566
urches	-6567
▁Being	-6568
▁Greek	-6569
▁delay	-6570
▁pharm	-6571
▁Number	-6572
▁earned	-6573
▁nearby	-6574
▁offices	-6575
▁seventh	-6576
▁division	-6577
▁guidelines	-6578
▁medication	-6579
11	-6580
oe	-6581
bul	-6582
rie	-6583
▁Bring	-6584
▁River	-6585
▁begun	-6586
▁nights	-6587
▁feedback	-6588
▁telephone	-6589
▁messengers	-6590
▁photographs	-6591
itc	-6592
▁Ok	-6593
▁20%	-6594
▁Val	-6595
▁Plus	-6596
asting	-6597
▁2014.	-6598
▁ignor	-6599
▁lover	-6600
▁wives	-6601
ensions	-6602
▁satell	-6603
etheless	-6604
▁invited	-6605
ipe	-6606
▁Cy	-6607
alty	-6608
anda	-6609
olit	-6610
ules	-6611
▁tor	-6612
▁2018.	-6613
▁turns	-6614
▁licens	-6615
▁occurs	-6616
▁prohib	-6617
▁spouse	-6618
▁worker	-6619
ederation	-6620
▁Marketing	-6621
▁appreciate	-6622
▁difficulties	-6623
2)	-6624
ky	-6625
oub	-6626
▁La	-6627
▁ok	-6628
▁Rich	-6629
▁skin	-6630
▁anger	-6631
▁blogs	-6632
▁Arabic	-6633
▁deaths	-6634
▁labour	-6635
▁enhance	-6636
▁broadcast	-6637
▁requested	-6638
▁sacrifice	-6639
Bet	-6640
▁Sl	-6641
aked	-6642
▁gent	-6643
▁upgr	-6644
▁audio	-6645
▁closely	-6646
▁province	-6647
▁primarily	-6648
▁frequently	-6649
PA	-6650
abb	-6651
▁AS	-6652
▁Inf	-6653
▁Job	-6654
▁Rad	-6655
▁Ten	-6656
▁foods	-6657
▁rural	-6658
▁slowly	-6659
▁mothers	-6660
▁praying	-6661
▁worries	-6662
▁Addition	-6663
▁representative	-6664
Al	-6665
▁unc	-6666
▁abund	-6667
▁permit	-6668
▁directed	-6669
▁obviously	-6670
▁restaurant	-6671
xas	-6672
▁er	-6673
Come	-6674
▁Diff	-6675
▁Site	-6676
▁Grand	-6677
▁grade	-6678
outhern	-6679
▁recall	-6680
▁solved	-6681
▁counter	-6682
▁initial	-6683
▁letters	-6684
▁windows	-6685
▁murdered	-6686
▁locations	-6687
▁temporary	-6688
▁atmosphere	-6689
▁journalist	-6690
CO	-6691
prof	-6692
▁10.	-6693
▁Mrs	-6694
▁taxi	-6695
▁Offic	-6696
▁eaten	-6697
▁schol	-6698
▁attrib	-6699
▁convin	-6700
▁expans	-6701
▁native	-6702
▁Britain	-6703
▁awesome	-6704
▁deleted	-6705
▁attacked	-6706
▁candidate	-6707
▁promotion	-6708
▁appearance	-6709
▁transgress	-6710
▁instructions	-6711
▁specifically	-6712
▁manufacturers	-6713
sp	-6714
ege	-6715
ixt	-6716
▁Dev	-6717
▁Club	-6718
▁desp	-6719
▁stone	-6720
▁borrow	-6721
▁waters	-6722
▁Swedish	-6723
▁deserve	-6724
▁exposed	-6725
▁recovery	-6726
▁sleeping	-6727
▁framework	-6728
▁Ps	-6729
assy	-6730
omas	-6731
▁Ber	-6732
▁Mer	-6733
ainted	-6734
▁2009.	-6735
▁Harry	-6736
▁greatly	-6737
▁singing	-6738
▁cryptocur	-6739
sea	-6740
▁191	-6741
▁Lou	-6742
▁Top	-6743
▁bab	-6744
ograp	-6745
▁arms	-6746
▁Dream	-6747
▁Times	-6748
ication	-6749
▁profit	-6750
▁inhabit	-6751
▁portion	-6752
▁allowing	-6753
▁initially	-6754
▁efficiency	-6755
▁programming	-6756
gor	-6757
top	-6758
▁Acad	-6759
▁fing	-6760
▁porn	-6761
▁race	-6762
▁units	-6763
▁united	-6764
▁Bitcoin	-6765
▁Indones	-6766
▁updates	-6767
▁laughing	-6768
▁promises	-6769
▁seriously	-6770
▁expectations	-6771
▁satisfaction	-6772
],	-6773
no	-6774
▁rent	-6775
arency	-6776
▁Doesn	-6777
▁Happy	-6778
▁scrap	-6779
▁dollar	-6780
▁Believe	-6781
▁injured	-6782
▁facebook	-6783
▁reference	-6784
:28	-6785
ala	-6786
mit	-6787
▁Ho	-6788
enth	-6789
▁Tim	-6790
Today	-6791
▁defe	-6792
▁deals	-6793
▁split	-6794
▁banking	-6795
▁machines	-6796
▁threatened	-6797
▁entertainment	-6798
Sh	-6799
▁2:	-6800
▁dig	-6801
oured	-6802
▁memor	-6803
▁towns	-6804
▁Report	-6805
▁stored	-6806
▁Friends	-6807
▁Currently	-6808
▁objective	-6809
▁practices	-6810
ali	-6811
called	-6812
▁2018,	-6813
▁disag	-6814
▁theat	-6815
▁wills	-6816
▁George	-6817
▁serves	-6818
▁Indians	-6819
▁diversity	-6820
▁increases	-6821
▁suspended	-6822
▁developers	-6823
▁monitoring	-6824
▁ultimately	-6825
▁Philippines	-6826
80	-6827
:19	-6828
oked	-6829
▁Emir	-6830
▁Fund	-6831
▁Star	-6832
▁proved	-6833
▁studio	-6834
▁trained	-6835
▁Customer	-6836
▁commonly	-6837
▁supplement	-6838
▁legislation	-6839
▁entrepreneur	-6840
rah	-6841
▁NE	-6842
oker	-6843
▁11.	-6844
▁pal	-6845
alted	-6846
▁Could	-6847
▁Texas	-6848
▁compat	-6849
▁gender	-6850
▁submit	-6851
▁Account	-6852
▁arrival	-6853
▁congrat	-6854
:15	-6855
ups	-6856
▁42	-6857
Have	-6858
imal	-6859
orce	-6860
▁Tham	-6861
▁scen	-6862
▁Video	-6863
▁Museum	-6864
▁factor	-6865
▁borders	-6866
▁dancing	-6867
▁operated	-6868
▁Insurance	-6869
▁innovative	-6870
▁percentage	-6871
MS	-6872
dd	-6873
▁!	-6874
▁9.	-6875
▁ON	-6876
▁10%	-6877
▁hat	-6878
anges	-6879
eoples	-6880
▁Store	-6881
▁trials	-6882
▁degrees	-6883
▁existed	-6884
▁Director	-6885
▁disappear	-6886
▁representatives	-6887
To	-6888
bum	-6889
▁Tit	-6890
▁rom	-6891
adium	-6892
etary	-6893
field	-6894
irect	-6895
▁clar	-6896
▁snow	-6897
phones	-6898
▁2012.	-6899
▁coast	-6900
▁sched	-6901
▁Applic	-6902
▁duties	-6903
▁estate	-6904
▁Airport	-6905
▁Network	-6906
▁returns	-6907
▁expenses	-6908
▁delighted	-6909
▁selection	-6910
▁physically	-6911
▁Fortunately	-6912
pir	-6913
ibly	-6914
▁193	-6915
▁Cas	-6916
▁pref	-6917
▁zone	-6918
Because	-6919
▁Gandhi	-6920
▁struck	-6921
▁throne	-6922
▁College	-6923
▁Israeli	-6924
▁incorpor	-6925
▁reminded	-6926
▁shooting	-6927
▁downloaded	-6928
lor	-6929
▁ep	-6930
born	-6931
▁Aff	-6932
▁Gent	-6933
▁Mike	-6934
▁nurs	-6935
ailand	-6936
▁hates	-6937
▁wrath	-6938
▁condem	-6939
▁expanded	-6940
▁sentence	-6941
▁religions	-6942
▁salvation	-6943
▁attractive	-6944
TH	-6945
ye	-6946
▁ble	-6947
▁mal	-6948
▁mum	-6949
▁pus	-6950
inent	-6951
nergy	-6952
▁1990	-6953
▁Gold	-6954
▁Rain	-6955
▁User	-6956
▁mort	-6957
aching	-6958
▁Leave	-6959
▁prize	-6960
▁taste	-6961
▁Agency	-6962
▁Future	-6963
▁comply	-6964
velation	-6965
▁Blessed	-6966
▁settled	-6967
▁centuries	-6968
▁expansion	-6969
▁hyd	-6970
loved	-6971
ordan	-6972
▁Mount	-6973
lishing	-6974
▁Prince	-6975
▁worthy	-6976
▁reminds	-6977
▁virtual	-6978
▁winners	-6979
▁Hopefully	-6980
▁reputation	-6981
40	-6982
60	-6983
One	-6984
rog	-6985
▁0.	-6986
iour	-6987
utor	-6988
▁Sex	-6989
▁kil	-6990
rison	-6991
▁Chel	-6992
▁acts	-6993
▁2012,	-6994
▁usual	-6995
▁viewed	-6996
▁churches	-6997
▁occasions	-6998
▁philosoph	-6999
▁perspective	-7000
6)	-7001
:30	-7002
inet	-7003
rier	-7004
▁core	-7005
▁2010.	-7006
▁outdo	-7007
▁Design	-7008
▁Engine	-7009
▁Isaiah	-7010
▁corner	-7011
▁hunger	-7012
▁relief	-7013
▁massive	-7014
▁outcome	-7015
▁interpret	-7016
▁succeeded	-7017
▁smartphone	-7018
ths	-7019
▁Os	-7020
▁Turn	-7021
gorith	-7022
ounter	-7023
▁Click	-7024
▁rooms	-7025
▁strik	-7026
▁clothing	-7027
▁Protection	-7028
▁prosperity	-7029
▁transactions	-7030
▁administrative	-7031
see	-7032
inema	-7033
▁aims	-7034
▁elig	-7035
▁loud	-7036
▁2008,	-7037
▁Space	-7038
▁nurse	-7039
▁roads	-7040
▁distin	-7041
▁Thailand	-7042
▁supplies	-7043
pper	-7044
▁400	-7045
▁Dri	-7046
▁Leg	-7047
▁Dead	-7048
▁Init	-7049
▁aged	-7050
giving	-7051
▁Birth	-7052
▁Swiss	-7053
aughter	-7054
▁Thomas	-7055
▁extend	-7056
▁merely	-7057
▁strike	-7058
▁sudden	-7059
▁positions	-7060
who	-7061
▁Kim	-7062
▁Imag	-7063
▁Thee	-7064
▁push	-7065
worthy	-7066
▁Chief	-7067
▁birds	-7068
▁fears	-7069
▁manif	-7070
▁steel	-7071
▁veget	-7072
▁Nature	-7073
▁assure	-7074
▁singer	-7075
▁Creator	-7076
▁Wherever	-7077
▁memories	-7078
▁restored	-7079
▁anniversary	-7080
▁generations	-7081
Hey	-7082
ett	-7083
▁vo	-7084
rome	-7085
▁ric	-7086
heart	-7087
irgin	-7088
ource	-7089
▁Flor	-7090
▁bomb	-7091
▁boost	-7092
▁Return	-7093
▁leaves	-7094
▁rescue	-7095
▁Reading	-7096
▁Society	-7097
▁Support	-7098
▁Whoever	-7099
▁anxiety	-7100
▁unclear	-7101
▁settings	-7102
▁Christians	-7103
▁certificate	-7104
ias	-7105
▁Er	-7106
atar	-7107
▁Est	-7108
▁dry	-7109
ading	-7110
speed	-7111
▁2007	-7112
......	-7113
▁2015,	-7114
▁album	-7115
▁arbit	-7116
lobally	-7117
tenance	-7118
▁Greece	-7119
▁fallen	-7120
▁injury	-7121
▁repent	-7122
▁troops	-7123
▁creates	-7124
▁extract	-7125
▁wrongdo	-7126
▁Emirates	-7127
▁admitted	-7128
▁quantity	-7129
▁schedule	-7130
12	-7131
IP	-7132
nic	-7133
▁NO	-7134
▁80%	-7135
▁Dom	-7136
▁Lab	-7137
▁inqu	-7138
▁Terms	-7139
▁motiv	-7140
attered	-7141
▁Energy	-7142
▁meters	-7143
▁missed	-7144
▁server	-7145
▁worlds	-7146
▁Chelsea	-7147
▁Luckily	-7148
sequently	-7149
▁suggests	-7150
▁visiting	-7151
▁Analytics	-7152
▁colleagues	-7153
▁continuous	-7154
▁laboratory	-7155
▁Environment	-7156
▁Age	-7157
▁Cho	-7158
▁Sar	-7159
▁Sem	-7160
▁nod	-7161
Thank	-7162
assed	-7163
▁sets	-7164
▁tatt	-7165
edient	-7166
uality	-7167
▁Trade	-7168
▁breast	-7169
▁horses	-7170
▁infect	-7171
▁refund	-7172
▁insight	-7173
▁Together	-7174
▁Authority	-7175
▁Scripture	-7176
▁attempted	-7177
▁convinced	-7178
▁distributed	-7179
Ex	-7180
Can	-7181
che	-7182
ula	-7183
▁DO	-7184
dess	-7185
▁hey	-7186
▁dare	-7187
▁Franc	-7188
▁Nobel	-7189
▁opens	-7190
isement	-7191
▁bottom	-7192
▁refers	-7193
▁Special	-7194
▁addressed	-7195
▁engineers	-7196
▁originally	-7197
RS	-7198
▁€	-7199
Hell	-7200
▁net	-7201
clock	-7202
osure	-7203
▁Form	-7204
▁Left	-7205
▁Much	-7206
▁legit	-7207
▁loans	-7208
▁storm	-7209
▁thief	-7210
▁rising	-7211
▁generate	-7212
▁Community	-7213
▁describes	-7214
▁Federation	-7215
▁enterprise	-7216
▁identified	-7217
▁agriculture	-7218
▁disabilities	-7219
▁transparency	-7220
▁effectiveness	-7221
ooth	-7222
▁Cre	-7223
▁End	-7224
▁mos	-7225
owing	-7226
▁True	-7227
▁heed	-7228
▁ring	-7229
orship	-7230
▁Relig	-7231
▁moral	-7232
▁robot	-7233
▁Jordan	-7234
▁repeat	-7235
▁switch	-7236
▁harmful	-7237
▁peoples	-7238
▁Knowledge	-7239
▁electrical	-7240
▁immigrants	-7241
▁photography	-7242
▁significance	-7243
▁PS	-7244
cked	-7245
rary	-7246
roat	-7247
▁Sur	-7248
isees	-7249
▁Land	-7250
▁phen	-7251
earing	-7252
▁Seven	-7253
essions	-7254
osition	-7255
▁Access	-7256
▁unlike	-7257
▁cancell	-7258
▁charged	-7259
▁Canadian	-7260
▁algorith	-7261
▁ensuring	-7262
▁shipping	-7263
▁Argentina	-7264
▁apologize	-7265
▁frightened	-7266
▁independence	-7267
▁participating	-7268
AI	-7269
EF	-7270
gg	-7271
off	-7272
ros	-7273
▁ST	-7274
iary	-7275
▁Ste	-7276
▁fan	-7277
lfare	-7278
orney	-7279
▁bicy	-7280
▁Ready	-7281
▁driven	-7282
▁guests	-7283
▁plugin	-7284
▁prompt	-7285
▁Matthew	-7286
▁beloved	-7287
▁rejoice	-7288
▁tweeted	-7289
▁reaching	-7290
▁apartment	-7291
▁prisoners	-7292
umin	-7293
▁Tele	-7294
▁finds	-7295
▁react	-7296
▁scary	-7297
▁tries	-7298
▁acting	-7299
▁lesson	-7300
▁mutual	-7301
▁affairs	-7302
▁finance	-7303
▁ongoing	-7304
▁directions	-7305
▁Furthermore	-7306
▁participated	-7307
ih	-7308
this	-7309
▁Hua	-7310
oster	-7311
usted	-7312
▁bond	-7313
▁mand	-7314
▁tips	-7315
▁woods	-7316
oration	-7317
▁Country	-7318
▁escaped	-7319
▁Actually	-7320
▁contrary	-7321
▁naturally	-7322
▁overnight	-7323
▁conclusion	-7324
▁explanation	-7325
ago	-7326
▁43	-7327
▁AM	-7328
▁iOS	-7329
licop	-7330
▁Whats	-7331
▁Woman	-7332
▁grant	-7333
▁10,000	-7334
▁waited	-7335
▁Academy	-7336
▁therein	-7337
including	-7338
▁actively	-7339
▁comparison	-7340
▁objectives	-7341
▁installation	-7342
▁Administration	-7343
wr	-7344
iden	-7345
▁gar	-7346
▁pit	-7347
▁sav	-7348
igare	-7349
ommod	-7350
pense	-7351
▁Kids	-7352
▁Road	-7353
▁Sleep	-7354
▁chain	-7355
▁dynam	-7356
▁reveal	-7357
▁scored	-7358
▁Imagine	-7359
▁Protect	-7360
▁falling	-7361
▁protest	-7362
▁restore	-7363
▁Democrat	-7364
▁emissions	-7365
AL	-7366
AY	-7367
ka	-7368
▁IC	-7369
▁ec	-7370
pire	-7371
uese	-7372
▁Eat	-7373
▁Gods	-7374
▁Putin	-7375
▁keeps	-7376
stanbul	-7377
▁loving	-7378
▁scheme	-7379
▁shares	-7380
▁solely	-7381
▁Firstly	-7382
▁devoted	-7383
▁refugee	-7384
▁respons	-7385
▁channels	-7386
▁presents	-7387
sufficient	-7388
▁complaining	-7389
▁infrastructure	-7390
ji	-7391
____	-7392
oles	-7393
ician	-7394
▁Hold	-7395
▁Daddy	-7396
▁advoc	-7397
▁Journal	-7398
▁penalty	-7399
ationally	-7400
▁precious	-7401
▁wondered	-7402
▁basically	-7403
▁creatures	-7404
▁separated	-7405
▁inhabitants	-7406
**	-7407
LC	-7408
ola	-7409
cest	-7410
wood	-7411
▁Net	-7412
▁Resp	-7413
▁brave	-7414
▁frust	-7415
▁worsh	-7416
▁assume	-7417
▁paying	-7418
eousness	-7419
▁Members	-7420
▁inherit	-7421
▁smaller	-7422
▁turning	-7423
▁observed	-7424
▁vaccines	-7425
▁Generally	-7426
▁referring	-7427
▁significantly	-7428
acc	-7429
dam	-7430
wei	-7431
▁Hy	-7432
burg	-7433
from	-7434
eware	-7435
isted	-7436
▁2021	-7437
▁Marx	-7438
▁fled	-7439
▁abuse	-7440
▁aside	-7441
▁gifts	-7442
▁gotta	-7443
▁paint	-7444
▁threw	-7445
irlines	-7446
▁Mobile	-7447
▁explos	-7448
▁gentle	-7449
▁hotels	-7450
▁Florida	-7451
▁honored	-7452
▁proceed	-7453
▁resolve	-7454
▁tickets	-7455
▁globally	-7456
ifications	-7457
▁complaint	-7458
▁impressed	-7459
▁Convention	-7460
tr	-7461
box	-7462
▁Hen	-7463
▁Way	-7464
eless	-7465
▁fuel	-7466
▁trem	-7467
▁Local	-7468
▁admit	-7469
▁asset	-7470
▁facil	-7471
▁forty	-7472
▁funny	-7473
▁heads	-7474
▁shame	-7475
▁Donald	-7476
▁Except	-7477
▁burned	-7478
▁visual	-7479
▁dreamed	-7480
▁shocked	-7481
▁traveled	-7482
▁Beautiful	-7483
▁advantages	-7484
At	-7485
Ps	-7486
oto	-7487
pal	-7488
unk	-7489
▁39	-7490
ails	-7491
▁90%	-7492
▁Oft	-7493
power	-7494
▁Dude	-7495
▁coal	-7496
▁Huawei	-7497
▁enable	-7498
▁exceed	-7499
▁toilet	-7500
▁Himself	-7501
▁meantime	-7502
▁regarded	-7503
▁considers	-7504
▁remaining	-7505
▁membership	-7506
▁maintenance	-7507
App	-7508
jah	-7509
bell	-7510
greg	-7511
▁Self	-7512
▁courts	-7513
▁filter	-7514
▁mighty	-7515
▁Between	-7516
▁Francis	-7517
▁inspect	-7518
▁survive	-7519
▁victims	-7520
▁thankful	-7521
▁Democratic	-7522
▁presidential	-7523
8)	-7524
uh	-7525
esis	-7526
ials	-7527
whel	-7528
▁192	-7529
▁Rom	-7530
third	-7531
▁Link	-7532
▁Prom	-7533
▁Viet	-7534
▁vent	-7535
cribed	-7536
▁Citiz	-7537
▁Guard	-7538
▁Story	-7539
▁shalt	-7540
▁stops	-7541
fathers	-7542
▁Compan	-7543
▁Syrian	-7544
▁contem	-7545
▁elimin	-7546
▁Interest	-7547
▁distingu	-7548
▁receives	-7549
▁reviewed	-7550
▁fantastic	-7551
▁competitors	-7552
▁politicians	-7553
:22	-7554
bye	-7555
cks	-7556
ios	-7557
▁41	-7558
▁Cle	-7559
▁wid	-7560
▁2006	-7561
ighter	-7562
▁diagn	-7563
▁imper	-7564
eremiah	-7565
▁Regard	-7566
▁charges	-7567
▁council	-7568
▁impress	-7569
▁secrets	-7570
▁accommod	-7571
▁republic	-7572
▁believing	-7573
▁companion	-7574
▁terrorism	-7575
▁yourselves	-7576
▁transmission	-7577
ga	-7578
arr	-7579
rem	-7580
▁IN	-7581
▁Jam	-7582
▁nav	-7583
▁swe	-7584
▁Cath	-7585
▁Hand	-7586
▁lake	-7587
▁soci	-7588
▁Treat	-7589
▁Import	-7590
▁William	-7591
▁fishing	-7592
▁impacts	-7593
▁warrant	-7594
▁weekend	-7595
▁generated	-7596
▁description	-7597
▁intellectual	-7598
bet	-7599
asons	-7600
▁dism	-7601
▁impl	-7602
Americ	-7603
ertain	-7604
▁2013,	-7605
▁Years	-7606
▁retain	-7607
▁arrange	-7608
▁consumed	-7609
▁phenomen	-7610
▁worrying	-7611
▁criticism	-7612
▁represented	-7613
▁Additionally	-7614
▁announcement	-7615
▁unemployment	-7616
▁characteristics	-7617
"?	-7618
:20	-7619
ION	-7620
occ	-7621
ule	-7622
ommy	-7623
▁Six	-7624
▁Game	-7625
▁Sams	-7626
▁seed	-7627
nowing	-7628
resent	-7629
▁Frank	-7630
▁Leban	-7631
▁Medic	-7632
▁behold	-7633
▁pattern	-7634
▁threats	-7635
▁involves	-7636
▁scholars	-7637
▁remembers	-7638
▁improvement	-7639
▁personality	-7640
▁collaboration	-7641
cal	-7642
▁(4	-7643
▁1)	-7644
▁99	-7645
▁IM	-7646
▁SO	-7647
char	-7648
▁Rob	-7649
▁omn	-7650
hemat	-7651
▁Must	-7652
▁ties	-7653
mighty	-7654
▁Modern	-7655
▁agents	-7656
▁ancest	-7657
▁diverse	-7658
▁acknowled	-7659
▁Portuguese	-7660
▁transition	-7661
▁organisation	-7662
1)	-7663
zz	-7664
arsh	-7665
Hello	-7666
adise	-7667
▁Card	-7668
▁Live	-7669
▁Okay	-7670
▁edge	-7671
▁scra	-7672
iments	-7673
▁Quran	-7674
▁adapt	-7675
▁argue	-7676
▁falls	-7677
rencies	-7678
▁voting	-7679
▁deposit	-7680
▁suspect	-7681
▁consists	-7682
▁lighting	-7683
▁requests	-7684
▁converted	-7685
▁satellite	-7686
▁artificial	-7687
▁incredibly	-7688
▁requirement	-7689
▁developments	-7690
3)	-7691
RL	-7692
SS	-7693
ba	-7694
mi	-7695
▁AP	-7696
xBet	-7697
▁Boy	-7698
▁Raj	-7699
endar	-7700
liers	-7701
owned	-7702
ulner	-7703
▁1980	-7704
▁hall	-7705
gments	-7706
▁Heart	-7707
▁grief	-7708
▁repro	-7709
▁Beware	-7710
▁Temple	-7711
▁Johnson	-7712
▁volunte	-7713
▁promoting	-7714
▁relatives	-7715
▁appointment	-7716
Qur	-7717
rim	-7718
▁Ay	-7719
long	-7720
▁Tax	-7721
▁Too	-7722
▁bot	-7723
▁fis	-7724
▁Expl	-7725
▁Full	-7726
▁Hosp	-7727
▁nose	-7728
icious	-7729
oughly	-7730
▁1,000	-7731
▁Force	-7732
▁iniqu	-7733
▁usage	-7734
ounding	-7735
▁Thamud	-7736
▁square	-7737
▁amounts	-7738
▁creator	-7739
▁helicop	-7740
▁involve	-7741
▁objects	-7742
▁eligible	-7743
▁campaigns	-7744
▁ignorance	-7745
▁availability	-7746
▁>	-7747
uls	-7748
aser	-7749
osis	-7750
▁Win	-7751
▁nom	-7752
▁Care	-7753
▁Near	-7754
making	-7755
▁sends	-7756
▁Poland	-7757
▁Ukrain	-7758
▁criter	-7759
▁Section	-7760
▁decides	-7761
▁blogging	-7762
▁relating	-7763
▁executive	-7764
▁expertise	-7765
▁scheduled	-7766
▁+	-7767
▁Ib	-7768
▁PM	-7769
arer	-7770
▁Cry	-7771
▁Jon	-7772
▁Ref	-7773
▁Sav	-7774
▁pil	-7775
anmar	-7776
lying	-7777
▁grat	-7778
▁pill	-7779
atures	-7780
▁pursu	-7781
▁seeks	-7782
▁scream	-7783
▁Freedom	-7784
▁damaged	-7785
▁longest	-7786
▁motorcy	-7787
▁passing	-7788
▁Istanbul	-7789
▁Obviously	-7790
▁revolutionary	-7791
isp	-7792
▁50%	-7793
▁Jim	-7794
▁Sin	-7795
▁Var	-7796
▁WHO	-7797
▁syn	-7798
erent	-7799
▁acid	-7800
▁idol	-7801
▁teen	-7802
▁wave	-7803
arling	-7804
makers	-7805
▁2014,	-7806
▁chast	-7807
▁lunch	-7808
▁therap	-7809
▁verily	-7810
▁Earlier	-7811
▁convert	-7812
▁praised	-7813
▁Gentiles	-7814
▁accompan	-7815
▁facility	-7816
▁licensed	-7817
▁initiative	-7818
▁treatments	-7819
IA	-7820
ww	-7821
akh	-7822
erg	-7823
uru	-7824
▁Mc	-7825
Look	-7826
aith	-7827
icon	-7828
imer	-7829
rics	-7830
they	-7831
▁Run	-7832
▁alt	-7833
there	-7834
▁flex	-7835
aiting	-7836
ancial	-7837
everal	-7838
▁buses	-7839
▁plain	-7840
▁emails	-7841
▁pulled	-7842
▁competing	-7843
▁agreements	-7844
▁remarkable	-7845
▁integration	-7846
ani	-7847
iot	-7848
phe	-7849
▁2)	-7850
ruly	-7851
▁ads	-7852
▁cul	-7853
▁Code	-7854
▁Phar	-7855
▁horm	-7856
necess	-7857
▁Users	-7858
▁honey	-7859
▁voters	-7860
▁vulner	-7861
▁descend	-7862
▁enforce	-7863
▁sectors	-7864
▁stadium	-7865
▁Palestin	-7866
▁entrance	-7867
▁overwhel	-7868
▁subjects	-7869
▁strangers	-7870
▁corporation	-7871
UT	-7872
Un	-7873
arus	-7874
lesh	-7875
utan	-7876
pping	-7877
▁dont	-7878
▁Radio	-7879
▁armed	-7880
▁minor	-7881
▁losses	-7882
▁designs	-7883
▁matches	-7884
▁engineer	-7885
▁focusing	-7886
▁produces	-7887
▁ultimate	-7888
▁profitable	-7889
▁forefathers	-7890
▁destinations	-7891
▁registration	-7892
▁SS	-7893
ador	-7894
cred	-7895
▁tur	-7896
cript	-7897
usive	-7898
▁Blog	-7899
▁Prem	-7900
▁Ryan	-7901
▁enth	-7902
▁shed	-7903
mother	-7904
▁gates	-7905
▁magaz	-7906
▁combat	-7907
▁covers	-7908
▁rulers	-7909
▁slight	-7910
▁thirty	-7911
▁attached	-7912
▁scraping	-7913
▁Indonesia	-7914
▁Conference	-7915
▁celebration	-7916
▁internationally	-7917
SA	-7918
UM	-7919
comm	-7920
▁Blo	-7921
peace	-7922
rator	-7923
▁Cost	-7924
▁Half	-7925
▁Mine	-7926
▁band	-7927
▁heal	-7928
cients	-7929
liance	-7930
▁Royal	-7931
▁Member	-7932
▁analyz	-7933
▁exclus	-7934
▁sovere	-7935
▁Belgium	-7936
▁Library	-7937
▁Several	-7938
▁equival	-7939
▁Portugal	-7940
▁discount	-7941
▁northern	-7942
▁overseas	-7943
▁shortage	-7944
▁extension	-7945
▁intention	-7946
▁provision	-7947
▁translate	-7948
▁influenced	-7949
▁journalism	-7950
3]	-7951
ava	-7952
ius	-7953
▁75	-7954
inth	-7955
▁Wow	-7956
▁ice	-7957
▁1000	-7958
▁enorm	-7959
respond	-7960
▁Choose	-7961
▁babies	-7962
▁autonom	-7963
▁awarded	-7964
▁counsel	-7965
▁deserves	-7966
▁investor	-7967
▁manifest	-7968
▁minority	-7969
▁packages	-7970
▁Brazilian	-7971
▁photograp	-7972
unicipality	-7973
▁achievement	-7974
▁continuously	-7975
▁experiencing	-7976
gers	-7977
▁Div	-7978
▁NAS	-7979
▁Cook	-7980
▁Chris	-7981
▁admon	-7982
▁scoot	-7983
▁shout	-7984
▁farmer	-7985
▁blocked	-7986
▁compens	-7987
▁edition	-7988
▁organis	-7989
▁Northern	-7990
▁reducing	-7991
▁concluded	-7992
▁accomplished	-7993
▁achievements	-7994
Fi	-7995
ams	-7996
rit	-7997
▁(7	-7998
▁Ali	-7999
▁Had	-8000
▁Mel	-8001
▁raw	-8002
heast	-8003
▁unus	-8004
▁habit	-8005
▁royal	-8006
▁scope	-8007
igation	-8008
▁Buddha	-8009
▁Employ	-8010
▁Surely	-8011
▁freely	-8012
▁ladies	-8013
▁summit	-8014
▁Olympic	-8015
▁alright	-8016
▁closing	-8017
▁constit	-8018
▁focuses	-8019
▁wealthy	-8020
▁hardware	-8021
▁overcome	-8022
▁strongly	-8023
▁Financial	-8024
▁fortunate	-8025
▁witnessed	-8026
▁engineering	-8027
▁necessarily	-8028
▁transaction	-8029
▁contributions	-8030
umer	-8031
▁bow	-8032
▁lion	-8033
▁yoga	-8034
▁postp	-8035
▁troub	-8036
▁housing	-8037
▁samples	-8038
▁welfare	-8039
▁heritage	-8040
▁kindness	-8041
▁operates	-8042
▁sacrific	-8043
▁universal	-8044
▁agricultural	-8045
9)	-8046
An	-8047
arn	-8048
▁meat	-8049
▁2010,	-8050
▁Hence	-8051
▁Surpr	-8052
▁enhan	-8053
▁grave	-8054
▁guest	-8055
▁metal	-8056
▁cinema	-8057
▁colour	-8058
▁insane	-8059
▁nodded	-8060
▁spends	-8061
▁Eastern	-8062
▁Samsung	-8063
▁empower	-8064
▁soldier	-8065
▁cleaning	-8066
▁demanded	-8067
▁classroom	-8068
▁expanding	-8069
▁mechanism	-8070
▁acquainted	-8071
AP	-8072
pa	-8073
-20	-8074
pet	-8075
berg	-8076
uris	-8077
▁70%	-8078
▁Alp	-8079
▁Bad	-8080
▁Saf	-8081
▁hyp	-8082
break	-8083
ental	-8084
iques	-8085
▁dish	-8086
▁heav	-8087
▁pair	-8088
▁woke	-8089
ursday	-8090
▁Based	-8091
▁Class	-8092
▁eleph	-8093
▁recip	-8094
▁emphas	-8095
▁interf	-8096
▁locals	-8097
▁lovely	-8098
▁strive	-8099
▁Myanmar	-8100
▁causing	-8101
▁tremend	-8102
▁protects	-8103
▁obligation	-8104
▁entrepreneurs	-8105
?.	-8106
▁LG	-8107
abul	-8108
▁Bre	-8109
plete	-8110
▁hath	-8111
▁symp	-8112
change	-8113
▁Build	-8114
▁hopes	-8115
▁shoes	-8116
▁stuck	-8117
▁Control	-8118
▁defence	-8119
▁outdoor	-8120
▁touched	-8121
▁Jeremiah	-8122
▁emotions	-8123
▁indicate	-8124
▁patience	-8125
▁princess	-8126
▁protocol	-8127
▁Following	-8128
▁Pharisees	-8129
▁Ukrainian	-8130
▁emotional	-8131
▁Republican	-8132
▁exhibition	-8133
▁appreciated	-8134
▁PR	-8135
Sure	-8136
etes	-8137
ovid	-8138
wing	-8139
▁800	-8140
▁Ent	-8141
rogen	-8142
▁Beng	-8143
▁Song	-8144
isible	-8145
itchen	-8146
▁Liber	-8147
▁hello	-8148
▁liked	-8149
▁meals	-8150
▁perce	-8151
▁branch	-8152
▁seized	-8153
▁absence	-8154
▁betting	-8155
▁centers	-8156
▁discipl	-8157
▁fastest	-8158
▁figures	-8159
▁legally	-8160
▁lessons	-8161
▁Computer	-8162
▁attended	-8163
▁operator	-8164
▁publicly	-8165
▁tracking	-8166
▁architecture	-8167
▁recommendations	-8168
fl	-8169
aria	-8170
cers	-8171
hent	-8172
onym	-8173
rine	-8174
view	-8175
▁Bur	-8176
▁Auto	-8177
▁hole	-8178
▁draft	-8179
▁miles	-8180
▁reads	-8181
itarian	-8182
▁Compet	-8183
▁ending	-8184
▁sample	-8185
▁volume	-8186
▁besides	-8187
▁assembly	-8188
▁charging	-8189
▁automatic	-8190
▁personnel	-8191
▁workplace	-8192
▁purchasing	-8193
▁reasonable	-8194
▁combination	-8195
▁maintaining	-8196
25	-8197
ii	-8198
:26	-8199
eem	-8200
▁ine	-8201
ensus	-8202
▁fasc	-8203
▁fewer	-8204
▁firms	-8205
inating	-8206
lasting	-8207
▁Living	-8208
▁bother	-8209
▁latter	-8210
▁spring	-8211
▁thread	-8212
▁Teacher	-8213
▁desktop	-8214
▁equally	-8215
▁torment	-8216
▁dialogue	-8217
▁targeted	-8218
▁Champions	-8219
▁Scriptures	-8220
▁conversion	-8221
15	-8222
May	-8223
▁ID	-8224
▁Ky	-8225
bert	-8226
conn	-8227
eges	-8228
▁12.	-8229
▁Lar	-8230
▁tag	-8231
▁Ever	-8232
▁Head	-8233
▁Pass	-8234
▁furn	-8235
▁hang	-8236
▁shad	-8237
icians	-8238
▁Qatar	-8239
▁Smart	-8240
▁euros	-8241
▁Bhutan	-8242
▁campus	-8243
▁Capital	-8244
▁ensures	-8245
▁evident	-8246
▁interior	-8247
▁Egyptians	-8248
▁professor	-8249
▁renewable	-8250
▁philosophy	-8251
▁resistance	-8252
cre	-8253
▁Ly	-8254
brew	-8255
cons	-8256
▁Shut	-8257
▁lied	-8258
▁Charl	-8259
▁Going	-8260
▁buyer	-8261
▁urban	-8262
▁Empire	-8263
▁Little	-8264
▁dozens	-8265
▁locked	-8266
▁rivers	-8267
▁denying	-8268
▁bilateral	-8269
▁component	-8270
▁enjoyable	-8271
▁reporters	-8272
▁technique	-8273
▁applicants	-8274
▁procedures	-8275
▁publication	-8276
CE	-8277
:25	-8278
eys	-8279
▁3:	-8280
▁oh	-8281
step	-8282
▁Hmm	-8283
▁1960	-8284
▁1970	-8285
▁Cond	-8286
▁Film	-8287
▁Lots	-8288
▁Wond	-8289
▁farm	-8290
▁forb	-8291
▁jack	-8292
▁shel	-8293
pelled	-8294
▁gotten	-8295
▁theirs	-8296
▁Affairs	-8297
▁priests	-8298
▁signing	-8299
▁Software	-8300
▁convention	-8301
▁correspond	-8302
▁suggestion	-8303
▁transformation	-8304
Ab	-8305
BA	-8306
)."	-8307
ano	-8308
uke	-8309
▁Ur	-8310
Yeah	-8311
keep	-8312
▁Len	-8313
▁root	-8314
▁enthus	-8315
▁trends	-8316
▁weekly	-8317
▁authors	-8318
▁heading	-8319
▁periods	-8320
▁Chairman	-8321
▁Universe	-8322
▁carrying	-8323
▁criteria	-8324
▁employer	-8325
▁relation	-8326
▁packaging	-8327
▁producing	-8328
▁Scientists	-8329
▁categories	-8330
▁politician	-8331
CD	-8332
ls	-8333
bits	-8334
▁(3)	-8335
riers	-8336
▁Grow	-8337
▁Rest	-8338
▁cous	-8339
▁genu	-8340
ardens	-8341
oubted	-8342
▁Biden	-8343
▁Prize	-8344
▁annoy	-8345
▁knock	-8346
▁loses	-8347
▁slave	-8348
▁stake	-8349
▁surve	-8350
▁Others	-8351
▁lasted	-8352
▁lovers	-8353
▁papers	-8354
▁battery	-8355
▁Nowadays	-8356
▁WhatsApp	-8357
▁Whenever	-8358
▁automated	-8359
va	-8360
▁Da	-8361
host	-8362
▁Buy	-8363
▁Det	-8364
▁avo	-8365
▁dim	-8366
nings	-8367
▁Area	-8368
▁Born	-8369
▁blow	-8370
▁flee	-8371
▁unex	-8372
arters	-8373
market	-8374
rition	-8375
▁Louis	-8376
▁Place	-8377
▁Speak	-8378
▁codes	-8379
▁reign	-8380
▁votes	-8381
iabetes	-8382
▁divine	-8383
▁feared	-8384
▁Captain	-8385
▁profits	-8386
▁goodness	-8387
▁shoulder	-8388
▁villages	-8389
▁equivalent	-8390
▁newspapers	-8391
▁disbelievers	-8392
▁presentation	-8393
-5	-8394
wo	-8395
gia	-8396
▁Id	-8397
appy	-8398
fall	-8399
made	-8400
▁CBD	-8401
▁DNA	-8402
▁LED	-8403
▁unw	-8404
▁oath	-8405
▁2011,	-8406
▁aimed	-8407
▁innoc	-8408
▁juris	-8409
▁Corpor	-8410
▁column	-8411
▁deploy	-8412
Muhammad	-8413
▁organic	-8414
▁publish	-8415
▁reaches	-8416
▁regards	-8417
▁theater	-8418
▁managing	-8419
▁replaced	-8420
▁supplier	-8421
Everything	-8422
▁worshiped	-8423
▁repeatedly	-8424
UN	-8425
:21	-8426
ini	-8427
▁SA	-8428
gery	-8429
▁(19	-8430
▁rub	-8431
▁unh	-8432
lings	-8433
▁Cast	-8434
▁flag	-8435
▁tear	-8436
▁prost	-8437
▁sanct	-8438
claimed	-8439
▁deeply	-8440
▁franch	-8441
▁myster	-8442
oubtedly	-8443
▁anytime	-8444
▁calendar	-8445
▁ownership	-8446
▁restricted	-8447
▁accompanied	-8448
▁increasingly	-8449
!)	-8450
lon	-8451
obe	-8452
▁55	-8453
cape	-8454
inds	-8455
▁Agr	-8456
▁Mao	-8457
▁sup	-8458
▁isol	-8459
▁onto	-8460
▁roll	-8461
▁Write	-8462
▁adequ	-8463
▁fraud	-8464
▁input	-8465
▁poems	-8466
▁remed	-8467
endment	-8468
▁Elijah	-8469
▁drinks	-8470
▁legacy	-8471
▁dropped	-8472
▁observe	-8473
▁planets	-8474
▁District	-8475
▁Thursday	-8476
▁choosing	-8477
▁correctly	-8478
▁invisible	-8479
▁suppliers	-8480
▁preparation	-8481
▁representing	-8482
Pro	-8483
ira	-8484
▁TR	-8485
▁pu	-8486
amin	-8487
ores	-8488
▁30%	-8489
▁ath	-8490
ouses	-8491
▁Press	-8492
▁flesh	-8493
▁tourn	-8494
eremony	-8495
▁Inside	-8496
▁injust	-8497
▁Mexican	-8498
▁Vietnam	-8499
▁classic	-8500
▁suppose	-8501
▁Anything	-8502
▁invented	-8503
▁prospect	-8504
▁romantic	-8505
▁approaching	-8506
▁departments	-8507
▁Ra	-8508
anta	-8509
▁bes	-8510
Jesus	-8511
▁Wood	-8512
▁fart	-8513
▁wars	-8514
▁zero	-8515
▁dates	-8516
▁dolls	-8517
rations	-8518
▁Casino	-8519
▁Centre	-8520
▁repair	-8521
▁riding	-8522
▁english	-8523
▁Secondly	-8524
▁assigned	-8525
▁payments	-8526
▁scientist	-8527
▁legitimate	-8528
▁prohibited	-8529
▁transformed	-8530
▁establishment	-8531
zy	-8532
▁@	-8533
7).	-8534
▁HE	-8535
athy	-8536
▁600	-8537
▁Tam	-8538
▁Wis	-8539
▁sty	-8540
pread	-8541
▁Easy	-8542
▁Page	-8543
▁Upon	-8544
▁bull	-8545
▁disg	-8546
▁pace	-8547
▁slot	-8548
▁Along	-8549
▁sixth	-8550
▁Better	-8551
▁Enough	-8552
▁prince	-8553
▁refuse	-8554
▁capture	-8555
▁demands	-8556
▁instant	-8557
▁kitchen	-8558
▁raining	-8559
▁ranking	-8560
▁twitter	-8561
▁typical	-8562
operation	-8563
▁airports	-8564
▁combined	-8565
▁enormous	-8566
▁obligations	-8567
▁neighborhood	-8568
90	-8569
IR	-8570
osy	-8571
▁CD	-8572
▁10,	-8573
▁Pop	-8574
▁Ray	-8575
cribe	-8576
▁Blue	-8577
▁Khan	-8578
▁Send	-8579
▁liar	-8580
▁tech	-8581
▁thor	-8582
People	-8583
omeday	-8584
▁safer	-8585
▁stead	-8586
▁Select	-8587
▁differ	-8588
▁jurisd	-8589
▁shower	-8590
▁Certain	-8591
▁Station	-8592
▁authent	-8593
▁harvest	-8594
▁attitude	-8595
▁ceremony	-8596
▁regulated	-8597
▁reporting	-8598
14	-8599
7]	-8600
mu	-8601
apa	-8602
nis	-8603
▁46	-8604
▁Ca	-8605
▁Wi	-8606
Some	-8607
▁Eth	-8608
▁Lev	-8609
alley	-8610
eries	-8611
ingly	-8612
hester	-8613
▁Linux	-8614
▁chart	-8615
▁moves	-8616
holders	-8617
▁Either	-8618
▁exclud	-8619
▁provin	-8620
▁sacred	-8621
▁undert	-8622
▁rapidly	-8623
▁Russians	-8624
▁contrast	-8625
2]	-8626
UR	-8627
aan	-8628
sen	-8629
▁km	-8630
aldo	-8631
ford	-8632
list	-8633
otes	-8634
reens	-8635
rence	-8636
▁EVER	-8637
▁Line	-8638
▁cure	-8639
▁flaw	-8640
▁outs	-8641
▁soft	-8642
▁Covid	-8643
▁Event	-8644
▁Gates	-8645
▁Semalt	-8646
▁affili	-8647
▁thanked	-8648
▁Hospital	-8649
▁clinical	-8650
▁Pakistani	-8651
▁abundance	-8652
▁compatible	-8653
▁customized	-8654
▁diplomatic	-8655
▁travelling	-8656
LY	-8657
uan	-8658
▁$3	-8659
▁Ye	-8660
hour	-8661
ront	-8662
ylum	-8663
▁Cam	-8664
▁lift	-8665
erving	-8666
▁gospe	-8667
▁oppon	-8668
▁Berlin	-8669
▁Really	-8670
▁Street	-8671
▁devast	-8672
▁excess	-8673
▁regret	-8674
▁Premier	-8675
▁Univers	-8676
▁academy	-8677
▁genuine	-8678
▁retired	-8679
▁satisfy	-8680
▁hesitate	-8681
▁Companies	-8682
▁Depending	-8683
▁gratitude	-8684
▁intervention	-8685
▁negotiations	-8686
TA	-8687
200	-8688
▁1/	-8689
▁49	-8690
▁FC	-8691
▁Sod	-8692
▁Fact	-8693
▁Fest	-8694
▁Main	-8695
▁auto	-8696
▁cart	-8697
▁mood	-8698
▁neck	-8699
▁vice	-8700
▁Apart	-8701
▁Cross	-8702
▁alert	-8703
▁spect	-8704
▁upset	-8705
▁Always	-8706
▁advise	-8707
▁cancel	-8708
▁intend	-8709
▁resort	-8710
▁Manager	-8711
▁kilomet	-8712
▁somehow	-8713
▁wasting	-8714
▁Drinking	-8715
▁Recently	-8716
▁designer	-8717
▁unnecess	-8718
▁witnesses	-8719
▁Profession	-8720
▁contributed	-8721
▁recognition	-8722
16	-8723
OP	-8724
ami	-8725
comp	-8726
iors	-8727
oooo	-8728
▁Ang	-8729
▁Cub	-8730
▁Emb	-8731
▁Hol	-8732
▁cow	-8733
▁gap	-8734
▁spo	-8735
apped	-8736
ifted	-8737
rates	-8738
▁Chic	-8739
▁Hall	-8740
▁pled	-8741
▁stim	-8742
▁Clean	-8743
▁Forum	-8744
▁cares	-8745
▁fifty	-8746
▁hosts	-8747
▁notes	-8748
▁stret	-8749
iscient	-8750
▁Contin	-8751
▁desert	-8752
▁google	-8753
▁gospel	-8754
▁settle	-8755
▁Lebanon	-8756
▁decline	-8757
▁divorce	-8758
▁unusual	-8759
▁apostles	-8760
▁attorney	-8761
▁duration	-8762
▁honestly	-8763
▁opinions	-8764
▁sections	-8765
▁warnings	-8766
▁investing	-8767
▁motorcycle	-8768
▁techniques	-8769
▁commandment	-8770
▁cryptocurrency	-8771
ki	-8772
▁{	-8773
enda	-8774
oral	-8775
elect	-8776
icted	-8777
ighth	-8778
oming	-8779
▁LOVE	-8780
▁drag	-8781
▁ende	-8782
▁plot	-8783
▁Order	-8784
▁Direct	-8785
▁Martin	-8786
▁buyers	-8787
▁config	-8788
▁treaty	-8789
friendly	-8790
▁assured	-8791
▁pointed	-8792
▁printed	-8793
▁Citizens	-8794
▁attempts	-8795
▁believer	-8796
▁concepts	-8797
▁upcoming	-8798
▁Initially	-8799
▁falsehood	-8800
▁instrument	-8801
▁structures	-8802
▁enterprises	-8803
▁technological	-8804
▁3,	-8805
outs	-8806
▁20.	-8807
▁250	-8808
▁FDA	-8809
▁Hur	-8810
▁Pra	-8811
▁Tag	-8812
▁URL	-8813
▁sle	-8814
chers	-8815
essel	-8816
ounce	-8817
point	-8818
▁poly	-8819
▁pool	-8820
▁puts	-8821
▁Award	-8822
▁Below	-8823
▁Hotel	-8824
▁Psalm	-8825
▁Truly	-8826
▁Youth	-8827
▁bleed	-8828
▁weird	-8829
▁ethnic	-8830
▁inject	-8831
▁persec	-8832
▁phrase	-8833
▁sorrow	-8834
▁Genesis	-8835
▁Prayers	-8836
▁consume	-8837
▁curious	-8838
▁cultures	-8839
▁resolved	-8840
▁evolution	-8841
▁collective	-8842
▁acknowledge	-8843
▁grandfather	-8844
▁organisations	-8845
0)	-8846
8%	-8847
za	-8848
afe	-8849
cts	-8850
▁(5	-8851
▁47	-8852
▁Py	-8853
▁Imm	-8854
aints	-8855
▁Camp	-8856
▁Hard	-8857
▁Made	-8858
▁Oper	-8859
▁2007.	-8860
▁Rober	-8861
▁roles	-8862
▁ships	-8863
initely	-8864
iolence	-8865
ocolate	-8866
▁Common	-8867
▁agrees	-8868
▁astray	-8869
▁harder	-8870
▁Chicago	-8871
▁Working	-8872
▁Olympics	-8873
▁dreaming	-8874
▁holidays	-8875
▁interpre	-8876
▁abandoned	-8877
▁perfectly	-8878
▁complained	-8879
▁controvers	-8880
▁disappeared	-8881
▁civilization	-8882
HT	-8883
Get	-8884
star	-8885
uous	-8886
▁Sik	-8887
▁Ult	-8888
▁Said	-8889
▁deed	-8890
▁Faith	-8891
▁conqu	-8892
▁loyal	-8893
▁endeav	-8894
▁pursue	-8895
▁retire	-8896
▁smooth	-8897
▁Meaning	-8898
▁Overall	-8899
▁assault	-8900
▁Millions	-8901
▁departed	-8902
▁superior	-8903
▁contained	-8904
▁purchases	-8905
▁reduction	-8906
▁regulatory	-8907
▁vegetables	-8908
▁limitations	-8909
24	-8910
po	-8911
iat	-8912
▁65	-8913
hell	-8914
iate	-8915
ller	-8916
▁HIV	-8917
▁egg	-8918
▁scr	-8919
lette	-8920
▁(200	-8921
▁2005	-8922
▁Evil	-8923
▁Vict	-8924
▁obst	-8925
▁rose	-8926
rishna	-8927
▁Maria	-8928
▁Title	-8929
▁aspir	-8930
▁wides	-8931
▁asylum	-8932
▁invent	-8933
▁league	-8934
▁tattoo	-8935
▁enabled	-8936
▁wonders	-8937
▁Catholic	-8938
vironments	-8939
▁districts	-8940
▁helicopter	-8941
▁statistics	-8942
Co	-8943
vin	-8944
▁$5	-8945
▁("	-8946
atis	-8947
▁Hit	-8948
▁Hum	-8949
▁eld	-8950
▁tim	-8951
ailed	-8952
▁Same	-8953
▁Sell	-8954
▁lamp	-8955
▁roof	-8956
▁sand	-8957
active	-8958
▁Labor	-8959
▁Excell	-8960
▁clouds	-8961
▁spokes	-8962
▁Pacific	-8963
▁fifteen	-8964
▁surgery	-8965
▁Agricult	-8966
▁Independ	-8967
▁controls	-8968
▁searches	-8969
▁Customers	-8970
▁Democrats	-8971
▁analytics	-8972
▁elsewhere	-8973
▁passenger	-8974
▁discussions	-8975
▁representation	-8976
Tr	-8977
och	-8978
org	-8979
ota	-8980
sts	-8981
zhe	-8982
▁..	-8983
arat	-8984
▁190	-8985
▁60%	-8986
▁Ham	-8987
▁Mot	-8988
▁Pun	-8989
▁Set	-8990
▁env	-8991
▁una	-8992
▁Saul	-8993
▁liqu	-8994
▁suit	-8995
▁urge	-8996
icking	-8997
▁Eight	-8998
▁domin	-8999
▁horiz	-9000
▁mixed	-9001
▁ruled	-9002
▁Govern	-9003
▁habits	-9004
▁reveals	-9005
▁Industry	-9006
▁sessions	-9007
▁stealing	-9008
▁abilities	-9009
▁continent	-9010
▁compliance	-9011
▁unexpected	-9012
▁constitutional	-9013
▁Ms	-9014
onia	-9015
estly	-9016
lined	-9017
▁Cert	-9018
▁Mult	-9019
▁Nice	-9020
▁Phys	-9021
▁maps	-9022
▁sits	-9023
rating	-9024
▁Looks	-9025
▁cheap	-9026
▁mayor	-9027
▁metro	-9028
▁souls	-9029
▁stays	-9030
unction	-9031
▁Behold	-9032
▁advent	-9033
▁mining	-9034
▁signal	-9035
outheast	-9036
▁indicates	-9037
▁injustice	-9038
▁attempting	-9039
▁consistent	-9040
▁discussing	-9041
▁questioned	-9042
▁tremendous	-9043
▁widespread	-9044
▁permanently	-9045
▁transferred	-9046
▁#1	-9047
Tell	-9048
iano	-9049
▁24/	-9050
▁tid	-9051
Which	-9052
ashed	-9053
ceeds	-9054
oston	-9055
vable	-9056
versi	-9057
▁bold	-9058
▁tens	-9059
ensity	-9060
▁Brown	-9061
▁antib	-9062
▁Sports	-9063
▁healed	-9064
▁judges	-9065
▁visits	-9066
▁voices	-9067
▁Climate	-9068
▁Getting	-9069
▁Tourism	-9070
▁checked	-9071
▁funding	-9072
▁imports	-9073
▁scooter	-9074
▁algorithm	-9075
▁ancestors	-9076
▁copyright	-9077
▁encounter	-9078
▁continuing	-9079
▁networking	-9080
▁vulnerable	-9081
▁Nonetheless	-9082
▁intelligent	-9083
▁environments	-9084
▁introduction	-9085
Me	-9086
iy	-9087
cuit	-9088
emen	-9089
▁Bec	-9090
▁Mum	-9091
▁hunt	-9092
▁soil	-9093
anches	-9094
▁2007,	-9095
▁Often	-9096
▁curse	-9097
▁label	-9098
zheimer	-9099
▁Transl	-9100
▁crimes	-9101
▁publis	-9102
hematics	-9103
▁Cricket	-9104
▁Quality	-9105
▁bicycle	-9106
▁dynamic	-9107
▁healing	-9108
▁therapy	-9109
▁adequate	-9110
▁argument	-9111
▁breaking	-9112
▁educated	-9113
▁pleasant	-9114
▁Democracy	-9115
▁inclusive	-9116
▁affordable	-9117
▁provisions	-9118
▁regardless	-9119
PC	-9120
TC	-9121
hy	-9122
ato	-9123
▁4:	-9124
▁Ext	-9125
▁Yah	-9126
▁odd	-9127
build	-9128
ultan	-9129
▁Eliz	-9130
▁Wall	-9131
▁Were	-9132
▁vend	-9133
ortion	-9134
▁Saint	-9135
▁drawn	-9136
▁panel	-9137
▁poker	-9138
▁revol	-9139
oulette	-9140
▁Angels	-9141
▁Fourth	-9142
▁Jewish	-9143
▁assemb	-9144
▁fairly	-9145
▁famine	-9146
▁hiding	-9147
▁pounds	-9148
▁ruling	-9149
osterone	-9150
▁Example	-9151
▁Fucking	-9152
▁darling	-9153
▁arriving	-9154
▁equipped	-9155
▁ministers	-9156
▁recording	-9157
▁Conditions	-9158
▁describing	-9159
▁recognised	-9160
▁consideration	-9161
TS	-9162
pel	-9163
▁Ha	-9164
With	-9165
ttes	-9166
west	-9167
xbet	-9168
▁Far	-9169
▁Low	-9170
▁Nic	-9171
▁WIC	-9172
erted	-9173
▁dogs	-9174
▁rejo	-9175
Behold	-9176
▁EVERY	-9177
▁Irish	-9178
▁Share	-9179
▁cease	-9180
▁grows	-9181
▁Nearly	-9182
▁attain	-9183
▁ingred	-9184
▁vessel	-9185
ffective	-9186
▁Iranian	-9187
▁Parents	-9188
▁lawyers	-9189
▁locally	-9190
▁recruit	-9191
▁Download	-9192
▁Egyptian	-9193
▁Princess	-9194
▁Speaking	-9195
▁creature	-9196
▁discoura	-9197
▁iniquity	-9198
▁Political	-9199
▁cancelled	-9200
▁liability	-9201
▁secretary	-9202
▁engagement	-9203
2:	-9204
FP	-9205
Re	-9206
ERE	-9207
▁Rs	-9208
herd	-9209
▁Got	-9210
▁Mur	-9211
cuses	-9212
issed	-9213
▁$100	-9214
▁Move	-9215
▁tack	-9216
▁2009,	-9217
▁Judge	-9218
▁drank	-9219
adition	-9220
versial	-9221
▁Eating	-9222
▁acquis	-9223
▁cousin	-9224
ordinary	-9225
▁Culture	-9226
▁analyze	-9227
▁theatre	-9228
igarettes	-9229
▁ancients	-9230
▁deceased	-9231
▁terminal	-9232
▁activists	-9233
▁eliminate	-9234
▁terrorist	-9235
▁functional	-9236
▁governance	-9237
▁productivity	-9238
▁Righteousness	-9239
▁certification	-9240
▁consciousness	-9241
▁=	-9242
REE	-9243
▁AD	-9244
▁Atl	-9245
▁Lim	-9246
▁asc	-9247
▁fab	-9248
athan	-9249
chain	-9250
peror	-9251
ulous	-9252
▁Navy	-9253
▁Safe	-9254
▁horr	-9255
▁reop	-9256
▁tail	-9257
▁tall	-9258
ankind	-9259
▁Jammu	-9260
▁dealt	-9261
▁insec	-9262
▁sizes	-9263
▁Hebrew	-9264
▁embarr	-9265
▁loaded	-9266
▁worksh	-9267
▁Natural	-9268
▁Ronaldo	-9269
▁islands	-9270
▁madness	-9271
▁diabetes	-9272
▁forecast	-9273
▁somewhat	-9274
▁Alzheimer	-9275
▁responses	-9276
▁collecting	-9277
LD	-9278
RC	-9279
def	-9280
ket	-9281
▁AI	-9282
▁ME	-9283
good	-9284
mand	-9285
ouch	-9286
rack	-9287
abeth	-9288
icken	-9289
▁2004	-9290
▁Eyes	-9291
▁arts	-9292
▁dust	-9293
profit	-9294
▁Henry	-9295
▁adopt	-9296
▁cance	-9297
▁guilt	-9298
▁pitch	-9299
▁skill	-9300
▁Colomb	-9301
▁divide	-9302
▁muscle	-9303
▁wasted	-9304
▁adverse	-9305
▁Buddhism	-9306
▁Judgment	-9307
▁acquired	-9308
▁distinct	-9309
▁Francisco	-9310
▁chemicals	-9311
▁developer	-9312
▁Messengers	-9313
▁considerable	-9314
-8	-9315
jo	-9316
met	-9317
nab	-9318
oor	-9319
▁Kh	-9320
▁15.	-9321
▁Mic	-9322
▁cro	-9323
month	-9324
▁elim	-9325
preced	-9326
▁dread	-9327
▁hesit	-9328
▁saves	-9329
▁tower	-9330
raction	-9331
▁Intell	-9332
▁dealer	-9333
▁guards	-9334
▁regime	-9335
▁wilder	-9336
quarters	-9337
▁Charles	-9338
▁Georgia	-9339
▁default	-9340
▁discrim	-9341
▁quietly	-9342
▁coverage	-9343
▁prisoner	-9344
▁achieving	-9345
▁travelers	-9346
precedented	-9347
▁assessment	-9348
▁interaction	-9349
▁investments	-9350
▁uncertainty	-9351
!'	-9352
7%	-9353
sa	-9354
TML	-9355
▁51	-9356
icks	-9357
uilt	-9358
▁Cop	-9359
▁Ren	-9360
▁haz	-9361
▁Week	-9362
▁batt	-9363
▁rein	-9364
▁shar	-9365
▁yout	-9366
olitan	-9367
urable	-9368
▁colon	-9369
▁tight	-9370
osystem	-9371
▁powder	-9372
▁verify	-9373
Everyone	-9374
▁Content	-9375
▁Richard	-9376
▁closest	-9377
▁founder	-9378
▁immense	-9379
▁privile	-9380
▁raising	-9381
▁Festival	-9382
▁counting	-9383
▁imprison	-9384
▁outbreak	-9385
▁preserve	-9386
▁treasures	-9387
▁productive	-9388
▁wilderness	-9389
▁compensation	-9390
cut	-9391
ora	-9392
war	-9393
▁4,	-9394
▁Kn	-9395
abad	-9396
vity	-9397
▁gam	-9398
▁hel	-9399
▁ven	-9400
iture	-9401
mates	-9402
▁Days	-9403
▁cave	-9404
▁crop	-9405
▁epid	-9406
▁fors	-9407
▁info	-9408
▁whis	-9409
▁wins	-9410
▁Clear	-9411
▁crash	-9412
▁trail	-9413
iminals	-9414
▁entity	-9415
▁intent	-9416
▁laughs	-9417
▁varies	-9418
▁Austria	-9419
▁breathe	-9420
▁comprom	-9421
▁reforms	-9422
▁applying	-9423
▁disagree	-9424
▁producer	-9425
▁truthful	-9426
▁Transport	-9427
▁applicant	-9428
▁indicated	-9429
▁capability	-9430
▁completing	-9431
▁controversial	-9432
:24	-9433
ila	-9434
lar	-9435
sed	-9436
▁Iv	-9437
▁Li	-9438
ille	-9439
▁120	-9440
▁Dal	-9441
▁Kar	-9442
▁shr	-9443
Allah	-9444
celer	-9445
pherd	-9446
▁Fish	-9447
▁Kath	-9448
▁Yoga	-9449
▁exha	-9450
▁grad	-9451
▁pron	-9452
lihood	-9453
stairs	-9454
▁2006,	-9455
▁discl	-9456
▁fired	-9457
▁sword	-9458
▁toler	-9459
ulating	-9460
▁Boston	-9461
▁Unlike	-9462
▁adding	-9463
▁enjoys	-9464
▁lowest	-9465
▁Private	-9466
▁reserve	-9467
▁speaker	-9468
▁detained	-9469
▁indirect	-9470
▁integral	-9471
▁migrants	-9472
▁medicines	-9473
▁socialism	-9474
▁celebrating	-9475
▁trustworthy	-9476
AF	-9477
asy	-9478
iva	-9479
▁72	-9480
such	-9481
▁Beh	-9482
▁Eve	-9483
▁Ill	-9484
▁Jeh	-9485
▁Pos	-9486
▁Tre	-9487
ouble	-9488
▁HTML	-9489
▁Mind	-9490
▁Supp	-9491
▁Wake	-9492
Surely	-9493
rolled	-9494
▁dared	-9495
atories	-9496
instein	-9497
▁Around	-9498
▁guided	-9499
▁headed	-9500
▁inquir	-9501
▁transf	-9502
▁verses	-9503
▁Krishna	-9504
▁Student	-9505
▁editing	-9506
▁farming	-9507
▁precise	-9508
▁proport	-9509
▁temples	-9510
▁Consider	-9511
▁Exchange	-9512
▁laughter	-9513
▁southern	-9514
▁complaints	-9515
▁guaranteed	-9516
▁meaningful	-9517
▁specialist	-9518
▁statements	-9519
▁immigration	-9520
▁medications	-9521
70	-9522
net	-9523
acco	-9524
ario	-9525
pted	-9526
××××	-9527
▁Fif	-9528
▁Koh	-9529
ishes	-9530
▁Conn	-9531
▁View	-9532
▁2006.	-9533
▁acted	-9534
▁alleg	-9535
▁ambit	-9536
▁inner	-9537
▁lasts	-9538
▁shine	-9539
▁theft	-9540
▁utter	-9541
chester	-9542
istance	-9543
▁Trying	-9544
▁cattle	-9545
▁delete	-9546
▁thrown	-9547
▁Against	-9548
▁Express	-9549
▁Finance	-9550
▁heavily	-9551
▁visitor	-9552
▁Nepalese	-9553
▁warranty	-9554
▁cooperate	-9555
▁literally	-9556
▁mandatory	-9557
▁specified	-9558
▁travelled	-9559
▁biological	-9560
PN	-9561
▁"'	-9562
▁ly	-9563
date	-9564
hips	-9565
▁(4)	-9566
▁40%	-9567
▁LLC	-9568
▁Tri	-9569
▁shy	-9570
▁dram	-9571
▁flat	-9572
▁reun	-9573
illion	-9574
▁2021.	-9575
▁Metro	-9576
▁alarm	-9577
▁clock	-9578
▁ruler	-9579
▁spons	-9580
▁tribe	-9581
▁Respon	-9582
▁blamed	-9583
▁bottle	-9584
▁Doctors	-9585
▁Similar	-9586
▁anticip	-9587
▁females	-9588
▁targets	-9589
▁Einstein	-9590
▁colleges	-9591
▁imported	-9592
▁innocent	-9593
▁managers	-9594
▁Hereafter	-9595
▁certified	-9596
▁phenomenon	-9597
▁priorities	-9598
▁examination	-9599
▁contemporary	-9600
▁disappointment	-9601
BI	-9602
CS	-9603
▁iP	-9604
igen	-9605
lers	-9606
page	-9607
▁coin	-9608
▁inev	-9609
idency	-9610
uesday	-9611
▁arise	-9612
▁grass	-9613
▁index	-9614
▁ratio	-9615
▁passes	-9616
▁Majesty	-9617
▁cleaned	-9618
▁staring	-9619
▁violent	-9620
▁Apostles	-9621
▁graphics	-9622
▁mentally	-9623
▁behaviour	-9624
▁programmes	-9625
▁commitments	-9626
▁instruments	-9627
19	-9628
EP	-9629
ae	-9630
hai	-9631
urb	-9632
hend	-9633
requ	-9634
▁Cat	-9635
▁Eye	-9636
▁Moh	-9637
▁SAR	-9638
andom	-9639
asion	-9640
ucker	-9641
▁Wife	-9642
▁cust	-9643
liness	-9644
stream	-9645
▁sells	-9646
▁walls	-9647
ictions	-9648
▁Bengal	-9649
▁Summit	-9650
▁actors	-9651
▁hosted	-9652
▁styles	-9653
▁unjust	-9654
▁Leaders	-9655
▁Railway	-9656
▁acquire	-9657
▁contest	-9658
▁figured	-9659
▁plugins	-9660
▁shipped	-9661
▁symbols	-9662
▁Almighty	-9663
▁bestowed	-9664
▁branches	-9665
▁captured	-9666
▁governed	-9667
▁uploaded	-9668
▁ambitious	-9669
▁ecosystem	-9670
▁reactions	-9671
▁authorized	-9672
▁boundaries	-9673
▁controversy	-9674
!.	-9675
▁18.	-9676
▁Die	-9677
▁Gos	-9678
▁Hig	-9679
▁Lee	-9680
▁Thy	-9681
amber	-9682
igate	-9683
imals	-9684
ostle	-9685
▁Face	-9686
▁alle	-9687
▁Greet	-9688
▁Hindi	-9689
▁Level	-9690
▁Phone	-9691
▁bitch	-9692
▁dozen	-9693
▁fires	-9694
▁marks	-9695
▁walks	-9696
▁Safety	-9697
▁humble	-9698
▁phases	-9699
▁ranked	-9700
▁shadow	-9701
▁titles	-9702
▁Babylon	-9703
▁customs	-9704
▁youtube	-9705
▁Standard	-9706
▁decrease	-9707
▁distress	-9708
▁magazine	-9709
▁reflects	-9710
▁Professor	-9711
▁nationals	-9712
▁qualified	-9713
▁Manchester	-9714
▁unemployed	-9715
▁investigate	-9716
▁smartphones	-9717
▁psychological	-9718
21	-9719
MA	-9720
ILL	-9721
nov	-9722
alin	-9723
ayer	-9724
cket	-9725
link	-9726
▁Jul	-9727
▁mel	-9728
▁spr	-9729
India	-9730
aning	-9731
▁epis	-9732
▁owns	-9733
agraph	-9734
▁Osaka	-9735
▁Teach	-9736
▁Using	-9737
▁miner	-9738
▁sorts	-9739
▁spare	-9740
ailable	-9741
▁Forces	-9742
▁mosque	-9743
▁silver	-9744
▁Ancient	-9745
▁derived	-9746
▁failing	-9747
▁rebuild	-9748
▁summary	-9749
▁horrible	-9750
▁explosion	-9751
▁Forgiveness	-9752
▁grandmother	-9753
▁inheritance	-9754
▁chastisement	-9755
▁unprecedented	-9756
LS	-9757
imm	-9758
loc	-9759
▁ES	-9760
▁pa	-9761
Just	-9762
Take	-9763
erer	-9764
comes	-9765
maker	-9766
▁Body	-9767
▁Drug	-9768
▁Feel	-9769
▁Less	-9770
▁pard	-9771
utical	-9772
▁Sweet	-9773
▁explo	-9774
▁filed	-9775
llywood	-9776
▁buried	-9777
▁facult	-9778
▁festiv	-9779
▁ignore	-9780
▁rebell	-9781
▁disrupt	-9782
▁genetic	-9783
▁chairman	-9784
▁painting	-9785
▁Different	-9786
▁authentic	-9787
▁commented	-9788
▁protector	-9789
▁Understand	-9790
▁classified	-9791
▁arbitration	-9792
▁descendants	-9793
dep	-9794
iop	-9795
sey	-9796
▁WE	-9797
Does	-9798
eras	-9799
▁$10	-9800
▁Sit	-9801
▁Tor	-9802
▁bul	-9803
oning	-9804
otion	-9805
▁Josh	-9806
▁edit	-9807
outube	-9808
▁Close	-9809
▁Grace	-9810
▁Signs	-9811
▁Sodom	-9812
▁Words	-9813
▁paris	-9814
▁wheel	-9815
▁Wisdom	-9816
▁convey	-9817
▁defeat	-9818
▁detect	-9819
▁killer	-9820
▁relate	-9821
▁spaces	-9822
▁carries	-9823
▁cooking	-9824
▁exalted	-9825
▁Marriage	-9826
▁canceled	-9827
▁preached	-9828
▁searched	-9829
▁talented	-9830
▁communist	-9831
▁scattered	-9832
▁Industrial	-9833
▁infections	-9834
▁responding	-9835
▁association	-9836
▁nationality	-9837
▁respondents	-9838
▁undoubtedly	-9839
3%	-9840
II	-9841
:23	-9842
isa	-9843
▁52	-9844
▁54	-9845
Here	-9846
pool	-9847
udes	-9848
▁Bob	-9849
▁Deb	-9850
▁sib	-9851
▁voc	-9852
▁Hung	-9853
▁Mama	-9854
▁Vill	-9855
▁stab	-9856
ouring	-9857
▁ranks	-9858
▁recon	-9859
ciences	-9860
▁Proper	-9861
▁graves	-9862
▁palace	-9863
▁thirst	-9864
▁Contact	-9865
▁Jackson	-9866
▁Mission	-9867
▁Worship	-9868
▁declare	-9869
▁heating	-9870
▁renewed	-9871
▁supreme	-9872
▁upgrade	-9873
▁declined	-9874
▁stranger	-9875
▁supplied	-9876
▁Elizabeth	-9877
▁Ministers	-9878
▁Southeast	-9879
▁chocolate	-9880
▁depression	-9881
▁exceptions	-9882
▁AC	-9883
▁Ak	-9884
arma	-9885
ikes	-9886
▁Bor	-9887
▁Dar	-9888
▁row	-9889
arest	-9890
erman	-9891
▁Dest	-9892
▁Java	-9893
▁Mand	-9894
▁bots	-9895
licted	-9896
▁Carol	-9897
▁Shang	-9898
▁beast	-9899
▁craft	-9900
▁daddy	-9901
▁disob	-9902
▁parks	-9903
▁paths	-9904
ighters	-9905
▁Morocc	-9906
▁Sister	-9907
▁assass	-9908
▁decent	-9909
▁seller	-9910
▁tables	-9911
▁timely	-9912
▁unfair	-9913
▁unfort	-9914
▁Defense	-9915
▁aggress	-9916
▁alleged	-9917
▁emerged	-9918
aceutical	-9919
▁Brothers	-9920
▁annually	-9921
▁reporter	-9922
▁economics	-9923
▁signature	-9924
▁impressive	-9925
▁downloading	-9926
▁functionality	-9927
▁discrimination	-9928
De	-9929
zes	-9930
▁5,	-9931
▁CH	-9932
▁OS	-9933
rise	-9934
▁Adv	-9935
▁Bon	-9936
▁Own	-9937
▁tun	-9938
ching	-9939
mandu	-9940
vious	-9941
▁Hear	-9942
▁bind	-9943
ervous	-9944
▁array	-9945
▁hears	-9946
▁plate	-9947
▁shift	-9948
▁snake	-9949
▁Virgin	-9950
▁guides	-9951
▁prosec	-9952
▁wished	-9953
▁assumed	-9954
▁beaches	-9955
▁destiny	-9956
▁excuses	-9957
▁inspire	-9958
▁museums	-9959
▁reduces	-9960
▁Religion	-9961
▁attracts	-9962
▁disputes	-9963
▁epidemic	-9964
▁substant	-9965
▁advertise	-9966
▁confusion	-9967
▁completion	-9968
▁connections	-9969
▁financially	-9970
▁humanitarian	-9971
▁conversations	-9972
▁interpretation	-9973
18	-9974
GO	-9975
PE	-9976
RI	-9977
nty	-9978
▁FS	-9979
▁MY	-9980
▁Ug	-9981
five	-9982
▁AND	-9983
▁Sab	-9984
Peace	-9985
acter	-9986
inder	-9987
▁Lady	-9988
▁Room	-9989
▁Walk	-9990
▁guns	-9991
rators	-9992
▁5,000	-9993
▁Enjoy	-9994
▁crown	-9995
▁lists	-9996
▁screw	-9997
▁slots	-9998
▁smell	-9999
▁verse	-10000
▁Region	-10001
▁defect	-10002
▁drawing	-10003
▁embassy	-10004
▁handled	-10005
▁largely	-10006
▁exported	-10007
▁printing	-10008
▁assistant	-10009
▁struggled	-10010
▁automation	-10011
▁designated	-10012
▁traditions	-10013
▁coordination	-10014
5]	-10015
can	-10016
des	-10017
fol	-10018
▁56	-10019
▁HD	-10020
▁Sn	-10021
apes	-10022
ayed	-10023
iana	-10024
okia	-10025
achel	-10026
bably	-10027
▁Decl	-10028
▁Lion	-10029
▁Team	-10030
▁bite	-10031
▁folk	-10032
▁keys	-10033
▁menu	-10034
ounced	-10035
lements	-10036
▁Samuel	-10037
▁hardly	-10038
▁salary	-10039
▁Process	-10040
▁Schools	-10041
▁Tuesday	-10042
▁Various	-10043
▁acceler	-10044
▁stepped	-10045
▁Consumer	-10046
▁Products	-10047
▁Suitable	-10048
▁disabled	-10049
▁disputed	-10050
government	-10051
▁destroying	-10052
BT	-10053
-10	-10054
GIS	-10055
Rem	-10056
ela	-10057
ico	-10058
ican	-10059
ults	-10060
▁15,	-10061
▁CEO	-10062
▁Imp	-10063
▁Los	-10064
▁USB	-10065
After	-10066
aping	-10067
essed	-10068
guard	-10069
ijing	-10070
▁Eric	-10071
▁GDPR	-10072
▁tons	-10073
soever	-10074
▁Blood	-10075
▁Sudan	-10076
▁climb	-10077
▁defic	-10078
▁energ	-10079
▁hired	-10080
▁overt	-10081
Nothing	-10082
▁Anyway	-10083
▁ceased	-10084
▁nurses	-10085
▁oppose	-10086
▁cutting	-10087
▁hormone	-10088
▁rescued	-10089
▁tidings	-10090
▁unhappy	-10091
ropolitan	-10092
▁accuracy	-10093
▁apparent	-10094
▁covering	-10095
▁geograph	-10096
▁husbands	-10097
▁accidents	-10098
▁physician	-10099
▁predicted	-10100
▁scripture	-10101
▁tournament	-10102
▁unfortunate	-10103
Le	-10104
dis	-10105
orr	-10106
ras	-10107
▁4)	-10108
▁SH	-10109
look	-10110
vada	-10111
▁14.	-10112
▁Ari	-10113
▁Bab	-10114
▁LOT	-10115
▁Ton	-10116
acing	-10117
ignty	-10118
llers	-10119
pered	-10120
▁..."	-10121
▁Ange	-10122
▁adds	-10123
▁cogn	-10124
▁plus	-10125
▁sang	-10126
Father	-10127
▁Ocean	-10128
▁monit	-10129
▁reass	-10130
▁Coming	-10131
▁alumin	-10132
▁finger	-10133
▁marked	-10134
▁obeyed	-10135
▁subsid	-10136
▁Married	-10137
▁Neither	-10138
▁Youtube	-10139
▁nervous	-10140
▁elephant	-10141
▁governor	-10142
▁hardship	-10143
▁reminder	-10144
▁speakers	-10145
▁updating	-10146
▁affecting	-10147
▁operators	-10148
▁teachings	-10149
▁prevention	-10150
▁supporters	-10151
▁worshipped	-10152
▁acknowledged	-10153
▁temperatures	-10154
CA	-10155
▁ED	-10156
eter	-10157
ords	-10158
orld	-10159
real	-10160
▁16.	-10161
▁Nar	-10162
▁OEM	-10163
▁Pen	-10164
ambod	-10165
liest	-10166
▁Dark	-10167
▁Fast	-10168
▁Sabb	-10169
▁Stat	-10170
▁coup	-10171
▁palm	-10172
▁Croat	-10173
▁camps	-10174
▁needy	-10175
▁ports	-10176
▁upper	-10177
▁illust	-10178
▁perpet	-10179
▁string	-10180
▁Beijing	-10181
▁beliefs	-10182
▁bonuses	-10183
▁contrad	-10184
▁dressed	-10185
▁evolved	-10186
▁Countries	-10187
▁answering	-10188
▁nutrition	-10189
▁processed	-10190
▁companions	-10191
▁connecting	-10192
▁internally	-10193
▁mysterious	-10194
▁volunteers	-10195
▁Coronavirus	-10196
▁aspirations	-10197
▁differently	-10198
▁discouraged	-10199
.:	-10200
awa	-10201
esh	-10202
ulg	-10203
uss	-10204
wed	-10205
▁GO	-10206
▁Lic	-10207
▁Sky	-10208
▁jet	-10209
inity	-10210
▁1950	-10211
▁Indo	-10212
▁Pros	-10213
▁icon	-10214
▁peak	-10215
▁semi	-10216
▁subt	-10217
▁Sound	-10218
▁borne	-10219
▁hoped	-10220
because	-10221
▁Awards	-10222
▁invite	-10223
American	-10224
▁Problem	-10225
▁crossed	-10226
▁greeted	-10227
▁employed	-10228
▁licenses	-10229
▁midnight	-10230
▁slightly	-10231
▁Important	-10232
▁assembled	-10233
▁demanding	-10234
▁exchanges	-10235
▁monitored	-10236
▁regulation	-10237
▁surrounding	-10238
▁unnecessary	-10239
▁consultation	-10240
▁independently	-10241
BS	-10242
IDS	-10243
Man	-10244
Rom	-10245
▁Pe	-10246
agon	-10247
▁Equ	-10248
▁Fly	-10249
▁Tay	-10250
▁rus	-10251
otive	-10252
table	-10253
▁Orig	-10254
▁hire	-10255
lessly	-10256
▁Scott	-10257
▁brill	-10258
▁eager	-10259
▁spite	-10260
▁sugar	-10261
▁templ	-10262
▁yield	-10263
▁Afraid	-10264
▁Author	-10265
▁Forest	-10266
▁Nation	-10267
▁Treaty	-10268
▁fucked	-10269
▁obstac	-10270
▁Charlie	-10271
▁Respect	-10272
▁airline	-10273
▁implies	-10274
▁talents	-10275
▁confused	-10276
▁strictly	-10277
▁Kathmandu	-10278
▁contacted	-10279
▁designers	-10280
▁economies	-10281
▁resulting	-10282
▁socialist	-10283
▁streaming	-10284
▁Thankfully	-10285
▁creativity	-10286
▁revelation	-10287
▁Palestinian	-10288
▁operational	-10289
▁preferences	-10290
▁improvements	-10291
▁manufactured	-10292
aha	-10293
eda	-10294
run	-10295
why	-10296
Good	-10297
name	-10298
your	-10299
ascus	-10300
think	-10301
▁Town	-10302
▁abol	-10303
▁caut	-10304
▁craw	-10305
▁grab	-10306
▁ruin	-10307
▁yell	-10308
▁Nokia	-10309
▁cries	-10310
▁embra	-10311
▁harsh	-10312
igenous	-10313
▁Cambod	-10314
▁Labour	-10315
▁crypto	-10316
▁openly	-10317
▁Animals	-10318
▁cameras	-10319
▁filters	-10320
▁migrant	-10321
▁phrases	-10322
▁realise	-10323
▁billions	-10324
▁Certainly	-10325
▁designing	-10326
▁geography	-10327
▁principal	-10328
▁blockchain	-10329
▁excellence	-10330
▁mechanical	-10331
▁experiments	-10332
▁researching	-10333
▁Resurrection	-10334
▁extraordinary	-10335
▁identification	-10336
6]	-10337
Am	-10338
rig	-10339
uce	-10340
▁77	-10341
List	-10342
Okay	-10343
aido	-10344
iffs	-10345
zech	-10346
▁Abu	-10347
▁Bro	-10348
▁ISO	-10349
▁Max	-10350
▁ONE	-10351
▁dos	-10352
redit	-10353
▁Farm	-10354
▁Lost	-10355
▁alph	-10356
▁sust	-10357
contin	-10358
▁Sarah	-10359
▁Short	-10360
▁hurry	-10361
▁tenth	-10362
through	-10363
▁Chrome	-10364
▁anonym	-10365
▁fabric	-10366
▁legend	-10367
▁sinful	-10368
▁Embassy	-10369
▁Sabbath	-10370
▁eastern	-10371
▁parking	-10372
▁pleases	-10373
▁routine	-10374
▁sinners	-10375
▁viewing	-10376
▁Election	-10377
▁imagined	-10378
▁misunder	-10379
▁Regarding	-10380
▁arguments	-10381
▁incorrect	-10382
▁neighbors	-10383
▁omniscient	-10384
▁Corporation	-10385
▁contributes	-10386
▁highlighted	-10387
▁confidential	-10388
▁parliamentary	-10389
▁recommendation	-10390
17	-10391
RA	-10392
TP	-10393
?...	-10394
alms	-10395
alog	-10396
▁Kat	-10397
▁Pan	-10398
▁lux	-10399
▁org	-10400
olved	-10401
▁seal	-10402
▁trig	-10403
▁vari	-10404
ashing	-10405
ealous	-10406
▁Benef	-10407
▁Czech	-10408
▁cared	-10409
▁chest	-10410
▁hurts	-10411
limited	-10412
▁Taking	-10413
▁cultiv	-10414
▁firmly	-10415
▁judged	-10416
▁societ	-10417
iverpool	-10418
▁Belarus	-10419
▁Corinth	-10420
▁accepts	-10421
▁replies	-10422
▁richest	-10423
▁Airlines	-10424
▁Damascus	-10425
▁Shanghai	-10426
▁barriers	-10427
▁browsers	-10428
▁emerging	-10429
▁impacted	-10430
▁profiles	-10431
▁rewarded	-10432
▁unbelief	-10433
▁Basically	-10434
▁necessity	-10435
▁substance	-10436
▁possession	-10437
▁weaknesses	-10438
▁sovereignty	-10439
▁institutional	-10440
▁knowledgeable	-10441
▁specifications	-10442
Sir	-10443
okk	-10444
▁68	-10445
▁Bi	-10446
alay	-10447
fire	-10448
▁000	-10449
▁180	-10450
▁Tob	-10451
anity	-10452
ifier	-10453
ronic	-10454
▁Them	-10455
▁Vers	-10456
▁amer	-10457
▁cock	-10458
▁fake	-10459
▁fame	-10460
▁mart	-10461
orable	-10462
▁Devil	-10463
▁Mercy	-10464
▁fails	-10465
▁relie	-10466
▁unfor	-10467
▁Resear	-10468
▁mature	-10469
▁valued	-10470
▁Finland	-10471
▁Morning	-10472
▁exports	-10473
▁fasting	-10474
▁fortune	-10475
▁screens	-10476
▁whereas	-10477
▁stopping	-10478
▁Represent	-10479
▁alongside	-10480
▁directors	-10481
▁paragraph	-10482
▁accounting	-10483
-6	-10484
pm	-10485
don	-10486
ena	-10487
pot	-10488
▁CN	-10489
▁Sk	-10490
also	-10491
pers	-10492
roke	-10493
▁95%	-10494
▁Mov	-10495
▁aer	-10496
▁nic	-10497
cling	-10498
scale	-10499
▁Acts	-10500
▁Fail	-10501
▁Hour	-10502
▁Rock	-10503
▁Scot	-10504
▁Serb	-10505
▁legs	-10506
▁recy	-10507
▁stun	-10508
▁stup	-10509
enders	-10510
igence	-10511
inates	-10512
istent	-10513
isting	-10514
urious	-10515
▁Armen	-10516
▁Color	-10517
▁Email	-10518
▁encry	-10519
sterdam	-10520
▁elders	-10521
▁congreg	-10522
▁dangers	-10523
▁horizon	-10524
▁musical	-10525
▁utilize	-10526
▁Teachers	-10527
▁improves	-10528
▁meanings	-10529
▁nowadays	-10530
▁initiated	-10531
▁judgments	-10532
▁complement	-10533
▁exceptional	-10534
▁outstanding	-10535
▁potentially	-10536
▁unbelievable	-10537
oos	-10538
rum	-10539
▁3)	-10540
pent	-10541
rose	-10542
▁Bud	-10543
▁rum	-10544
ormal	-10545
utors	-10546
▁Exec	-10547
▁FREE	-10548
▁NASA	-10549
▁math	-10550
iances	-10551
▁Books	-10552
▁Early	-10553
▁Girls	-10554
▁Kings	-10555
▁Rules	-10556
▁bills	-10557
▁compr	-10558
okkaido	-10559
▁Ethiop	-10560
▁Nevada	-10561
▁Robert	-10562
▁enters	-10563
▁preced	-10564
▁robots	-10565
▁Century	-10566
▁Command	-10567
▁Shouldn	-10568
▁Studies	-10569
▁custody	-10570
▁expects	-10571
▁helpers	-10572
▁strikes	-10573
▁Military	-10574
▁thrilled	-10575
▁Alexander	-10576
▁condemned	-10577
▁landscape	-10578
▁surrounded	-10579
▁Application	-10580
▁constructed	-10581
▁demonstrate	-10582
▁restaurants	-10583
▁specialists	-10584
▁commandments	-10585
▁implementing	-10586
95	-10587
Br	-10588
EST	-10589
Pal	-10590
lad	-10591
▁8,	-10592
aire	-10593
fied	-10594
king	-10595
only	-10596
ople	-10597
▁17.	-10598
▁188	-10599
▁Ell	-10600
▁cos	-10601
▁lit	-10602
▁rig	-10603
ested	-10604
▁Bell	-10605
▁Jeff	-10606
itched	-10607
▁Autom	-10608
▁Guide	-10609
▁boast	-10610
▁outer	-10611
▁Andrew	-10612
▁utmost	-10613
unicipal	-10614
▁Experts	-10615
▁Tibetan	-10616
▁despair	-10617
▁happier	-10618
▁intense	-10619
▁premium	-10620
▁Birthday	-10621
▁Hokkaido	-10622
▁Partners	-10623
▁Southern	-10624
▁adjusted	-10625
▁prophecy	-10626
▁realised	-10627
▁removing	-10628
▁Happiness	-10629
▁conceived	-10630
▁conflicts	-10631
▁criminals	-10632
▁favourite	-10633
▁Competition	-10634
▁Republicans	-10635
▁definitions	-10636
▁interactive	-10637
▁consistently	-10638
?)	-10639
Ad	-10640
OL	-10641
ca	-10642
▁·	-10643
3).	-10644
:31	-10645
bus	-10646
oso	-10647
▁DA	-10648
Will	-10649
user	-10650
vals	-10651
▁$20	-10652
▁Cut	-10653
▁Joe	-10654
▁Ris	-10655
atern	-10656
tical	-10657
▁Esau	-10658
▁Hate	-10659
▁Sche	-10660
▁Visa	-10661
▁pump	-10662
▁tact	-10663
▁wage	-10664
apters	-10665
weight	-10666
▁Simon	-10667
▁absor	-10668
▁cable	-10669
▁hence	-10670
▁rises	-10671
▁waves	-10672
▁Albert	-10673
▁Player	-10674
▁Summer	-10675
▁jumped	-10676
▁motion	-10677
▁seated	-10678
▁themes	-10679
▁cabinet	-10680
▁condemn	-10681
▁critics	-10682
▁enthusi	-10683
▁Congrats	-10684
▁Electric	-10685
▁contacts	-10686
▁organize	-10687
▁outcomes	-10688
▁identical	-10689
▁integrity	-10690
▁recovered	-10691
▁violation	-10692
onstruction	-10693
▁facilitate	-10694
▁Corinthians	-10695
▁acquisition	-10696
▁declaration	-10697
IL	-10698
Pl	-10699
IFA	-10700
axy	-10701
har	-10702
sem	-10703
uis	-10704
acks	-10705
fast	-10706
▁Pot	-10707
▁Rub	-10708
▁mir	-10709
,000.	-10710
China	-10711
elson	-10712
inite	-10713
▁unst	-10714
alling	-10715
eneral	-10716
▁Impro	-10717
▁Kenya	-10718
▁depri	-10719
ishment	-10720
▁Garden	-10721
▁Wonder	-10722
▁agenda	-10723
▁allerg	-10724
▁cleans	-10725
▁golden	-10726
▁horror	-10727
▁sinner	-10728
▁closure	-10729
▁counted	-10730
▁execute	-10731
▁pursued	-10732
▁savings	-10733
▁travels	-10734
▁viewers	-10735
▁foremost	-10736
▁injuries	-10737
▁sympathy	-10738
▁upstairs	-10739
▁Amsterdam	-10740
▁benefited	-10741
▁forbidden	-10742
▁gathering	-10743
▁immigrant	-10744
▁instances	-10745
▁interrupt	-10746
▁postponed	-10747
▁determines	-10748
▁inevitable	-10749
▁performing	-10750
▁protective	-10751
▁Municipality	-10752
▁distinguished	-10753
")	-10754
22	-10755
ho	-10756
ado	-10757
may	-10758
▁(6	-10759
▁57	-10760
▁88	-10761
▁CS	-10762
▁FA	-10763
iner	-10764
▁Ash	-10765
▁Fun	-10766
▁NAD	-10767
▁Sch	-10768
Those	-10769
▁24/7	-10770
▁HERE	-10771
▁salt	-10772
▁sequ	-10773
▁sixt	-10774
▁tied	-10775
eously	-10776
orious	-10777
ources	-10778
▁Innov	-10779
▁abide	-10780
▁accum	-10781
▁depth	-10782
▁drove	-10783
▁laser	-10784
▁repay	-10785
Pacific	-10786
▁Romans	-10787
▁cookie	-10788
▁manual	-10789
▁routes	-10790
speaking	-10791
▁gaining	-10792
▁graphic	-10793
▁profess	-10794
▁segment	-10795
▁Tomorrow	-10796
▁bleeding	-10797
▁checking	-10798
▁contents	-10799
▁Questions	-10800
▁breathing	-10801
▁importing	-10802
▁prospects	-10803
▁comprehend	-10804
▁minorities	-10805
▁efficiently	-10806
▁nonetheless	-10807
▁Organisation	-10808
!!	-10809
mo	-10810
jan	-10811
olf	-10812
▁Ir	-10813
▁ya	-10814
ifer	-10815
obey	-10816
orse	-10817
▁13.	-10818
▁Bol	-10819
▁gri	-10820
▁unp	-10821
Somet	-10822
atial	-10823
icode	-10824
imize	-10825
inton	-10826
pired	-10827
print	-10828
uters	-10829
▁Cold	-10830
▁Cuba	-10831
▁crew	-10832
▁lips	-10833
▁solo	-10834
▁spir	-10835
brance	-10836
▁Alpha	-10837
▁Mayor	-10838
▁bride	-10839
▁enfor	-10840
▁Cities	-10841
▁consec	-10842
▁demons	-10843
▁exempt	-10844
▁implic	-10845
▁perish	-10846
▁Writing	-10847
▁circuit	-10848
▁passage	-10849
▁pushing	-10850
▁rebuilt	-10851
▁Colombia	-10852
▁Training	-10853
▁borrowed	-10854
▁obedient	-10855
▁subscrib	-10856
▁formation	-10857
▁struggles	-10858
▁apologized	-10859
▁calculated	-10860
▁encourages	-10861
▁Researchers	-10862
▁initiatives	-10863
▁possessions	-10864
▁photographer	-10865
▁disappointing	-10866
▁investigating	-10867
//	-10868
CH	-10869
GE	-10870
TO	-10871
sm	-10872
."[	-10873
oll	-10874
rey	-10875
▁Ox	-10876
sile	-10877
▁19.	-10878
▁Ara	-10879
▁Nap	-10880
▁gay	-10881
▁hid	-10882
▁rot	-10883
cific	-10884
oting	-10885
▁dawn	-10886
▁hook	-10887
▁iPad	-10888
▁pipe	-10889
▁scan	-10890
commun	-10891
▁Crime	-10892
▁backs	-10893
▁flour	-10894
▁unite	-10895
▁veter	-10896
comfort	-10897
▁Barack	-10898
▁Credit	-10899
▁assign	-10900
▁athlet	-10901
▁basket	-10902
▁dishes	-10903
▁rating	-10904
▁stared	-10905
▁careers	-10906
▁cheaper	-10907
▁couples	-10908
▁dischar	-10909
▁distort	-10910
▁goddess	-10911
▁arranged	-10912
▁disorder	-10913
▁siblings	-10914
▁winnings	-10915
▁qualities	-10916
▁Agriculture	-10917
▁enforcement	-10918
▁contributing	-10919
▁congratulations	-10920
-7	-10921
eb	-10922
Dad	-10923
egas	-10924
even	-10925
four	-10926
ingo	-10927
▁(5)	-10928
▁Ele	-10929
▁Sug	-10930
▁Typ	-10931
▁ori	-10932
▁vit	-10933
ourse	-10934
rahim	-10935
▁Bern	-10936
▁Poor	-10937
▁golf	-10938
▁grid	-10939
▁2000.	-10940
▁Lucky	-10941
▁blank	-10942
▁delic	-10943
▁demon	-10944
assador	-10945
knowing	-10946
▁Coffee	-10947
▁Source	-10948
Remember	-10949
ications	-10950
▁foolish	-10951
▁imposed	-10952
▁restart	-10953
▁failures	-10954
▁journeys	-10955
▁monetary	-10956
▁Tradition	-10957
▁disorders	-10958
▁spreading	-10959
▁approaches	-10960
▁sacrifices	-10961
▁wrongdoing	-10962
▁mathematics	-10963
▁supermarket	-10964
▁Professional	-10965
▁competitions	-10966
45	-10967
BM	-10968
sk	-10969
00.	-10970
bar	-10971
col	-10972
imp	-10973
spr	-10974
▁EN	-10975
aste	-10976
case	-10977
erry	-10978
hans	-10979
lets	-10980
▁18,	-10981
▁20,	-10982
▁CAN	-10983
▁Naz	-10984
▁Opt	-10985
▁Ord	-10986
▁gro	-10987
isons	-10988
ureau	-10989
▁Sold	-10990
▁Wise	-10991
▁gall	-10992
▁kick	-10993
▁tank	-10994
imedia	-10995
thirds	-10996
▁Kabul	-10997
▁Pregn	-10998
▁Sales	-10999
▁Stock	-11000
▁champ	-11001
▁culpr	-11002
▁deleg	-11003
▁naked	-11004
parents	-11005
▁Advert	-11006
▁awaken	-11007
▁circle	-11008
▁eighth	-11009
▁handed	-11010
▁novels	-11011
▁weaken	-11012
▁Subject	-11013
▁gardens	-11014
▁joining	-11015
▁quarant	-11016
▁relaxed	-11017
▁shelter	-11018
▁formally	-11019
▁modified	-11020
▁Liverpool	-11021
▁accepting	-11022
▁exploring	-11023
▁factories	-11024
▁graduated	-11025
▁libraries	-11026
▁occurring	-11027
▁prominent	-11028
▁provinces	-11029
▁strongest	-11030
▁Eventually	-11031
▁Experience	-11032
▁publishing	-11033
▁disobedient	-11034
▁footballers	-11035
▁territories	-11036
▁conservation	-11037
▁strengthening	-11038
▁communications	-11039
Of	-11040
▁~	-11041
una	-11042
uty	-11043
▁59	-11044
▁6,	-11045
▁66	-11046
▁Ce	-11047
▁KN	-11048
▁MP	-11049
▁SE	-11050
▁Ut	-11051
▁af	-11052
ione	-11053
odus	-11054
sels	-11055
uing	-11056
▁Fru	-11057
▁Tik	-11058
▁USD	-11059
asses	-11060
▁Fair	-11061
▁grie	-11062
▁hind	-11063
Listen	-11064
istant	-11065
▁2021,	-11066
▁Adobe	-11067
▁Fight	-11068
▁bears	-11069
▁exams	-11070
ometown	-11071
▁Double	-11072
▁Server	-11073
▁Simple	-11074
▁dining	-11075
▁forums	-11076
▁raises	-11077
▁random	-11078
Merciful	-11079
▁examine	-11080
▁fingers	-11081
▁hanging	-11082
▁roughly	-11083
▁scratch	-11084
▁signals	-11085
▁Scotland	-11086
▁Starting	-11087
▁insisted	-11088
▁likewise	-11089
▁reserved	-11090
▁sporting	-11091
▁workshop	-11092
▁Executive	-11093
▁memorable	-11094
▁prevented	-11095
▁evaluation	-11096
▁concentrate	-11097
▁demonstrated	-11098
▁compassionate	-11099
.?	-11100
TV	-11101
:38	-11102
add	-11103
aph	-11104
mat	-11105
ura	-11106
zek	-11107
▁1%	-11108
▁64	-11109
▁CC	-11110
▁DC	-11111
lete	-11112
will	-11113
▁Han	-11114
▁Key	-11115
▁Squ	-11116
▁bye	-11117
arity	-11118
ieves	-11119
ioned	-11120
▁2003	-11121
▁Pict	-11122
▁atom	-11123
▁clim	-11124
▁damn	-11125
▁dign	-11126
▁humb	-11127
▁ster	-11128
▁toss	-11129
abling	-11130
iciary	-11131
rected	-11132
▁Legal	-11133
▁Libya	-11134
▁Malta	-11135
▁coins	-11136
▁feast	-11137
▁param	-11138
▁thick	-11139
assment	-11140
atively	-11141
▁Create	-11142
▁Ladies	-11143
▁Luther	-11144
▁Nelson	-11145
▁Norway	-11146
▁refere	-11147
▁replic	-11148
▁tennis	-11149
ountered	-11150
▁disobey	-11151
▁feeding	-11152
▁fitness	-11153
▁liberal	-11154
▁pharmac	-11155
▁skilled	-11156
▁useless	-11157
▁Building	-11158
▁Creation	-11159
▁composed	-11160
▁energies	-11161
▁forsaken	-11162
▁graduate	-11163
▁insights	-11164
▁invested	-11165
▁survived	-11166
▁virtually	-11167
▁explaining	-11168
▁inspection	-11169
▁kilometers	-11170
▁prosperous	-11171
▁reliability	-11172
▁Christianity	-11173
▁conventional	-11174
▁optimization	-11175
▁prescription	-11176
âh	-11177
.."	-11178
ENT	-11179
car	-11180
iox	-11181
▁5:	-11182
▁74	-11183
▁Na	-11184
▁pm	-11185
anes	-11186
anny	-11187
when	-11188
▁186	-11189
▁ARE	-11190
▁Aud	-11191
▁fed	-11192
▁fro	-11193
Would	-11194
crete	-11195
idity	-11196
inter	-11197
organ	-11198
▁Bush	-11199
▁Emer	-11200
▁Matt	-11201
▁Wash	-11202
abolic	-11203
teries	-11204
▁Above	-11205
▁Model	-11206
▁awful	-11207
▁flaws	-11208
▁intim	-11209
▁trump	-11210
▁anyway	-11211
▁astron	-11212
▁desper	-11213
▁empire	-11214
▁excuse	-11215
▁reside	-11216
▁tribes	-11217
ribution	-11218
▁Players	-11219
▁extends	-11220
▁highway	-11221
▁seasons	-11222
▁seekers	-11223
▁washing	-11224
▁estimate	-11225
▁hometown	-11226
▁profound	-11227
▁scenario	-11228
▁treasure	-11229
▁youngest	-11230
▁attending	-11231
▁strengths	-11232
▁addressing	-11233
▁distribute	-11234
▁eliminated	-11235
▁wickedness	-11236
▁encountered	-11237
▁everlasting	-11238
▁marketplace	-11239
▁Metropolitan	-11240
▁geographical	-11241
▁accommodation	-11242
MO	-11243
MP	-11244
Lot	-11245
ker	-11246
▁Ba	-11247
▁MO	-11248
ovah	-11249
seen	-11250
▁11,	-11251
▁Cli	-11252
▁Sus	-11253
▁bug	-11254
Bless	-11255
aired	-11256
aying	-11257
▁2002	-11258
▁Fred	-11259
▁aids	-11260
▁bore	-11261
▁cute	-11262
▁surf	-11263
▁weep	-11264
▁Asked	-11265
▁Point	-11266
▁Singh	-11267
▁Unity	-11268
▁alike	-11269
▁debut	-11270
▁giant	-11271
▁rains	-11272
▁warri	-11273
edience	-11274
▁Linked	-11275
▁Victor	-11276
▁castle	-11277
▁discer	-11278
▁hazard	-11279
▁learnt	-11280
ablished	-11281
▁Angeles	-11282
▁Morocco	-11283
▁abandon	-11284
▁minimal	-11285
▁relates	-11286
connected	-11287
▁Compared	-11288
▁Previous	-11289
▁Property	-11290
▁coaching	-11291
▁deciding	-11292
▁exposure	-11293
▁handling	-11294
▁utilized	-11295
▁addresses	-11296
▁admission	-11297
▁consuming	-11298
▁disasters	-11299
▁enjoyment	-11300
▁multitude	-11301
▁realistic	-11302
▁sanctions	-11303
▁workforce	-11304
▁complexity	-11305
▁vaccinated	-11306
▁withdrawal	-11307
▁essentially	-11308
▁ingredients	-11309
▁overwhelmed	-11310
▁probability	-11311
48	-11312
;)	-11313
eh	-11314
UST	-11315
bal	-11316
oca	-11317
oma	-11318
▁5%	-11319
▁76	-11320
▁EC	-11321
▁Ol	-11322
ESCO	-11323
agan	-11324
bean	-11325
serv	-11326
stal	-11327
▁99%	-11328
▁GIS	-11329
▁Oil	-11330
asure	-11331
sters	-11332
▁Maps	-11333
▁Side	-11334
▁cope	-11335
▁mold	-11336
▁Dance	-11337
▁Doing	-11338
▁Small	-11339
▁Smith	-11340
▁airpl	-11341
▁aston	-11342
▁blast	-11343
retched	-11344
▁accred	-11345
▁backed	-11346
▁scrape	-11347
▁Pradesh	-11348
▁Tonight	-11349
▁blogger	-11350
▁ethical	-11351
▁testify	-11352
▁venture	-11353
▁belonged	-11354
▁disgrace	-11355
▁midfield	-11356
▁cognitive	-11357
▁inequality	-11358
▁passionate	-11359
▁sweetheart	-11360
▁worthwhile	-11361
▁Citizenship	-11362
▁recruitment	-11363
35	-11364
QL	-11365
yn	-11366
omi	-11367
tes	-11368
▁7,	-11369
▁MS	-11370
▁WH	-11371
conf	-11372
rend	-11373
vard	-11374
▁Ain	-11375
▁Won	-11376
onely	-11377
ribly	-11378
ument	-11379
uming	-11380
▁Lama	-11381
▁Mars	-11382
▁Vice	-11383
▁YOUR	-11384
▁bapt	-11385
▁drew	-11386
▁irre	-11387
▁kiss	-11388
itudes	-11389
minute	-11390
people	-11391
▁Allow	-11392
▁Yahoo	-11393
▁Gaming	-11394
▁Island	-11395
▁betray	-11396
▁casual	-11397
▁cursed	-11398
▁relies	-11399
grateful	-11400
security	-11401
▁Systems	-11402
▁easiest	-11403
▁expense	-11404
▁formula	-11405
▁liberty	-11406
▁neglect	-11407
▁physics	-11408
▁unified	-11409
▁Honestly	-11410
▁Probably	-11411
▁dwellers	-11412
▁insecure	-11413
▁musician	-11414
▁festivals	-11415
▁greatness	-11416
▁involving	-11417
▁recipient	-11418
▁admonition	-11419
▁currencies	-11420
▁Declaration	-11421
▁exclusively	-11422
▁laboratories	-11423
By	-11424
!).	-11425
See	-11426
urt	-11427
▁OP	-11428
▁RE	-11429
▁SD	-11430
ache	-11431
rich	-11432
thon	-11433
▁25%	-11434
▁Bay	-11435
▁Exp	-11436
▁Lie	-11437
▁Opp	-11438
▁hub	-11439
▁owe	-11440
▁tip	-11441
eters	-11442
▁1994	-11443
▁Doll	-11444
▁FIFA	-11445
▁lect	-11446
ibbean	-11447
spring	-11448
▁Chall	-11449
▁Incre	-11450
▁Seems	-11451
▁Shiva	-11452
▁alien	-11453
▁persu	-11454
▁shirt	-11455
ologist	-11456
▁Bridge	-11457
▁Galaxy	-11458
▁Letter	-11459
▁Senate	-11460
▁Wouldn	-11461
▁devote	-11462
▁helper	-11463
▁mouths	-11464
▁saints	-11465
▁tablet	-11466
▁unlock	-11467
▁barrier	-11468
▁doubted	-11469
▁fighter	-11470
▁hardest	-11471
▁serpent	-11472
▁sounded	-11473
▁startup	-11474
▁warming	-11475
▁Buddhist	-11476
▁Domestic	-11477
▁concrete	-11478
▁guardian	-11479
▁shepherd	-11480
▁survival	-11481
▁violated	-11482
▁champions	-11483
▁preserved	-11484
▁acceptance	-11485
▁recognizes	-11486
▁scriptures	-11487
▁wrongdoers	-11488
▁politically	-11489
▁administered	-11490
▁headquarters	-11491
▁testosterone	-11492
2%	-11493
EU	-11494
FA	-11495
2).	-11496
Gen	-11497
iki	-11498
▁CP	-11499
ilst	-11500
▁Cir	-11501
▁Rod	-11502
▁Ted	-11503
▁Tot	-11504
uthor	-11505
▁Disc	-11506
▁Glad	-11507
▁Wasn	-11508
▁flew	-11509
▁scam	-11510
▁span	-11511
▁vain	-11512
▁worn	-11513
ailing	-11514
▁2005,	-11515
▁Cloud	-11516
▁Crist	-11517
▁Hands	-11518
▁Honor	-11519
▁Liter	-11520
▁Speed	-11521
▁Table	-11522
▁Vegas	-11523
▁cream	-11524
▁deter	-11525
▁ghost	-11526
▁merch	-11527
▁prays	-11528
▁scare	-11529
▁shots	-11530
▁traff	-11531
Abraham	-11532
Knowing	-11533
▁Beauty	-11534
▁Behind	-11535
▁Praise	-11536
▁Twelve	-11537
▁corona	-11538
▁eleven	-11539
▁fulfil	-11540
▁infant	-11541
▁pushed	-11542
gettable	-11543
▁goodbye	-11544
▁notable	-11545
▁thereby	-11546
▁accessed	-11547
▁defeated	-11548
▁Caribbean	-11549
▁associate	-11550
▁decreased	-11551
▁estimates	-11552
▁movements	-11553
▁afterwards	-11554
▁pornography	-11555
▁supplements	-11556
▁corporations	-11557
▁establishing	-11558
▁partnerships	-11559
CR	-11560
GS	-11561
bl	-11562
ja	-11563
400	-11564
:36	-11565
asp	-11566
▁SP	-11567
Life	-11568
cher	-11569
omes	-11570
▁Leo	-11571
▁bid	-11572
▁tob	-11573
rason	-11574
round	-11575
▁AIDS	-11576
▁Cher	-11577
▁Kate	-11578
▁Wild	-11579
▁dose	-11580
▁lets	-11581
▁perf	-11582
▁rape	-11583
▁swim	-11584
aments	-11585
▁2,000	-11586
▁Haven	-11587
▁alter	-11588
▁sharp	-11589
▁trick	-11590
married	-11591
▁Former	-11592
▁Gospel	-11593
▁Higher	-11594
▁Savior	-11595
▁Stalin	-11596
▁UNESCO	-11597
▁portal	-11598
▁Knowing	-11599
▁centres	-11600
▁delayed	-11601
▁unright	-11602
▁vendors	-11603
Everybody	-11604
▁airlines	-11605
▁autonomy	-11606
▁awaiting	-11607
▁displays	-11608
▁examined	-11609
▁gracious	-11610
▁promoted	-11611
▁railroad	-11612
▁Naturally	-11613
▁Similarly	-11614
▁invention	-11615
▁sentenced	-11616
▁shoulders	-11617
▁subjected	-11618
▁repentance	-11619
▁respective	-11620
▁consequence	-11621
▁flexibility	-11622
▁replacement	-11623
▁Independence	-11624
▁advertisements	-11625
:0	-11626
AB	-11627
HS	-11628
Any	-11629
Tok	-11630
leg	-11631
pan	-11632
▁."	-11633
▁58	-11634
▁CR	-11635
▁Ru	-11636
ette	-11637
rawn	-11638
ston	-11639
▁189	-11640
▁FOR	-11641
▁Ice	-11642
Maybe	-11643
annel	-11644
first	-11645
inger	-11646
venue	-11647
▁Andy	-11648
▁Thai	-11649
▁fold	-11650
▁lapt	-11651
▁surp	-11652
Indeed	-11653
assing	-11654
illing	-11655
please	-11656
▁3,000	-11657
▁Jones	-11658
▁doses	-11659
▁fatig	-11660
▁grain	-11661
▁idols	-11662
▁penet	-11663
verning	-11664
▁County	-11665
▁Hitler	-11666
▁Valent	-11667
▁liable	-11668
▁narrow	-11669
▁trucks	-11670
▁Himalay	-11671
▁arguing	-11672
▁defines	-11673
▁distant	-11674
▁domains	-11675
▁Continue	-11676
▁Particip	-11677
▁mistaken	-11678
▁remedies	-11679
▁severely	-11680
▁surveyed	-11681
▁Searching	-11682
▁discovery	-11683
▁municipal	-11684
▁secondary	-11685
▁Throughout	-11686
▁discipline	-11687
▁practicing	-11688
▁accountable	-11689
▁Consequently	-11690
▁pharmaceutical	-11691
GA	-11692
bb	-11693
Mus	-11694
NIV	-11695
ati	-11696
▁69	-11697
▁Aw	-11698
adan	-11699
dens	-11700
iami	-11701
iral	-11702
▁22.	-11703
▁Ide	-11704
▁Neg	-11705
Moses	-11706
depth	-11707
owers	-11708
venty	-11709
▁Brus	-11710
▁Moab	-11711
▁Nine	-11712
▁Poet	-11713
▁Sher	-11714
▁butt	-11715
▁dude	-11716
▁exit	-11717
▁hill	-11718
▁pays	-11719
advant	-11720
elcome	-11721
owered	-11722
▁2001.	-11723
▁Boris	-11724
▁Brand	-11725
▁Tamil	-11726
▁Verse	-11727
▁kills	-11728
▁spell	-11729
▁wages	-11730
▁Mighty	-11731
▁Taylor	-11732
▁Twenty	-11733
▁attach	-11734
▁basics	-11735
▁cannab	-11736
▁drives	-11737
▁lately	-11738
▁virgin	-11739
porarily	-11740
ublished	-11741
▁Afghans	-11742
▁Hundred	-11743
▁Sustain	-11744
▁diction	-11745
▁missile	-11746
▁sunrise	-11747
▁tablets	-11748
▁wronged	-11749
▁Internal	-11750
▁develops	-11751
▁honoured	-11752
▁imperial	-11753
▁foreigner	-11754
▁glorified	-11755
▁hopefully	-11756
▁integrate	-11757
▁recognise	-11758
▁reflected	-11759
▁retailers	-11760
▁utilizing	-11761
▁ungrateful	-11762
▁Engineering	-11763
▁publications	-11764
▁satisfactory	-11765
▁subsequently	-11766
▁unforgettable	-11767
77	-11768
DS	-11769
OC	-11770
ESS	-11771
aks	-11772
cia	-11773
mma	-11774
▁(8	-11775
▁BR	-11776
-201	-11777
Dear	-11778
feed	-11779
okes	-11780
onin	-11781
otic	-11782
unes	-11783
▁12,	-11784
▁mit	-11785
ashes	-11786
bound	-11787
child	-11788
▁Arch	-11789
▁Hill	-11790
▁Lake	-11791
▁Soon	-11792
▁synd	-11793
riages	-11794
▁Mahat	-11795
▁Steve	-11796
▁arose	-11797
▁hypoc	-11798
▁poore	-11799
▁raped	-11800
▁wings	-11801
General	-11802
apanese	-11803
taining	-11804
▁Dreams	-11805
▁Humans	-11806
▁Philip	-11807
▁Series	-11808
▁affair	-11809
▁hatred	-11810
▁modify	-11811
▁sinned	-11812
▁stones	-11813
resident	-11814
▁Germans	-11815
▁Ibrahim	-11816
▁Running	-11817
▁Stephen	-11818
▁annoyed	-11819
▁charter	-11820
▁pricing	-11821
▁protein	-11822
▁reverse	-11823
▁appealed	-11824
▁balanced	-11825
▁cautious	-11826
▁chapters	-11827
▁disclose	-11828
▁philosop	-11829
▁protests	-11830
▁contracts	-11831
▁exhausted	-11832
▁inclusion	-11833
▁injection	-11834
▁inspiring	-11835
▁distancing	-11836
▁mainstream	-11837
▁optimistic	-11838
▁prescribed	-11839
▁sufferings	-11840
governmental	-11841
▁controlling	-11842
▁electronics	-11843
▁remembrance	-11844
▁transmitted	-11845
))	-11846
28	-11847
FC	-11848
ko	-11849
:33	-11850
lix	-11851
rag	-11852
olds	-11853
▁1.5	-11854
▁17,	-11855
▁26,	-11856
▁GPS	-11857
▁IRS	-11858
▁Ros	-11859
...."	-11860
habil	-11861
inson	-11862
proof	-11863
▁Sand	-11864
▁Shah	-11865
▁Zion	-11866
▁womb	-11867
itings	-11868
rained	-11869
▁Spend	-11870
▁Thess	-11871
▁debit	-11872
ompense	-11873
▁Disney	-11874
▁PayPal	-11875
▁Refuge	-11876
▁argued	-11877
▁deport	-11878
▁pillar	-11879
▁proves	-11880
▁stroke	-11881
▁truths	-11882
building	-11883
▁Croatia	-11884
▁Outside	-11885
▁Thought	-11886
▁obliged	-11887
▁portfol	-11888
▁solving	-11889
▁tobacco	-11890
▁Cambodia	-11891
▁Jonathan	-11892
▁dwelling	-11893
▁earnings	-11894
▁kingdoms	-11895
▁paradise	-11896
▁resulted	-11897
▁gentlemen	-11898
▁greetings	-11899
▁Revelation	-11900
▁households	-11901
▁reportedly	-11902
▁subscribers	-11903
Ar	-11904
CB	-11905
JV	-11906
OK	-11907
:27	-11908
aki	-11909
mal	-11910
▁(9	-11911
apse	-11912
esla	-11913
illa	-11914
irts	-11915
▁$1.	-11916
▁21,	-11917
▁Laz	-11918
▁vib	-11919
senal	-11920
▁1996	-11921
▁Terr	-11922
▁Than	-11923
▁abst	-11924
▁demo	-11925
▁pupp	-11926
▁Miami	-11927
▁Santa	-11928
▁Yemen	-11929
▁bones	-11930
▁meter	-11931
▁wrest	-11932
Brother	-11933
osoever	-11934
ountain	-11935
▁Action	-11936
▁Making	-11937
▁Polish	-11938
▁Princi	-11939
▁crowds	-11940
▁makers	-11941
▁relied	-11942
▁robust	-11943
▁uphold	-11944
▁binding	-11945
▁fearful	-11946
▁shouted	-11947
▁unaware	-11948
▁utterly	-11949
Forgiving	-11950
▁Paradise	-11951
▁artistic	-11952
▁evaluate	-11953
▁featured	-11954
▁reconcil	-11955
▁brilliant	-11956
▁evaluated	-11957
▁exchanged	-11958
▁privilege	-11959
▁rebellion	-11960
▁societies	-11961
▁appliances	-11962
▁impression	-11963
▁measurement	-11964
▁economically	-11965
.).	-11966
uma	-11967
▁$6	-11968
▁Wu	-11969
alon	-11970
bour	-11971
erts	-11972
rers	-11973
▁(18	-11974
▁10-	-11975
▁Cab	-11976
▁Fem	-11977
▁Mir	-11978
▁VPN	-11979
▁pig	-11980
▁van	-11981
▁vig	-11982
Nepal	-11983
ammed	-11984
front	-11985
omach	-11986
visor	-11987
▁Pret	-11988
▁Virt	-11989
▁keen	-11990
▁nuts	-11991
▁tiss	-11992
▁toys	-11993
icular	-11994
iotics	-11995
irteen	-11996
▁Allâh	-11997
▁Begin	-11998
▁Filip	-11999
▁Major	-12000
▁accus	-12001
▁males	-12002
▁newly	-12003
▁remov	-12004
▁resur	-12005
▁tears	-12006
▁tutor	-12007
▁Golden	-12008
▁Planet	-12009
▁amused	-12010
▁cheese	-12011
▁french	-12012
▁indoor	-12013
▁resume	-12014
▁tweets	-12015
▁Clinton	-12016
▁Jehovah	-12017
▁carrier	-12018
▁damages	-12019
▁differs	-12020
▁editors	-12021
▁facilit	-12022
▁formats	-12023
▁holders	-12024
▁jealous	-12025
▁malware	-12026
▁manages	-12027
▁mindful	-12028
▁proudly	-12029
▁rewards	-12030
▁tribute	-12031
effective	-12032
▁Brussels	-12033
▁Creating	-12034
▁convince	-12035
▁descript	-12036
▁mobility	-12037
▁Yesterday	-12038
▁compelled	-12039
▁execution	-12040
▁franchise	-12041
▁Definitely	-12042
▁autonomous	-12043
▁delivering	-12044
▁instructed	-12045
▁quarantine	-12046
▁settlement	-12047
▁conferences	-12048
▁encouraging	-12049
▁functioning	-12050
▁questioning	-12051
▁supervision	-12052
▁concentrated	-12053
1%	-12054
▁_	-12055
").	-12056
ONE	-12057
cho	-12058
ima	-12059
lla	-12060
▁PH	-12061
hhhh	-12062
jack	-12063
stop	-12064
▁Las	-12065
▁ded	-12066
▁sod	-12067
ersed	-12068
heres	-12069
orous	-12070
shore	-12071
▁Date	-12072
▁Host	-12073
▁aunt	-12074
▁bets	-12075
▁cher	-12076
▁dict	-12077
▁jinn	-12078
▁mour	-12079
ispens	-12080
rapped	-12081
▁Armed	-12082
▁Broad	-12083
▁Cyber	-12084
▁boxes	-12085
▁china	-12086
▁cloth	-12087
▁gains	-12088
▁layer	-12089
▁march	-12090
▁Bureau	-12091
▁Immedi	-12092
▁Recogn	-12093
▁armies	-12094
▁belied	-12095
▁copies	-12096
▁newest	-12097
▁tackle	-12098
▁wholly	-12099
▁Belgian	-12100
▁Created	-12101
▁Mahatma	-12102
▁burdens	-12103
▁embrace	-12104
▁letting	-12105
▁spirits	-12106
▁stating	-12107
believers	-12108
▁Guardian	-12109
▁analysts	-12110
▁enabling	-12111
▁flexible	-12112
▁founding	-12113
▁troubles	-12114
▁disclosed	-12115
▁judgement	-12116
▁obstacles	-12117
▁perceived	-12118
▁reflection	-12119
▁suspicious	-12120
▁residential	-12121
++	-12122
1:	-12123
29	-12124
3:	-12125
AH	-12126
NS	-12127
RO	-12128
Te	-12129
ERS	-12130
His	-12131
ahu	-12132
aya	-12133
phy	-12134
two	-12135
uer	-12136
▁00	-12137
▁9,	-12138
▁95	-12139
Luke	-12140
aine	-12141
hana	-12142
itar	-12143
merc	-12144
▁16,	-12145
▁21.	-12146
▁700	-12147
▁REA	-12148
▁Wil	-12149
▁mac	-12150
allel	-12151
iated	-12152
ungle	-12153
▁Dise	-12154
▁Soul	-12155
▁THIS	-12156
▁Vlad	-12157
▁disk	-12158
▁eats	-12159
▁nick	-12160
▁reck	-12161
versed	-12162
▁Compl	-12163
▁Given	-12164
▁Tower	-12165
▁essay	-12166
▁flash	-12167
▁freed	-12168
▁indef	-12169
▁neuro	-12170
▁shake	-12171
▁tremb	-12172
▁trips	-12173
Blessed	-12174
Pharaoh	-12175
forward	-12176
ressing	-12177
▁Canaan	-12178
▁Exodus	-12179
▁academ	-12180
▁bitter	-12181
▁checks	-12182
▁consol	-12183
▁dishon	-12184
▁expend	-12185
▁fiscal	-12186
▁incent	-12187
▁renown	-12188
▁warner	-12189
ervative	-12190
▁Cookies	-12191
▁Goddess	-12192
▁Perfect	-12193
▁Silence	-12194
▁licence	-12195
▁qualify	-12196
▁someday	-12197
▁wounded	-12198
▁Likewise	-12199
▁Politics	-12200
▁advocate	-12201
▁analyzed	-12202
▁aviation	-12203
▁murderer	-12204
▁occupied	-12205
▁performs	-12206
▁psychiat	-12207
▁readings	-12208
▁simultan	-12209
▁tensions	-12210
▁welcomes	-12211
ispensable	-12212
▁assurance	-12213
▁consensus	-12214
▁disadvant	-12215
▁electoral	-12216
▁proportion	-12217
▁translator	-12218
▁visibility	-12219
▁Advertising	-12220
▁attractions	-12221
▁involvement	-12222
▁substantial	-12223
▁shareholders	-12224
13	-12225
LA	-12226
Or	-12227
▁स	-12228
aze	-12229
his	-12230
kim	-12231
▁53	-12232
▁Ku	-12233
▁OF	-12234
iped	-12235
izer	-12236
rait	-12237
tage	-12238
▁Ban	-12239
▁Joy	-12240
▁Map	-12241
▁Vol	-12242
▁pup	-12243
THING	-12244
acher	-12245
every	-12246
lisha	-12247
ropri	-12248
▁____	-12249
▁mama	-12250
▁wore	-12251
▁Banks	-12252
▁Crazy	-12253
▁Kyoto	-12254
▁Wrong	-12255
▁fever	-12256
▁pairs	-12257
▁saith	-12258
▁swore	-12259
isingly	-12260
itative	-12261
▁Prophe	-12262
▁Single	-12263
▁Valley	-12264
▁Wealth	-12265
▁breaks	-12266
▁organs	-12267
▁redeem	-12268
▁urgent	-12269
▁Failure	-12270
▁Founded	-12271
▁Harvard	-12272
▁Koreans	-12273
▁Million	-12274
▁Ramadan	-12275
▁Reminds	-12276
▁Smoking	-12277
▁Weather	-12278
▁conform	-12279
▁credits	-12280
▁crowded	-12281
▁muscles	-12282
▁prophes	-12283
▁utility	-12284
▁Cultural	-12285
▁Daughter	-12286
▁constitu	-12287
▁declares	-12288
▁earliest	-12289
▁Europeans	-12290
▁Programme	-12291
▁activated	-12292
▁adventure	-12293
▁favorable	-12294
▁incidents	-12295
▁maintains	-12296
▁offspring	-12297
▁producers	-12298
▁spokesman	-12299
▁withdrawn	-12300
▁attributed	-12301
▁frustrated	-12302
▁geographic	-12303
▁indirectly	-12304
▁nationwide	-12305
▁positively	-12306
▁retirement	-12307
▁terminated	-12308
▁influential	-12309
▁Universities	-12310
▁additionally	-12311
▁congratulate	-12312
▁congregation	-12313
▁incorporated	-12314
▁jurisdiction	-12315
▁personalized	-12316
MI	-12317
ML	-12318
dem	-12319
iro	-12320
uit	-12321
▁DS	-12322
aved	-12323
kara	-12324
ogen	-12325
umes	-12326
▁Bah	-12327
▁Gab	-12328
▁III	-12329
▁Ven	-12330
ayers	-12331
world	-12332
▁Anna	-12333
▁Been	-12334
▁Kind	-12335
▁Tree	-12336
▁Wide	-12337
▁iron	-12338
▁tale	-12339
irable	-12340
▁Solar	-12341
▁Tesla	-12342
▁Tiger	-12343
▁decor	-12344
▁flame	-12345
▁lifel	-12346
▁moder	-12347
▁quote	-12348
ourable	-12349
▁Become	-12350
▁Prison	-12351
▁Senior	-12352
▁sealed	-12353
olitical	-12354
ologists	-12355
▁Meeting	-12356
▁Strateg	-12357
▁blaming	-12358
▁endless	-12359
▁episode	-12360
▁forests	-12361
▁intends	-12362
▁lengthy	-12363
▁trailer	-12364
▁Complete	-12365
▁Learning	-12366
▁clicking	-12367
▁congress	-12368
▁enhanced	-12369
▁executed	-12370
▁freedoms	-12371
▁magnific	-12372
▁renowned	-12373
▁responds	-12374
▁stressed	-12375
▁Amendment	-12376
▁Relations	-12377
▁ambitions	-12378
▁launching	-12379
▁practiced	-12380
▁containing	-12381
▁originated	-12382
▁thoroughly	-12383
▁whatsoever	-12384
▁allegations	-12385
▁coordinates	-12386
▁responsibly	-12387
▁specialized	-12388
▁encouragement	-12389
▁indispensable	-12390
100	-12391
:29	-12392
ERY	-12393
IVE	-12394
cca	-12395
inf	-12396
new	-12397
▁Di	-12398
▁VR	-12399
aman	-12400
ania	-12401
ansk	-12402
card	-12403
resa	-12404
▁20-	-12405
▁22,	-12406
▁24,	-12407
▁Hel	-12408
Daddy	-12409
anded	-12410
cking	-12411
isers	-12412
itime	-12413
oping	-12414
sized	-12415
▁Anti	-12416
▁Husb	-12417
▁Repe	-12418
▁Zone	-12419
▁deaf	-12420
▁spin	-12421
▁1995.	-12422
▁Final	-12423
▁Joint	-12424
▁Photo	-12425
▁Pract	-12426
▁fiber	-12427
▁hydro	-12428
▁sadly	-12429
▁swall	-12430
▁venue	-12431
▁weigh	-12432
mercial	-12433
▁divers	-12434
▁flames	-12435
▁noting	-12436
▁refres	-12437
▁reiter	-12438
▁respir	-12439
▁weaker	-12440
▁Mandela	-12441
▁combine	-12442
▁compuls	-12443
▁doubled	-12444
▁dresses	-12445
▁essence	-12446
▁masters	-12447
▁portray	-12448
▁subsequ	-12449
▁transit	-12450
▁Commerce	-12451
▁aluminum	-12452
▁bloggers	-12453
▁deployed	-12454
▁dissatis	-12455
▁entities	-12456
▁heavenly	-12457
▁measured	-12458
▁writings	-12459
▁Greetings	-12460
▁exercises	-12461
▁governing	-12462
▁gradually	-12463
▁preferred	-12464
▁unlimited	-12465
▁Regulation	-12466
▁acceptable	-12467
▁committing	-12468
▁disability	-12469
▁indigenous	-12470
▁progressive	-12471
▁restoration	-12472
▁temporarily	-12473
▁surprisingly	-12474
'"	-12475
GH	-12476
ao	-12477
Mat	-12478
agg	-12479
cue	-12480
fin	-12481
kes	-12482
omy	-12483
pur	-12484
▁AR	-12485
▁Od	-12486
▁TO	-12487
cure	-12488
lims	-12489
phew	-12490
▁30.	-12491
▁Dog	-12492
▁Tel	-12493
▁lin	-12494
Bring	-12495
acked	-12496
human	-12497
iterr	-12498
oding	-12499
▁Boss	-12500
▁KNOW	-12501
▁Loss	-12502
▁rend	-12503
▁synt	-12504
eroids	-12505
ulates	-12506
urpose	-12507
▁2002.	-12508
▁2005.	-12509
▁Large	-12510
▁Sport	-12511
▁Woods	-12512
▁badly	-12513
▁dirty	-12514
▁freel	-12515
▁seeds	-12516
▁visas	-12517
autions	-12518
illance	-12519
working	-12520
▁20,000	-12521
▁Peters	-12522
▁adhere	-12523
▁builds	-12524
▁doomed	-12525
▁liquid	-12526
▁mirror	-12527
▁nephew	-12528
▁rounds	-12529
▁stupid	-12530
▁throat	-12531
iterrane	-12532
▁Hungary	-12533
▁Workers	-12534
▁durable	-12535
▁honesty	-12536
▁ignored	-12537
▁influen	-12538
▁lasting	-12539
▁multipl	-12540
▁permits	-12541
▁prolong	-12542
▁shifted	-12543
▁stomach	-12544
▁abortion	-12545
▁colonial	-12546
▁connects	-12547
▁fighters	-12548
▁forgives	-12549
▁navigate	-12550
▁opponent	-12551
▁promotes	-12552
▁pursuing	-12553
▁roulette	-12554
▁unlikely	-12555
▁Valentine	-12556
▁departure	-12557
▁exclusive	-12558
▁indicator	-12559
▁interfere	-12560
▁messaging	-12561
▁proposals	-12562
▁surprises	-12563
▁perception	-12564
▁embarrassed	-12565
▁fascinating	-12566
▁positioning	-12567
▁arrangements	-12568
▁verification	-12569
▁Understanding	-12570
,.	-12571
8]	-12572
PD	-12573
CAD	-12574
roy	-12575
▁86	-12576
▁BC	-12577
▁EX	-12578
IGHT	-12579
flix	-12580
gets	-12581
illy	-12582
▁NOW	-12583
▁boo	-12584
▁cha	-12585
▁wag	-12586
isure	-12587
▁Away	-12588
▁Doug	-12589
▁LGBT	-12590
▁Mald	-12591
▁Past	-12592
▁Trib	-12593
▁adap	-12594
▁ampl	-12595
▁bare	-12596
▁coat	-12597
▁mere	-12598
▁2001,	-12599
▁2004,	-12600
▁2004.	-12601
▁Honey	-12602
▁Pride	-12603
▁Wales	-12604
▁Works	-12605
▁pilot	-12606
▁realm	-12607
▁shops	-12608
istical	-12609
▁Danish	-12610
▁Leader	-12611
▁Salman	-12612
▁beware	-12613
▁costly	-12614
▁county	-12615
▁deeper	-12616
▁denies	-12617
▁dosage	-12618
▁heroes	-12619
▁marine	-12620
▁preach	-12621
▁propri	-12622
▁riches	-12623
▁unsafe	-12624
powerful	-12625
▁Playing	-12626
▁Unicode	-12627
▁avoided	-12628
▁dignity	-12629
▁enlight	-12630
▁handful	-12631
▁intimid	-12632
▁landing	-12633
▁offline	-12634
▁schemes	-12635
▁suffers	-12636
▁Certific	-12637
▁Movement	-12638
▁Yourself	-12639
▁adoption	-12640
▁compound	-12641
▁creators	-12642
▁deceived	-12643
▁detected	-12644
▁releases	-12645
▁reserves	-12646
▁thorough	-12647
▁Cristiano	-12648
▁healthier	-12649
▁institute	-12650
▁justified	-12651
▁suspected	-12652
▁Regardless	-12653
▁greenhouse	-12654
▁Immigration	-12655
▁distinction	-12656
▁empowerment	-12657
▁imagination	-12658
▁Intelligence	-12659
▁alternatives	-12660
▁confirmation	-12661
▁overwhelming	-12662
▁strengthened	-12663
▁complications	-12664
▁determination	-12665
▁investigations	-12666
Ah	-12667
Sp	-12668
hu	-12669
900	-12670
://	-12671
New	-12672
WHO	-12673
asa	-12674
cur	-12675
dri	-12676
nia	-12677
pes	-12678
rav	-12679
▁"[	-12680
▁BS	-12681
▁DV	-12682
▁[3	-12683
high	-12684
iece	-12685
llah	-12686
ulin	-12687
▁24.	-12688
▁Bat	-12689
▁Bos	-12690
▁Ple	-12691
▁dub	-12692
activ	-12693
angle	-12694
duced	-12695
stone	-12696
▁1997	-12697
▁2030	-12698
▁Cell	-12699
▁Jane	-12700
▁NOTE	-12701
▁cats	-12702
▁fier	-12703
▁gear	-12704
▁pose	-12705
▁seas	-12706
▁ward	-12707
apping	-12708
bridge	-12709
econom	-12710
▁Psych	-12711
▁Shall	-12712
▁Voice	-12713
▁etern	-12714
▁rebel	-12715
▁reloc	-12716
▁shore	-12717
▁sweat	-12718
▁texts	-12719
aluable	-12720
▁Histor	-12721
▁allies	-12722
▁notion	-12723
▁suited	-12724
▁conclus	-12725
▁listing	-12726
▁magical	-12727
▁mindset	-12728
▁refuses	-12729
▁removal	-12730
▁tension	-12731
immigrant	-12732
▁Material	-12733
▁enforced	-12734
▁excluded	-12735
iterranean	-12736
▁Thessalon	-12737
▁commander	-12738
▁comparing	-12739
▁concealed	-12740
▁opponents	-12741
▁passports	-12742
▁possesses	-12743
▁unmarried	-12744
▁welcoming	-12745
▁challenged	-12746
▁criticized	-12747
▁gatherings	-12748
▁interviews	-12749
▁terrorists	-12750
▁Cooperation	-12751
▁extensively	-12752
-9	-12753
:.	-12754
Cl	-12755
ME	-12756
hd	-12757
▁Â	-12758
▁क	-12759
-18	-12760
ads	-12761
irs	-12762
ked	-12763
▁78	-12764
▁[1	-12765
▁du	-12766
-19.	-12767
ctic	-12768
eing	-12769
emor	-12770
held	-12771
home	-12772
othy	-12773
▁30,	-12774
▁Amy	-12775
▁ICC	-12776
▁Lew	-12777
▁Mis	-12778
▁bio	-12779
▁sli	-12780
▁tow	-12781
First	-12782
ville	-12783
▁Beth	-12784
▁Hack	-12785
▁Requ	-12786
▁Rong	-12787
▁Unit	-12788
aduate	-12789
inging	-12790
respon	-12791
▁Arabs	-12792
▁Dalai	-12793
▁Glory	-12794
▁Goals	-12795
▁Kevin	-12796
▁capac	-12797
▁genre	-12798
▁hills	-12799
fulness	-12800
▁Elisha	-12801
▁Galile	-12802
▁Python	-12803
▁TikTok	-12804
▁bacter	-12805
▁immort	-12806
▁layout	-12807
▁titled	-12808
▁100,000	-12809
▁Disease	-12810
▁Emperor	-12811
▁Netflix	-12812
▁Waiting	-12813
▁advisor	-12814
▁chicken	-12815
▁lacking	-12816
▁priorit	-12817
▁secured	-12818
▁Governor	-12819
▁embraced	-12820
▁engaging	-12821
▁prevents	-12822
▁recalled	-12823
▁shipment	-12824
▁steroids	-12825
▁verified	-12826
▁accompany	-12827
▁employers	-12828
▁inherited	-12829
▁nominated	-12830
▁supporter	-12831
▁automotive	-12832
▁dimensions	-12833
▁guarantees	-12834
▁anticipated	-12835
▁precautions	-12836
▁municipality	-12837
-0	-12838
75	-12839
ón	-12840
4).	-12841
Spe	-12842
god	-12843
oty	-12844
oys	-12845
▁Az	-12846
▁IF	-12847
▁Xi	-12848
/201	-12849
Acts	-12850
Even	-12851
enez	-12852
habi	-12853
hero	-12854
live	-12855
omin	-12856
rick	-12857
uana	-12858
wait	-12859
▁(20	-12860
▁(6)	-12861
▁API	-12862
▁Abs	-12863
▁Gaz	-12864
▁Ish	-12865
▁MCC	-12866
▁Som	-12867
▁bew	-12868
arded	-12869
idges	-12870
iform	-12871
▁1995	-12872
▁Risk	-12873
▁Shop	-12874
▁chem	-12875
▁elev	-12876
▁frag	-12877
▁mate	-12878
▁unsu	-12879
Mother	-12880
esters	-12881
handed	-12882
uggage	-12883
▁Ammon	-12884
▁Coast	-12885
▁Motor	-12886
▁Stars	-12887
▁Study	-12888
▁amend	-12889
▁fleet	-12890
▁hyper	-12891
▁loose	-12892
▁misle	-12893
▁Simply	-12894
▁advers	-12895
▁behave	-12896
▁boasts	-12897
▁closes	-12898
▁dispos	-12899
▁glance	-12900
▁madman	-12901
▁marvel	-12902
▁module	-12903
▁robber	-12904
▁scores	-12905
▁viable	-12906
arations	-12907
▁Depends	-12908
▁Message	-12909
▁admired	-12910
▁chooses	-12911
▁emotion	-12912
▁expired	-12913
▁faculty	-12914
▁resides	-12915
▁revised	-12916
▁LinkedIn	-12917
▁distract	-12918
▁fullness	-12919
▁Available	-12920
▁appearing	-12921
▁calculate	-12922
▁countless	-12923
▁magicians	-12924
▁selecting	-12925
▁successes	-12926
▁whispered	-12927
▁Petersburg	-12928
▁attributes	-12929
▁basketball	-12930
▁capitalism	-12931
▁cigarettes	-12932
▁consultant	-12933
▁subsequent	-12934
▁succession	-12935
▁thereafter	-12936
▁implications	-12937
▁surveillance	-12938
▁translations	-12939
▁Mediterranean	-12940
":	-12941
NU	-12942
्र	-12943
bai	-12944
him	-12945
jud	-12946
nie	-12947
▁6:	-12948
From	-12949
dest	-12950
gian	-12951
give	-12952
iens	-12953
inda	-12954
osit	-12955
tech	-12956
than	-12957
▁13,	-12958
▁Arc	-12959
▁IPL	-12960
▁Sid	-12961
▁bom	-12962
▁fet	-12963
▁pod	-12964
▁toy	-12965
▁voy	-12966
Cause	-12967
ighed	-12968
inery	-12969
licit	-12970
state	-12971
▁Azer	-12972
▁Bear	-12973
▁Bulg	-12974
▁Ours	-12975
▁Pers	-12976
▁Used	-12977
▁rice	-12978
▁wire	-12979
aining	-12980
enance	-12981
▁Brain	-12982
▁Chile	-12983
▁Dhabi	-12984
▁Lenin	-12985
▁Makes	-12986
▁Memor	-12987
▁Month	-12988
▁Touch	-12989
▁Uncle	-12990
▁bunch	-12991
▁escal	-12992
▁panic	-12993
▁zones	-12994
istence	-12995
▁Corona	-12996
▁Mental	-12997
▁Rescue	-12998
▁Sikkim	-12999
▁arises	-13000
▁chains	-13001
▁endors	-13002
▁excite	-13003
▁pardon	-13004
▁poison	-13005
▁purity	-13006
▁quotes	-13007
▁rental	-13008
▁shines	-13009
▁summar	-13010
changing	-13011
izations	-13012
phesians	-13013
▁Reasons	-13014
▁cleared	-13015
▁earthly	-13016
▁guessed	-13017
▁thrones	-13018
▁Ethiopia	-13019
▁Hinduism	-13020
▁Maldives	-13021
▁commerce	-13022
▁compiled	-13023
▁credited	-13024
▁helpless	-13025
▁polluted	-13026
▁Emergency	-13027
▁Palestine	-13028
▁Typically	-13029
▁furniture	-13030
▁passwords	-13031
▁safeguard	-13032
▁Innovation	-13033
▁attraction	-13034
▁celebrates	-13035
▁compromise	-13036
▁livelihood	-13037
▁consecutive	-13038
▁devastating	-13039
▁expressions	-13040
▁trafficking	-13041
▁jurisdictions	-13042
▁simultaneously	-13043
GB	-13044
MC	-13045
Ms	-13046
▁ا	-13047
.:)	-13048
Isa	-13049
eph	-13050
▁""	-13051
▁tv	-13052
Love	-13053
dney	-13054
have	-13055
imir	-13056
oken	-13057
orge	-13058
▁25.	-13059
▁ANY	-13060
▁Blu	-13061
▁Fac	-13062
▁ham	-13063
▁jew	-13064
▁que	-13065
inded	-13066
oshop	-13067
shell	-13068
▁Leon	-13069
▁ONLY	-13070
▁Ones	-13071
▁Till	-13072
▁VERY	-13073
▁bags	-13074
▁soup	-13075
itches	-13076
ittees	-13077
▁100%.	-13078
▁1996.	-13079
▁NEVER	-13080
▁myths	-13081
▁rainy	-13082
▁risky	-13083
▁sheet	-13084
▁skies	-13085
▁slept	-13086
▁spins	-13087
masters	-13088
selling	-13089
station	-13090
▁Joshua	-13091
▁beside	-13092
▁brains	-13093
▁clicks	-13094
▁immune	-13095
▁insult	-13096
▁landed	-13097
▁lonely	-13098
▁patent	-13099
▁traged	-13100
merciful	-13101
▁Azerbai	-13102
▁Mankind	-13103
▁Nepalis	-13104
▁bitcoin	-13105
▁complim	-13106
▁glorify	-13107
▁guiding	-13108
▁offence	-13109
▁posting	-13110
▁specify	-13111
▁thereof	-13112
▁thieves	-13113
▁wherein	-13114
▁Carolina	-13115
▁Hundreds	-13116
▁Vladimir	-13117
▁airplane	-13118
▁collapse	-13119
▁confirms	-13120
▁glorious	-13121
▁rankings	-13122
▁unstable	-13123
▁Photoshop	-13124
▁Religious	-13125
▁affiliate	-13126
▁certainty	-13127
▁exclaimed	-13128
▁forgiving	-13129
▁marriages	-13130
▁Investment	-13131
▁conducting	-13132
▁dedication	-13133
▁preventing	-13134
▁recompense	-13135
habilitation	-13136
▁Journalists	-13137
▁convenience	-13138
▁identifying	-13139
▁reservation	-13140
▁Construction	-13141
▁collectively	-13142
▁nevertheless	-13143
▁administrator	-13144
4%	-13145
BB	-13146
IE	-13147
ds	-13148
mg	-13149
Eng	-13150
▁Ep	-13151
▁ta	-13152
Wait	-13153
elly	-13154
elta	-13155
fare	-13156
fold	-13157
uras	-13158
▁15-	-13159
▁Ess	-13160
▁FBI	-13161
▁NEW	-13162
▁Nag	-13163
▁Oli	-13164
▁ark	-13165
▁dil	-13166
▁hob	-13167
▁woe	-13168
:28).	-13169
chron	-13170
doers	-13171
ecess	-13172
inese	-13173
thank	-13174
their	-13175
▁Case	-13176
▁Eddy	-13177
▁Fall	-13178
▁Guru	-13179
▁Holl	-13180
▁Late	-13181
▁Musa	-13182
▁Seek	-13183
▁Slow	-13184
▁Sony	-13185
▁cosm	-13186
▁eggs	-13187
▁pets	-13188
▁pity	-13189
▁sail	-13190
▁tent	-13191
▁thri	-13192
ancies	-13193
income	-13194
school	-13195
▁Appro	-13196
▁Avoid	-13197
▁Basic	-13198
▁Phase	-13199
▁Wuhan	-13200
▁altar	-13201
▁bench	-13202
▁breed	-13203
▁flows	-13204
▁incon	-13205
▁knees	-13206
▁norms	-13207
▁spark	-13208
▁tooth	-13209
Welcome	-13210
▁Origin	-13211
▁Psalms	-13212
▁Reason	-13213
▁blocks	-13214
▁bullet	-13215
▁deadly	-13216
▁diesel	-13217
▁endure	-13218
▁sphere	-13219
▁unsure	-13220
▁willed	-13221
anguages	-13222
hibition	-13223
▁Village	-13224
▁buttons	-13225
▁caution	-13226
▁grounds	-13227
▁heights	-13228
▁inquiry	-13229
▁linking	-13230
▁motherf	-13231
▁nursing	-13232
▁surveys	-13233
▁tariffs	-13234
▁wrapped	-13235
▁Heritage	-13236
▁Monetary	-13237
▁Thinking	-13238
▁baseball	-13239
▁browsing	-13240
▁champion	-13241
▁claiming	-13242
▁conclude	-13243
▁guessing	-13244
▁happiest	-13245
▁interven	-13246
▁isolated	-13247
▁memorial	-13248
▁outlined	-13249
▁weekends	-13250
▁Technical	-13251
▁discontin	-13252
▁disobeyed	-13253
▁paintings	-13254
▁portfolio	-13255
▁sincerely	-13256
▁Ultimately	-13257
▁accurately	-13258
▁automobile	-13259
▁comparable	-13260
▁Description	-13261
▁grandparents	-13262
▁multilateral	-13263
▁concentration	-13264
▁corresponding	-13265
▁demonstration	-13266
▁documentation	-13267
";	-13268
▁İ	-13269
-15	-13270
adi	-13271
hot	-13272
tte	-13273
▁5-	-13274
▁IV	-13275
Only	-13276
acle	-13277
aned	-13278
duce	-13279
educ	-13280
inar	-13281
itis	-13282
▁130	-13283
▁14,	-13284
▁360	-13285
▁75%	-13286
▁Bye	-13287
▁DON	-13288
▁Fig	-13289
▁Syn	-13290
▁Tar	-13291
Based	-13292
aters	-13293
enery	-13294
▁1998	-13295
▁Chen	-13296
▁Luis	-13297
▁Mach	-13298
▁Pack	-13299
▁Path	-13300
▁Rick	-13301
▁Wish	-13302
▁infl	-13303
▁kidn	-13304
▁nets	-13305
▁rans	-13306
▁wept	-13307
Christ	-13308
ijuana	-13309
orient	-13310
▁2003.	-13311
▁Salah	-13312
▁Stage	-13313
▁Whole	-13314
▁alpha	-13315
▁brush	-13316
▁coinc	-13317
▁divor	-13318
▁femin	-13319
▁winds	-13320
winning	-13321
▁Ankara	-13322
▁Edward	-13323
▁Oxford	-13324
▁Zucker	-13325
▁begged	-13326
▁booked	-13327
▁grants	-13328
▁mortal	-13329
interest	-13330
violence	-13331
▁Channel	-13332
▁Nuclear	-13333
▁servers	-13334
▁Gambling	-13335
▁Nigerian	-13336
▁Railways	-13337
▁deprived	-13338
▁greeting	-13339
▁homeless	-13340
▁insanity	-13341
▁promptly	-13342
▁segments	-13343
▁simplest	-13344
▁Languages	-13345
▁Nigerians	-13346
▁financing	-13347
▁preaching	-13348
▁sovereign	-13349
▁specially	-13350
▁Production	-13351
▁Zuckerberg	-13352
▁consulting	-13353
▁extraction	-13354
▁invaluable	-13355
▁proclaimed	-13356
▁distinguish	-13357
▁practically	-13358
▁programmers	-13359
▁remembering	-13360
▁scholarship	-13361
▁Palestinians	-13362
▁dramatically	-13363
▁interactions	-13364
▁advertisement	-13365
▁reconstruction	-13366
26	-13367
4:	-13368
BO	-13369
gl	-13370
LLY	-13371
Rus	-13372
bek	-13373
jab	-13374
str	-13375
zen	-13376
away	-13377
igan	-13378
love	-13379
ques	-13380
sole	-13381
▁$50	-13382
▁(7)	-13383
▁123	-13384
▁15%	-13385
▁BUT	-13386
▁Foc	-13387
▁Fox	-13388
▁Haw	-13389
▁Kaz	-13390
Quran	-13391
bourg	-13392
eremy	-13393
eterm	-13394
hetic	-13395
▁Sant	-13396
▁Summ	-13397
▁WILL	-13398
▁mall	-13399
▁unav	-13400
▁2022.	-13401
▁Beach	-13402
▁Daily	-13403
▁Firef	-13404
▁posed	-13405
▁resil	-13406
▁revel	-13407
▁rough	-13408
▁spray	-13409
▁vowed	-13410
▁warns	-13411
▁witch	-13412
fearing	-13413
ilation	-13414
▁Review	-13415
▁awhile	-13416
▁laptop	-13417
▁layers	-13418
▁referr	-13419
▁resear	-13420
▁stabil	-13421
▁tender	-13422
▁timing	-13423
▁treats	-13424
▁Chamber	-13425
▁Farmers	-13426
▁discern	-13427
▁generic	-13428
▁hackers	-13429
▁logical	-13430
▁majesty	-13431
▁pledged	-13432
▁propose	-13433
▁stretch	-13434
▁warrior	-13435
▁Africans	-13436
▁Alliance	-13437
▁Manufact	-13438
▁Medicine	-13439
▁Powerful	-13440
▁athletes	-13441
▁attained	-13442
▁delivers	-13443
▁frequent	-13444
▁judicial	-13445
▁notified	-13446
▁offshore	-13447
▁illnesses	-13448
▁intensive	-13449
▁processor	-13450
comfortable	-13451
▁conscience	-13452
▁disappears	-13453
▁regulators	-13454
▁structural	-13455
▁violations	-13456
▁fulfillment	-13457
▁instruction	-13458
▁Presidential	-13459
▁descriptions	-13460
▁respectively	-13461
▁Environmental	-13462
ns	-13463
sw	-13464
EAN	-13465
iph	-13466
kel	-13467
rin	-13468
▁BE	-13469
▁kg	-13470
cipl	-13471
ildo	-13472
isms	-13473
othe	-13474
uber	-13475
zone	-13476
▁23,	-13477
▁Amb	-13478
▁Bal	-13479
▁CON	-13480
▁Fol	-13481
▁Jay	-13482
▁Lig	-13483
▁[1]	-13484
▁tab	-13485
amped	-13486
ceans	-13487
grade	-13488
lical	-13489
sales	-13490
▁2001	-13491
▁Dean	-13492
▁Feed	-13493
▁Mong	-13494
▁Pain	-13495
▁Papa	-13496
▁Text	-13497
▁flav	-13498
▁inse	-13499
▁suck	-13500
▁toes	-13501
alties	-13502
▁Cause	-13503
▁Mommy	-13504
▁angle	-13505
▁bases	-13506
▁bikes	-13507
▁milit	-13508
▁modes	-13509
▁mourn	-13510
▁wakes	-13511
▁weary	-13512
▁Repeat	-13513
▁abused	-13514
▁clever	-13515
▁faults	-13516
▁valley	-13517
ospatial	-13518
▁Keeping	-13519
▁apostle	-13520
▁approve	-13521
▁charity	-13522
▁clarity	-13523
▁exceeds	-13524
▁hopeful	-13525
▁listens	-13526
▁loyalty	-13527
▁luggage	-13528
▁placing	-13529
▁queries	-13530
▁remarks	-13531
▁sincere	-13532
▁traders	-13533
inational	-13534
▁fairness	-13535
▁findings	-13536
▁garments	-13537
▁informal	-13538
▁nutshell	-13539
▁railways	-13540
▁switched	-13541
▁underway	-13542
▁Employees	-13543
▁Protector	-13544
▁batteries	-13545
▁diagnosed	-13546
▁guardians	-13547
▁intermedi	-13548
▁obtaining	-13549
▁prolonged	-13550
▁Everywhere	-13551
▁continents	-13552
▁indicators	-13553
▁limitation	-13554
▁mechanisms	-13555
▁presenting	-13556
▁simplified	-13557
▁supportive	-13558
▁collaborate	-13559
▁comfortably	-13560
▁cooperative	-13561
▁innovations	-13562
▁resurrected	-13563
cor	-13564
mod	-13565
xim	-13566
▁3-	-13567
▁dw	-13568
Aren	-13569
HING	-13570
Most	-13571
cuse	-13572
gage	-13573
need	-13574
omma	-13575
plic	-13576
stig	-13577
▁203	-13578
▁23.	-13579
▁Box	-13580
▁Nik	-13581
▁Nov	-13582
▁Xia	-13583
ariat	-13584
eenth	-13585
urate	-13586
▁Bird	-13587
▁Greg	-13588
▁Nick	-13589
▁cake	-13590
▁chip	-13591
▁eyel	-13592
▁fond	-13593
▁taxp	-13594
▁tube	-13595
ffects	-13596
iaries	-13597
ieties	-13598
mented	-13599
placed	-13600
unting	-13601
▁crops	-13602
▁inaug	-13603
▁medal	-13604
anskrit	-13605
itorial	-13606
▁Danger	-13607
▁Integr	-13608
▁Newton	-13609
▁Notice	-13610
▁Rachel	-13611
▁Sydney	-13612
▁Weight	-13613
▁absent	-13614
▁cooked	-13615
▁enroll	-13616
▁finest	-13617
▁outset	-13618
▁overlo	-13619
▁prizes	-13620
▁warmth	-13621
language	-13622
▁Connect	-13623
▁Levites	-13624
▁Sitting	-13625
▁Version	-13626
▁leisure	-13627
▁outlets	-13628
▁picking	-13629
▁striker	-13630
▁Creative	-13631
▁Mountain	-13632
▁activate	-13633
▁advances	-13634
▁alliance	-13635
▁ambition	-13636
▁assuming	-13637
▁civilian	-13638
▁petition	-13639
▁proclaim	-13640
▁prompted	-13641
▁surround	-13642
▁troubled	-13643
▁wildlife	-13644
▁actresses	-13645
▁advancing	-13646
▁affection	-13647
▁civilians	-13648
▁diagnosis	-13649
▁excessive	-13650
▁inflicted	-13651
▁predecess	-13652
▁radiation	-13653
▁remainder	-13654
▁reviewing	-13655
▁screaming	-13656
▁Personally	-13657
▁affiliated	-13658
▁algorithms	-13659
▁competitor	-13660
▁dependence	-13661
▁presidents	-13662
▁professors	-13663
▁sacrificed	-13664
▁composition	-13665
▁legislative	-13666
▁connectivity	-13667
▁subscription	-13668
▁uncomfortable	-13669
▁sustainability	-13670
??	-13671
AK	-13672
TR	-13673
bi	-13674
km	-13675
vy	-13676
Mom	-13677
aba	-13678
vol	-13679
▁62	-13680
▁63	-13681
▁8:	-13682
▁Dh	-13683
▁Fu	-13684
▁MB	-13685
grim	-13686
isha	-13687
ixon	-13688
ndum	-13689
omer	-13690
pees	-13691
some	-13692
▁24-	-13693
▁Bag	-13694
▁Few	-13695
▁GRE	-13696
▁Jen	-13697
▁Thr	-13698
▁sem	-13699
▁tie	-13700
Until	-13701
atile	-13702
iking	-13703
mails	-13704
rance	-13705
uated	-13706
utory	-13707
▁3000	-13708
▁Ball	-13709
▁Gene	-13710
▁Jama	-13711
▁Peru	-13712
▁Porn	-13713
▁Rece	-13714
▁Rule	-13715
▁Ruth	-13716
▁Sikh	-13717
▁THAT	-13718
▁gram	-13719
▁grin	-13720
▁inex	-13721
▁lakh	-13722
▁neur	-13723
▁orph	-13724
▁wary	-13725
▁wipe	-13726
terior	-13727
uation	-13728
▁1994,	-13729
▁Alger	-13730
▁Enemy	-13731
▁Jason	-13732
▁Mirac	-13733
▁Price	-13734
▁Prior	-13735
▁Sabha	-13736
▁Venez	-13737
▁pione	-13738
▁rival	-13739
▁tends	-13740
▁trace	-13741
▁wider	-13742
▁Lastly	-13743
▁Photos	-13744
▁Places	-13745
▁bounce	-13746
▁danced	-13747
▁jungle	-13748
▁pledge	-13749
▁rained	-13750
▁rested	-13751
▁shield	-13752
▁underm	-13753
igarette	-13754
▁Amazing	-13755
▁Armenia	-13756
▁Thirdly	-13757
▁anxious	-13758
▁deceive	-13759
▁earning	-13760
▁fiction	-13761
▁glasses	-13762
▁loading	-13763
▁planted	-13764
▁praises	-13765
▁relying	-13766
▁seventy	-13767
▁tattoos	-13768
▁tragedy	-13769
▁Official	-13770
▁Province	-13771
▁democrat	-13772
▁doubtful	-13773
▁endorsed	-13774
▁evolving	-13775
▁fountain	-13776
▁infinite	-13777
▁purified	-13778
▁terribly	-13779
▁treating	-13780
▁Surprised	-13781
▁backwards	-13782
▁migration	-13783
▁motivated	-13784
▁musicians	-13785
responsible	-13786
▁associates	-13787
▁dictionary	-13788
▁imprisoned	-13789
▁introduces	-13790
▁midfielder	-13791
▁psychology	-13792
▁researcher	-13793
▁suspension	-13794
▁conclusions	-13795
▁notification	-13796
4]	-13797
UB	-13798
:32	-13799
bie	-13800
eor	-13801
itz	-13802
rec	-13803
▁97	-13804
Book	-13805
Stop	-13806
emed	-13807
hess	-13808
riel	-13809
rint	-13810
▁AFP	-13811
▁Enc	-13812
▁Gra	-13813
▁Occ	-13814
▁Omn	-13815
▁kit	-13816
▁nit	-13817
▁pin	-13818
again	-13819
jamin	-13820
▁Chat	-13821
▁Maur	-13822
▁Type	-13823
▁dual	-13824
▁horn	-13825
▁toug	-13826
▁××××	-13827
cerity	-13828
ioxide	-13829
member	-13830
omever	-13831
render	-13832
▁1997.	-13833
▁Multi	-13834
▁Songs	-13835
▁bount	-13836
▁burnt	-13837
▁cabin	-13838
▁chips	-13839
▁drama	-13840
▁drown	-13841
▁liars	-13842
▁reset	-13843
▁sworn	-13844
▁Impact	-13845
▁Losing	-13846
▁Punjab	-13847
▁Sexual	-13848
▁Uganda	-13849
▁christ	-13850
▁luxury	-13851
▁poured	-13852
▁retrie	-13853
▁rocket	-13854
▁sleeps	-13855
▁strain	-13856
▁whilst	-13857
▁yearly	-13858
▁Arsenal	-13859
▁Clearly	-13860
▁Forgive	-13861
▁Husband	-13862
▁Limited	-13863
▁educate	-13864
▁ensured	-13865
▁filling	-13866
▁nearest	-13867
▁pretend	-13868
▁recited	-13869
▁viruses	-13870
▁Aviation	-13871
▁adorable	-13872
▁avoiding	-13873
▁backlink	-13874
▁cannabis	-13875
▁gameplay	-13876
▁minerals	-13877
▁perceive	-13878
▁postpone	-13879
▁sexually	-13880
▁sometime	-13881
▁starving	-13882
▁tendency	-13883
▁thirteen	-13884
▁validity	-13885
▁Resources	-13886
▁Wikimedia	-13887
▁accessing	-13888
▁beginners	-13889
▁corrected	-13890
▁penalties	-13891
▁reputable	-13892
▁revealing	-13893
▁superhero	-13894
▁transfers	-13895
▁Successful	-13896
▁Television	-13897
▁coordinate	-13898
▁influences	-13899
▁motivation	-13900
▁persecuted	-13901
▁substances	-13902
▁Certificate	-13903
▁Sustainable	-13904
▁foundations	-13905
▁permissions	-13906
▁individually	-13907
▁occasionally	-13908
'?	-13909
49	-13910
5:	-13911
PP	-13912
tw	-13913
uz	-13914
-11	-13915
CoV	-13916
IFE	-13917
Ver	-13918
aro	-13919
iac	-13920
▁87	-13921
▁<3	-13922
▁AL	-13923
▁Aj	-13924
▁CF	-13925
▁HA	-13926
Part	-13927
asha	-13928
mate	-13929
olis	-13930
▁140	-13931
▁187	-13932
▁31,	-13933
▁Lay	-13934
▁UEF	-13935
▁Vin	-13936
helle	-13937
iator	-13938
icate	-13939
isher	-13940
▁1993	-13941
▁Came	-13942
▁Dont	-13943
▁Finn	-13944
▁Mont	-13945
▁amid	-13946
▁clip	-13947
▁hits	-13948
▁myth	-13949
▁rear	-13950
▁ware	-13951
ducted	-13952
screen	-13953
uction	-13954
wealth	-13955
zekiah	-13956
▁Arbit	-13957
▁Movie	-13958
▁bored	-13959
▁griev	-13960
▁knife	-13961
▁omnip	-13962
▁rocks	-13963
▁thats	-13964
▁thumb	-13965
ormally	-13966
▁Celebr	-13967
▁Darwin	-13968
▁Driver	-13969
▁Sharma	-13970
▁evolve	-13971
▁incomp	-13972
▁overth	-13973
▁recept	-13974
▁recipe	-13975
▁spared	-13976
▁...××××	-13977
▁Explain	-13978
▁Holland	-13979
▁Officer	-13980
▁Revenue	-13981
▁Someday	-13982
▁Written	-13983
▁apology	-13984
▁bearing	-13985
▁beating	-13986
▁scenery	-13987
▁smiling	-13988
▁Describe	-13989
▁Physical	-13990
▁Progress	-13991
▁Venezuel	-13992
▁activist	-13993
▁bicycles	-13994
▁defender	-13995
▁defining	-13996
▁destined	-13997
▁explicit	-13998
▁magician	-13999
▁magnetic	-14000
▁marketer	-14001
▁overview	-14002
▁perished	-14003
▁sciences	-14004
▁taxation	-14005
▁amendment	-14006
▁generates	-14007
▁illegally	-14008
▁reception	-14009
▁Azerbaijan	-14010
▁accredited	-14011
▁beforehand	-14012
▁discharged	-14013
▁excitement	-14014
▁highlights	-14015
▁invitation	-14016
▁protesters	-14017
▁publishers	-14018
▁references	-14019
▁variations	-14020
▁businessman	-14021
▁incorporate	-14022
▁interpreted	-14023
▁characterized	-14024
▁compatibility	-14025
▁globalization	-14026
DF	-14027
DI	-14028
IU	-14029
UL	-14030
oj	-14031
▁म	-14032
-16	-14033
Con	-14034
OTH	-14035
ori	-14036
ovo	-14037
rad	-14038
▁2%	-14039
▁98	-14040
▁Uh	-14041
▁gy	-14042
iasm	-14043
oded	-14044
pean	-14045
them	-14046
thur	-14047
▁1/2	-14048
▁Jun	-14049
▁Kan	-14050
▁Luk	-14051
▁ped	-14052
ATION	-14053
ckets	-14054
erers	-14055
gener	-14056
urred	-14057
▁Dave	-14058
▁Hond	-14059
▁Mist	-14060
▁Ruby	-14061
▁Shit	-14062
▁cuts	-14063
▁dent	-14064
▁detr	-14065
▁diam	-14066
▁doct	-14067
▁gang	-14068
▁wand	-14069
Romans	-14070
ifting	-14071
overty	-14072
▁1994.	-14073
▁1997,	-14074
▁DAVID	-14075
▁Older	-14076
▁Yours	-14077
▁audit	-14078
▁cargo	-14079
▁cheer	-14080
▁gross	-14081
▁risen	-14082
▁sorce	-14083
▁stumb	-14084
▁Annual	-14085
▁Growth	-14086
▁Howard	-14087
▁Kuwait	-14088
▁Teresa	-14089
▁aliens	-14090
▁breach	-14091
▁condom	-14092
▁damned	-14093
▁fisher	-14094
▁hypocr	-14095
▁oceans	-14096
▁steady	-14097
▁varied	-14098
▁virtue	-14099
▁Commons	-14100
▁Exalted	-14101
▁Parties	-14102
▁Saviour	-14103
▁Talking	-14104
▁Warning	-14105
▁arrives	-14106
▁dioxide	-14107
▁emperor	-14108
▁keyword	-14109
▁painted	-14110
▁psychic	-14111
▁shortly	-14112
▁steroid	-14113
▁violate	-14114
forgiving	-14115
▁Division	-14116
▁Violence	-14117
▁confront	-14118
▁crossing	-14119
▁missions	-14120
▁redirect	-14121
▁syndrome	-14122
▁threaten	-14123
▁Officials	-14124
▁Strategic	-14125
▁accounted	-14126
▁analyzing	-14127
▁clarified	-14128
▁decentral	-14129
▁detriment	-14130
▁precisely	-14131
▁voluntary	-14132
▁harassment	-14133
▁negatively	-14134
▁referendum	-14135
▁Partnership	-14136
▁accommodate	-14137
▁expectation	-14138
▁participant	-14139
▁transforming	-14140
▁environmentally	-14141
▁straightforward	-14142
:-	-14143
Af	-14144
CP	-14145
DC	-14146
SR	-14147
da	-14148
gi	-14149
wa	-14150
.""	-14151
:40	-14152
eep	-14153
ika	-14154
oku	-14155
tar	-14156
▁73	-14157
▁DE	-14158
▁ps	-14159
▁ug	-14160
laim	-14161
owse	-14162
ulum	-14163
uten	-14164
▁Ary	-14165
▁Bed	-14166
▁Fre	-14167
▁ICT	-14168
▁Nay	-14169
▁Und	-14170
▁awe	-14171
▁cra	-14172
▁rac	-14173
Sorry	-14174
about	-14175
armed	-14176
obody	-14177
raint	-14178
rians	-14179
ushed	-14180
water	-14181
▁1999	-14182
▁Anne	-14183
▁Brad	-14184
▁Carl	-14185
▁Laug	-14186
▁Prim	-14187
▁Rose	-14188
▁Soph	-14189
▁cruc	-14190
▁lens	-14191
▁mole	-14192
▁quar	-14193
▁sink	-14194
▁unhe	-14195
apable	-14196
astern	-14197
atable	-14198
iaphas	-14199
▁Annas	-14200
▁Domin	-14201
▁acids	-14202
▁arrog	-14203
▁dated	-14204
▁decis	-14205
▁dimin	-14206
▁mobil	-14207
arently	-14208
▁Jeremy	-14209
▁Serbia	-14210
▁Square	-14211
▁analys	-14212
▁decree	-14213
▁dreamt	-14214
▁equity	-14215
▁evildo	-14216
▁locate	-14217
▁milest	-14218
▁stimul	-14219
▁theore	-14220
oriented	-14221
▁Deliver	-14222
▁Provide	-14223
▁commits	-14224
▁conquer	-14225
▁partial	-14226
▁seniors	-14227
▁toilets	-14228
▁tongues	-14229
▁uniform	-14230
▁watches	-14231
▁Atlantic	-14232
▁Campaign	-14233
▁Hezekiah	-14234
▁Sanskrit	-14235
▁Virginia	-14236
▁destroys	-14237
▁dressing	-14238
▁enrolled	-14239
▁spectrum	-14240
▁tailored	-14241
▁whomever	-14242
especially	-14243
▁Hollywood	-14244
▁anonymous	-14245
▁directory	-14246
▁intensity	-14247
▁obedience	-14248
▁offerings	-14249
▁contacting	-14250
▁economists	-14251
▁extensions	-14252
▁fulfilling	-14253
▁practition	-14254
▁Interesting	-14255
▁advertisers	-14256
▁predictions	-14257
▁revolutions	-14258
▁Surprisingly	-14259
▁multinational	-14260
▁accountability	-14261
MT	-14262
PL	-14263
kh	-14264
nz	-14265
300	-14266
AND	-14267
ANT	-14268
Com	-14269
die	-14270
hhh	-14271
igg	-14272
rer	-14273
urd	-14274
uts	-14275
▁Ju	-14276
▁NM	-14277
▁mg	-14278
▁ox	-14279
atri	-14280
hole	-14281
mael	-14282
site	-14283
▁19,	-14284
▁26.	-14285
▁29.	-14286
▁Kum	-14287
▁Luc	-14288
▁MUM	-14289
▁Meg	-14290
▁Nad	-14291
▁Pil	-14292
▁Yep	-14293
▁huh	-14294
▁sed	-14295
▁wik	-14296
Right	-14297
coins	-14298
count	-14299
ivery	-14300
nered	-14301
otrop	-14302
▁1920	-14303
▁1991	-14304
▁Cand	-14305
▁Jenn	-14306
▁Jobs	-14307
▁Mass	-14308
▁Pick	-14309
▁bell	-14310
▁bone	-14311
▁foss	-14312
▁puzz	-14313
▁rebe	-14314
▁soph	-14315
herent	-14316
tering	-14317
▁1998.	-14318
▁Alexa	-14319
▁Might	-14320
▁Quick	-14321
▁couch	-14322
▁crack	-14323
▁debts	-14324
▁divid	-14325
▁drone	-14326
▁exped	-14327
▁lamps	-14328
▁slain	-14329
▁stole	-14330
▁width	-14331
ainless	-14332
idences	-14333
rasonic	-14334
written	-14335
▁30,000	-14336
▁Castle	-14337
▁Remove	-14338
▁Survey	-14339
▁Terror	-14340
▁affirm	-14341
▁afflic	-14342
▁boards	-14343
▁labels	-14344
▁traded	-14345
▁versus	-14346
▁yelled	-14347
▁youths	-14348
economic	-14349
lication	-14350
▁Alright	-14351
▁Iceland	-14352
▁Romania	-14353
▁filming	-14354
▁jackpot	-14355
▁poorest	-14356
▁tempted	-14357
▁trapped	-14358
▁variant	-14359
ervations	-14360
▁Caiaphas	-14361
▁Mohammed	-14362
▁Regional	-14363
▁abundant	-14364
▁bothered	-14365
▁deadline	-14366
▁inspires	-14367
▁marrying	-14368
▁mourning	-14369
▁pleasing	-14370
▁acquiring	-14371
▁attacking	-14372
▁colleague	-14373
▁delicious	-14374
▁forefront	-14375
▁graduates	-14376
▁inquiries	-14377
▁measuring	-14378
▁negotiate	-14379
▁partially	-14380
▁Employment	-14381
▁ambassador	-14382
▁enthusiasm	-14383
▁graduation	-14384
▁microphone	-14385
▁witnessing	-14386
▁Established	-14387
▁arrangement	-14388
▁interviewed	-14389
▁necessities	-14390
▁registering	-14391
▁respiratory	-14392
▁threatening	-14393
▁distributing	-14394
▁nonimmigrant	-14395
▁reconciliation	-14396
KJV	-14397
TER	-14398
awn	-14399
hou	-14400
yer	-14401
▁($	-14402
▁9/	-14403
▁BL	-14404
▁Ja	-14405
▁LA	-14406
▁SU	-14407
Fear	-14408
anim	-14409
atre	-14410
ella	-14411
eren	-14412
itus	-14413
rank	-14414
rolo	-14415
wear	-14416
week	-14417
▁118	-14418
▁160	-14419
▁25,	-14420
▁Aer	-14421
▁Ast	-14422
▁Guy	-14423
▁Kam	-14424
▁Lux	-14425
▁Obs	-14426
▁Toy	-14427
▁htt	-14428
▁hug	-14429
▁wet	-14430
▁zoo	-14431
adona	-14432
appro	-14433
conon	-14434
erver	-14435
vance	-14436
▁(199	-14437
▁Amen	-14438
▁Join	-14439
▁Lack	-14440
▁Marc	-14441
▁Pent	-14442
▁biod	-14443
▁bulk	-14444
▁chef	-14445
▁evac	-14446
▁fert	-14447
▁knee	-14448
▁lest	-14449
▁mild	-14450
▁pond	-14451
▁unve	-14452
roller	-14453
seeing	-14454
ulator	-14455
▁Andre	-14456
▁Diego	-14457
▁Marsh	-14458
▁Nixon	-14459
▁Visit	-14460
▁boats	-14461
▁chaos	-14462
▁cited	-14463
▁feeds	-14464
▁incom	-14465
▁Battle	-14466
▁Myself	-14467
▁Poetry	-14468
▁Streng	-14469
▁autumn	-14470
▁depths	-14471
▁namely	-14472
▁ransom	-14473
▁safest	-14474
▁scenes	-14475
▁sensit	-14476
▁stocks	-14477
▁surviv	-14478
▁tracks	-14479
▁upside	-14480
graduate	-14481
▁AutoCAD	-14482
▁Individ	-14483
▁Praying	-14484
▁Purpose	-14485
▁Virtual	-14486
▁battles	-14487
▁bottles	-14488
▁confron	-14489
▁prestig	-14490
▁ratings	-14491
▁scoring	-14492
▁shorter	-14493
▁undergo	-14494
▁vitamin	-14495
▁Maradona	-14496
▁beverage	-14497
▁boundary	-14498
▁consolid	-14499
▁deposits	-14500
▁fourteen	-14501
▁intimate	-14502
▁patterns	-14503
▁regulate	-14504
▁sickness	-14505
▁spammers	-14506
▁startups	-14507
▁Assistant	-14508
▁Cambridge	-14509
▁Universal	-14510
▁attribute	-14511
▁corrupted	-14512
▁neighbour	-14513
▁rejoicing	-14514
▁sustained	-14515
▁testifies	-14516
▁Apparently	-14517
▁devastated	-14518
▁Translation	-14519
▁accumulated	-14520
▁frustrating	-14521
▁recognizing	-14522
▁Commissioner	-14523
▁preservation	-14524
▁Communication	-14525
▁configuration	-14526
66	-14527
CI	-14528
HD	-14529
Su	-14530
fa	-14531
fi	-14532
vi	-14533
:47	-14534
SEO	-14535
aco	-14536
alo	-14537
aus	-14538
azz	-14539
erk	-14540
oli	-14541
ova	-14542
uns	-14543
▁85	-14544
▁DR	-14545
▁ah	-14546
▁di	-14547
asty	-14548
blog	-14549
eman	-14550
olve	-14551
prot	-14552
wife	-14553
yard	-14554
▁Jin	-14555
▁RSS	-14556
▁Rog	-14557
▁Tan	-14558
▁Tea	-14559
▁ske	-14560
▁vet	-14561
▁wow	-14562
Point	-14563
emark	-14564
imens	-14565
thood	-14566
three	-14567
▁$200	-14568
▁Bond	-14569
▁Buff	-14570
▁Goal	-14571
▁Hmmm	-14572
▁Into	-14573
▁Ivan	-14574
▁Jude	-14575
▁Prep	-14576
▁Rise	-14577
▁Trip	-14578
▁UEFA	-14579
▁conj	-14580
▁deck	-14581
▁marg	-14582
▁ther	-14583
▁wing	-14584
Script	-14585
Should	-14586
ennium	-14587
keeper	-14588
master	-14589
▁2003,	-14590
▁4,000	-14591
▁7,000	-14592
▁Ident	-14593
▁Shoot	-14594
▁aches	-14595
▁admin	-14596
▁emplo	-14597
▁pause	-14598
▁rated	-14599
▁socio	-14600
▁tales	-14601
America	-14602
English	-14603
Matthew	-14604
faction	-14605
inition	-14606
ocation	-14607
ruption	-14608
service	-14609
▁Hindus	-14610
▁Miller	-14611
▁Mongol	-14612
▁Palace	-14613
▁Strong	-14614
▁admire	-14615
▁bewild	-14616
▁boring	-14617
▁curric	-14618
▁lyrics	-14619
▁voyage	-14620
Brothers	-14621
ccessful	-14622
▁Apostle	-14623
▁Firefox	-14624
▁Islands	-14625
▁Suggest	-14626
▁Witness	-14627
▁adviser	-14628
▁drought	-14629
▁flowing	-14630
▁metrics	-14631
▁princes	-14632
Therefore	-14633
▁donation	-14634
▁efficacy	-14635
▁generous	-14636
▁keyboard	-14637
▁likeness	-14638
▁maritime	-14639
▁pharmacy	-14640
▁Investors	-14641
▁Socialist	-14642
▁Solutions	-14643
▁Worldwide	-14644
▁belonging	-14645
▁desirable	-14646
[...]
