<unk>	0
<s>	0
</s>	0
<pad>	0
<0x00>	0
<0x01>	0
<0x02>	0
<0x03>	0
<0x04>	0
<0x05>	0
<0x06>	0
<0x07>	0
<0x08>	0
<0x09>	0
<0x0A>	0
<0x0B>	0
<0x0C>	0
<0x0D>	0
<0x0E>	0
<0x0F>	0
<0x10>	0
<0x11>	0
<0x12>	0
<0x13>	0
<0x14>	0
<0x15>	0
<0x16>	0
<0x17>	0
<0x18>	0
<0x19>	0
<0x1A>	0
<0x1B>	0
<0x1C>	0
<0x1D>	0
<0x1E>	0
<0x1F>	0
<0x20>	0
<0x21>	0
<0x22>	0
<0x23>	0
<0x24>	0
<0x25>	0
<0x26>	0
<0x27>	0
<0x28>	0
<0x29>	0
<0x2A>	0
<0x2B>	0
<0x2C>	0
<0x2D>	0
<0x2E>	0
<0x2F>	0
<0x30>	0
<0x31>	0
<0x32>	0
<0x33>	0
<0x34>	0
<0x35>	0
<0x36>	0
<0x37>	0
<0x38>	0
<0x39>	0
<0x3A>	0
<0x3B>	0
<0x3C>	0
<0x3D>	0
<0x3E>	0
<0x3F>	0
<0x40>	0
<0x41>	0
<0x42>	0
<0x43>	0
<0x44>	0
<0x45>	0
<0x46>	0
<0x47>	0
<0x48>	0
<0x49>	0
<0x4A>	0
<0x4B>	0
<0x4C>	0
<0x4D>	0
<0x4E>	0
<0x4F>	0
<0x50>	0
<0x51>	0
<0x52>	0
<0x53>	0
<0x54>	0
<0x55>	0
<0x56>	0
<0x57>	0
<0x58>	0
<0x59>	0
<0x5A>	0
<0x5B>	0
<0x5C>	0
<0x5D>	0
<0x5E>	0
<0x5F>	0
<0x60>	0
<0x61>	0
<0x62>	0
<0x63>	0
<0x64>	0
<0x65>	0
<0x66>	0
<0x67>	0
<0x68>	0
<0x69>	0
<0x6A>	0
<0x6B>	0
<0x6C>	0
<0x6D>	0
<0x6E>	0
<0x6F>	0
<0x70>	0
<0x71>	0
<0x72>	0
<0x73>	0
<0x74>	0
<0x75>	0
<0x76>	0
<0x77>	0
<0x78>	0
<0x79>	0
<0x7A>	0
<0x7B>	0
<0x7C>	0
<0x7D>	0
<0x7E>	0
<0x7F>	0
<0x80>	0
<0x81>	0
<0x82>	0
<0x83>	0
<0x84>	0
<0x85>	0
<0x86>	0
<0x87>	0
<0x88>	0
<0x89>	0
<0x8A>	0
<0x8B>	0
<0x8C>	0
<0x8D>	0
<0x8E>	0
<0x8F>	0
<0x90>	0
<0x91>	0
<0x92>	0
<0x93>	0
<0x94>	0
<0x95>	0
<0x96>	0
<0x97>	0
<0x98>	0
<0x99>	0
<0x9A>	0
<0x9B>	0
<0x9C>	0
<0x9D>	0
<0x9E>	0
<0x9F>	0
<0xA0>	0
<0xA1>	0
<0xA2>	0
<0xA3>	0
<0xA4>	0
<0xA5>	0
<0xA6>	0
<0xA7>	0
<0xA8>	0
<0xA9>	0
<0xAA>	0
<0xAB>	0
<0xAC>	0
<0xAD>	0
<0xAE>	0
<0xAF>	0
<0xB0>	0
<0xB1>	0
<0xB2>	0
<0xB3>	0
<0xB4>	0
<0xB5>	0
<0xB6>	0
<0xB7>	0
<0xB8>	0
<0xB9>	0
<0xBA>	0
<0xBB>	0
<0xBC>	0
<0xBD>	0
<0xBE>	0
<0xBF>	0
<0xC0>	0
<0xC1>	0
<0xC2>	0
<0xC3>	0
<0xC4>	0
<0xC5>	0
<0xC6>	0
<0xC7>	0
<0xC8>	0
<0xC9>	0
<0xCA>	0
<0xCB>	0
<0xCC>	0
<0xCD>	0
<0xCE>	0
<0xCF>	0
<0xD0>	0
<0xD1>	0
<0xD2>	0
<0xD3>	0
<0xD4>	0
<0xD5>	0
<0xD6>	0
<0xD7>	0
<0xD8>	0
<0xD9>	0
<0xDA>	0
<0xDB>	0
<0xDC>	0
<0xDD>	0
<0xDE>	0
<0xDF>	0
<0xE0>	0
<0xE1>	0
<0xE2>	0
<0xE3>	0
<0xE4>	0
<0xE5>	0
<0xE6>	0
<0xE7>	0
<0xE8>	0
<0xE9>	0
<0xEA>	0
<0xEB>	0
<0xEC>	0
<0xED>	0
<0xEE>	0
<0xEF>	0
<0xF0>	0
<0xF1>	0
<0xF2>	0
<0xF3>	0
<0xF4>	0
<0xF5>	0
<0xF6>	0
<0xF7>	0
<0xF8>	0
<0xF9>	0
<0xFA>	0
<0xFB>	0
<0xFC>	0
<0xFD>	0
<0xFE>	0
<0xFF>	0
▁स	-0
र्	-1
न्	-2
को	-3
▁प	-4
मा	-5
▁क	-6
▁ह	-7
्र	-8
▁त	-9
ला	-10
▁ग	-11
ले	-12
्य	-13
▁म	-14
▁र	-15
▁छ	-16
▁अ	-17
▁य	-18
▁भ	-19
हर	-20
▁।	-21
ने	-22
▁ब	-23
का	-24
▁उ	-25
▁ज	-26
▁व	-27
नि	-28
▁गर्	-29
लाई	-30
▁द	-31
नु	-32
स्	-33
▁आ	-34
क्	-35
ार	-36
हरू	-37
ाम	-38
▁प्र	-39
पा	-40
ति	-41
ेर	-42
नी	-43
▁ए	-44
▁हो	-45
न्छ	-46
यो	-47
▁हु	-48
ना	-49
ता	-50
▁मा	-51
▁तपा	-52
▁ला	-53
▁तपाई	-54
हा	-55
▁यो	-56
▁थ	-57
▁न	-58
▁च	-59
▁वि	-60
▁लाग	-61
म्	-62
्व	-63
▁गर	-64
हि	-65
▁हाम	-66
रा	-67
▁एक	-68
ित	-69
ैन	-70
▁त्य	-71
हरु	-72
या	-73
▁ख	-74
▁पनि	-75
दा	-76
िन	-77
▁के	-78
्न	-79
▁गर्न	-80
्या	-81
िए	-82
नुह	-83
▁कु	-84
▁तपाईं	-85
▁हामी	-86
िक	-87
▁लागि	-88
▁सा	-89
▁नि	-90
स्त	-91
▁श	-92
▁फ	-93
▁उनी	-94
▁को	-95
वा	-96
▁यस	-97
▁ल	-98
▁भने	-99
्रो	-100
हाँ	-101
▁सब	-102
री	-103
▁ध	-104
त्	-105
त्र	-106
▁सक्	-107
▁भन्	-108
▁सम	-109
ैले	-110
्ट	-111
ेको	-112
▁दे	-113
▁ति	-114
बा	-115
▁कि	-116
▁आफ	-117
ल्	-118
▁सं	-119
▁सबै	-120
क्ष	-121
▁सु	-122
▁उन	-123
ही	-124
▁पा	-125
▁रा	-126
रि	-127
ौं	-128
▁छैन	-129
नुहु	-130
▁'	-131
▁मेर	-132
लो	-133
ियो	-134
एको	-135
नेछ	-136
..	-137
ान	-138
▁?	-139
टा	-140
▁सम्	-141
▁तर	-142
▁छन्	-143
▁ड	-144
▁"	-145
ँग	-146
बाट	-147
▁वा	-148
▁चा	-149
▁बा	-150
▁कुरा	-151
▁देख	-152
▁मैले	-153
दछ	-154
▁मेरो	-155
▁मलाई	-156
श्व	-157
▁पु	-158
▁धेर	-159
▁स्	-160
▁आफ्न	-161
सा	-162
▁धेरै	-163
था	-164
दैन	-165
दै	-166
सँग	-167
ाउ	-168
ष्ट	-169
नुहुन्छ	-170
▁घ	-171
द्	-172
मी	-173
▁जा	-174
योग	-175
▁थिए	-176
र्ष	-177
ेका	-178
कार	-179
▁त्यस	-180
्च	-181
▁अन्	-182
▁हुन्छ	-183
▁अनु	-184
▁थियो	-185
्रा	-186
नै	-187
हरूको	-188
▁दु	-189
रु	-190
ेल	-191
ेक	-192
▁(	-193
िन्	-194
▁आफ्नो	-195
▁नै	-196
ेश	-197
▁इ	-198
दि	-199
▁समय	-200
▁था	-201
ूर्	-202
पर्	-203
▁व्य	-204
▁का	-205
▁ठ	-206
रह	-207
इन	-208
▁दि	-209
पमा	-210
▁ट	-211
▁परि	-212
त्य	-213
ोस्	-214
▁कुनै	-215
धि	-216
हिले	-217
▁सक्छ	-218
प्	-219
▁दिन	-220
▁उनले	-221
▁त्यो	-222
क्ति	-223
कि	-224
▁पर्	-225
▁रू	-226
वि	-227
्रि	-228
▁कस	-229
▁१	-230
▁स्व	-231
ली	-232
भा	-233
ती	-234
ारे	-235
▁तिमी	-236
जा	-237
छि	-238
हरूले	-239
र्थ	-240
▁.	-241
्छ	-242
▁गर्ने	-243
स्तो	-244
▁-	-245
ेट	-246
▁काम	-247
▁एउ	-248
▁छु	-249
▁गर्छ	-250
नुहोस्	-251
▁ले	-252
िएको	-253
▁वर्ष	-254
रण	-255
▁गर्नु	-256
▁सो	-257
▁उत्	-258
▁२	-259
न्द	-260
▁विश्व	-261
्यो	-262
सले	-263
▁चाह	-264
▁रह	-265
उँ	-266
ुन	-267
▁हुन	-268
▁प्रा	-269
▁केही	-270
▁किन	-271
▁उप	-272
▁थाहा	-273
▁भन्ने	-274
हरूलाई	-275
▁गर्दछ	-276
लि	-277
▁प्रयोग	-278
ंग	-279
▁जी	-280
▁क्	-281
▁साथ	-282
▁बि	-283
▁एउटा	-284
▁प्रति	-285
▁निर्	-286
...	-287
▁राम	-288
▁भए	-289
▁हा	-290
▁भा	-291
▁गरे	-292
▁हाम्रो	-293
▁मु	-294
म्म	-295
नको	-296
▁रूपमा	-297
▁यदि	-298
वश	-299
▁भन्दा	-300
▁तिनी	-301
▁पर	-302
रो	-303
ूर्ण	-304
▁गरि	-305
▁जो	-306
▁सि	-307
▁बारे	-308
▁1	-309
▁मानि	-310
मेर	-311
▁बु	-312
▁बना	-313
▁मात्र	-314
च्च	-315
▁उहाँ	-316
▁जीव	-317
▁राम्रो	-318
▁भएको	-319
▁बढ	-320
सी	-321
उन	-322
▁अब	-323
ारा	-324
▁समा	-325
द्ध	-326
न्ध	-327
न्दा	-328
ारण	-329
▁!	-330
गा	-331
ध्य	-332
▁जुन	-333
▁से	-334
▁व्यक्ति	-335
ोज	-336
न्य	-337
▁ती	-338
▁उनीहरु	-339
ित्र	-340
न्न	-341
वश्य	-342
नमा	-343
ास	-344
▁गरेको	-345
याँ	-346
▁मह	-347
क्षा	-348
ारी	-349
न्त	-350
▁अर्	-351
भन्दा	-352
▁मि	-353
▁छो	-354
म्प	-355
सको	-356
सार	-357
▁जब	-358
्री	-359
की	-360
▁यु	-361
▁अव	-362
र्य	-363
▁क्ष	-364
क्त	-365
टर	-366
त्व	-367
वश्यक	-368
▁महि	-369
्ञ	-370
प्त	-371
▁हे	-372
▁हुँ	-373
▁हुनेछ	-374
स्तै	-375
▁तपाईंको	-376
▁मानिस	-377
▁आवश्यक	-378
▁बारेमा	-379
▁या	-380
▁परिव	-381
▁यी	-382
स्ता	-383
▁होइन	-384
शा	-385
▁राख	-386
डि	-387
▁हामीले	-388
▁खा	-389
पछि	-390
▁यहाँ	-391
▁त्यहाँ	-392
कै	-393
ब्	-394
नुभ	-395
▁घर	-396
नुपर्	-397
्रम	-398
स्थ	-399
र्क	-400
▁भयो	-401
र्ता	-402
सम्म	-403
स्था	-404
▁अनि	-405
प्र	-406
पूर्ण	-407
▁पहि	-408
▁संग	-409
▁2	-410
▁उनको	-411
चार	-412
न्त्र	-413
भाव	-414
ौँ	-415
▁लेख	-416
▁ने	-417
देश	-418
▁देश	-419
▁बो	-420
र्म	-421
रू	-422
▁आज	-423
बन्ध	-424
▁हुन्	-425
सि	-426
▁खु	-427
▁२०	-428
िका	-429
▁राज	-430
उने	-431
ूल	-432
र्ट	-433
गत	-434
हरूमा	-435
ाउँ	-436
खि	-437
▁सह	-438
▁अहिले	-439
▁यसको	-440
▁रो	-441
ेस	-442
भव	-443
▁प्रश	-444
▁भनेर	-445
▁लि	-446
▁नयाँ	-447
▁कम	-448
▁ठू	-449
▁अमेर	-450
कारी	-451
▁गरिएको	-452
▁कसरी	-453
▁तपाईंलाई	-454
▁कम्प	-455
र्त	-456
मे	-457
दे	-458
श्वर	-459
श्च	-460
डा	-461
जना	-462
टो	-463
▁दुई	-464
रहेको	-465
▁ना	-466
▁अन्य	-467
ँच	-468
▁हुनुहुन्छ	-469
मान	-470
्ने	-471
▁अन्त	-472
▁खोज	-473
न्छु	-474
▁कारण	-475
के	-476
▁गरेका	-477
जी	-478
▁देखि	-479
निक	-480
्रे	-481
ेरि	-482
थि	-483
दन	-484
▁ठूलो	-485
यन	-486
▁हेर्	-487
इट	-488
उँछ	-489
्वारा	-490
▁अप	-491
▁यसलाई	-492
▁हामीलाई	-493
▁रु	-494
▁जसले	-495
▁पछि	-496
वाद	-497
▁झ	-498
कृ	-499
यु	-500
्रिय	-501
ण्	-502
न्छन्	-503
ाइ	-504
▁जीवन	-505
ज्ञ	-506
▁खेल	-507
डी	-508
▁फि	-509
▁पढ	-510
▁सोच	-511
ष्	-512
▁कार्य	-513
जि	-514
ेला	-515
▁हर	-516
▁गु	-517
▁सर	-518
▁पहिलो	-519
▁गर्दै	-520
▁पू	-521
बर	-522
▁बुझ	-523
पि	-524
तर	-525
▁विश	-526
ेम	-527
णा	-528
▁सामा	-529
एका	-530
दान	-531
नो	-532
धा	-533
यर	-534
▁अधि	-535
▁...	-536
▁ई	-537
सलाई	-538
▁जान	-539
▁सुर	-540
ाउन	-541
टक	-542
▁लाग्छ	-543
ैं	-544
▁यस्तो	-545
ण्ड	-546
▁अझ	-547
धार	-548
▁कम्पनी	-549
▁विश्वास	-550
▁महिला	-551
स्ट	-552
▁छौं	-553
करण	-554
ुक	-555
खा	-556
▁ची	-557
▁बढी	-558
▁तिम	-559
▁राष्ट	-560
▁सबैभन्दा	-561
▁प्रत्य	-562
▁तपाईंले	-563
लय	-564
▁प्राप्त	-565
ेत्र	-566
ेब	-567
▁सक्नुहुन्छ	-568
▁अर्को	-569
▁उत्पा	-570
धिक	-571
▁क्षेत्र	-572
रहेका	-573
च्चा	-574
▁फो	-575
ल्ला	-576
हरुले	-577
▁पर्छ	-578
▁अस	-579
▁वास्त	-580
▁गर्नुहोस्	-581
▁हि	-582
ेष	-583
▁व्यव	-584
घि	-585
▁सकि	-586
देखि	-587
इँ	-588
फल	-589
द्या	-590
▁भाग	-591
भि	-592
िन्न	-593
▁थिएन	-594
कर्ता	-595
हु	-596
गर	-597
▁मान	-598
ामी	-599
नुभयो	-600
ताको	-601
▁भेट	-602
त्वपूर्ण	-603
▁वास्तव	-604
▁बता	-605
वल	-606
▁सेवा	-607
स्या	-608
▁यसले	-609
▁लग	-610
चा	-611
▁,	-612
ङ्	-613
▁केहि	-614
▁शु	-615
जार	-616
न्ड	-617
▁नाम	-618
मै	-619
▁डि	-620
▁मो	-621
▁लागी	-622
माण	-623
ल्य	-624
जन	-625
नुपर्छ	-626
▁फेरि	-627
▁हरेक	-628
▁द्वारा	-629
क्स	-630
क्रम	-631
▁जे	-632
▁स्वा	-633
मो	-634
▁बच्चा	-635
▁डा	-636
मेश्वर	-637
▁दो	-638
▁हुने	-639
▁जन	-640
▁समस्या	-641
▁व्या	-642
▁समयमा	-643
लमा	-644
भु	-645
▁आमा	-646
▁जस्तै	-647
भर	-648
▁प्रश्न	-649
▁तपाईले	-650
र्ड	-651
र्ग	-652
▁साम	-653
▁प्रत्येक	-654
▁प्रेम	-655
समा	-656
▁सम्झ	-657
सक	-658
▁निय	-659
्नु	-660
▁परमेश्वर	-661
▁केवल	-662
▁जहाँ	-663
▁स्था	-664
वे	-665
▁सुरु	-666
▁मन	-667
▁शि	-668
▁सन्	-669
न्ट	-670
▁जना	-671
ुट	-672
ीमा	-673
क्षण	-674
▁बस्	-675
▁संसार	-676
▁सक	-677
नीति	-678
▁उनलाई	-679
पना	-680
थे	-681
▁तु	-682
▁बाहि	-683
र्श	-684
▁उनीहरू	-685
त्म	-686
▁परिवार	-687
▁विशेष	-688
▁सम्बन्ध	-689
ठा	-690
▁कति	-691
▁भग	-692
▁होला	-693
▁रि	-694
▁३	-695
द्य	-696
▁गर्नुपर्	-697
जिक	-698
सु	-699
▁भनि	-700
▁चि	-701
्रिया	-702
▁जि	-703
वी	-704
▁अमेरिका	-705
▁गा	-706
हरुको	-707
▁तपाईँ	-708
▁परिवर्त	-709
मको	-710
धान	-711
▁त्यसैले	-712
▁उसले	-713
▁दा	-714
दिन	-715
00	-716
▁चाहि	-717
ीच	-718
मि	-719
तको	-720
▁सोध	-721
▁तपाइँ	-722
▁जस्तो	-723
▁तपाईको	-724
▁कहिले	-725
▁अर्थ	-726
▁भगवा	-727
▁स्प	-728
थ्यो	-729
दी	-730
▁थि	-731
▁स्ट	-732
ोर	-733
▁तिम्रो	-734
in	-735
▁पुग	-736
▁उत्पादन	-737
▁तिनीहरू	-738
▁गर्नेछ	-739
युक्त	-740
र्या	-741
▁बस	-742
कु	-743
▁गर्छन्	-744
▁सकिन्छ	-745
▁बाहिर	-746
▁परिवर्तन	-747
्यान	-748
ध्ये	-749
र्व	-750
दैनन्	-751
▁लगा	-752
हरुलाई	-753
▁तपाईलाई	-754
छु	-755
▁सम्म	-756
छन्	-757
▁वेब	-758
▁चिन्	-759
▁कृ	-760
लको	-761
▁ता	-762
▁ऊ	-763
नुहुनेछ	-764
▁अन	-765
ग्र	-766
▁ओ	-767
द्द	-768
▁थिएँ	-769
यास	-770
क्षित	-771
ोक	-772
▁अनुसार	-773
▁पृ	-774
पी	-775
नले	-776
्राह	-777
▁अझै	-778
▁पहिले	-779
वेश	-780
▁प्रदान	-781
षय	-782
▁तथा	-783
▁3	-784
▁राज्य	-785
▁शा	-786
▁राष्ट्र	-787
डियो	-788
स्य	-789
▁उसको	-790
श्चित	-791
▁आफ्नै	-792
क्रिया	-793
ल्यै	-794
▁कहि	-795
▁भि	-796
नेट	-797
▁प्रभाव	-798
▁यात्र	-799
▁सामान्य	-800
णय	-801
▁आफ्	-802
उनु	-803
▁तय	-804
शी	-805
▁भार	-806
▁यही	-807
नीय	-808
▁निर्णय	-809
▁मान्छ	-810
टी	-811
▁इन्	-812
लब	-813
▁अघि	-814
▁उहाँले	-815
▁मेरा	-816
▁विषय	-817
ल्लाह	-818
रे	-819
▁जन्	-820
▁पै	-821
▁जानकारी	-822
र्च	-823
▁मूल	-824
▁बे	-825
▁औ	-826
लै	-827
लन	-828
▁गरी	-829
सो	-830
्राहक	-831
ब्द	-832
साय	-833
ष्ठ	-834
तमा	-835
लग	-836
▁ठाउँ	-837
▁अधिक	-838
▁ग्राहक	-839
▁सू	-840
भिन्न	-841
रक	-842
▁विद्या	-843
▁साथी	-844
▁कहिल्यै	-845
▁पूर्ण	-846
िएका	-847
▁छैनन्	-848
तन्त्र	-849
जे	-850
▁भइ	-851
▁मे	-852
▁उसलाई	-853
▁उनीहरूको	-854
▁गर्छु	-855
र्फ	-856
▁सरकार	-857
षा	-858
▁भित्र	-859
▁ल्या	-860
▁अस्	-861
कृति	-862
▁घट	-863
च्छ	-864
▁प्रयास	-865
वै	-866
▁किनकि	-867
▁क्या	-868
ख्या	-869
▁अवस्था	-870
▁मान्छे	-871
काश	-872
▁आफ्ना	-873
हित	-874
्दै	-875
er	-876
▁शक्ति	-877
▁लामो	-878
▁महिना	-879
▁अन्तर्	-880
▁पो	-881
▁पुन	-882
▁मद्द	-883
▁खो	-884
▁महा	-885
▁तीन	-886
▁स्थ	-887
ंश	-888
▁आँ	-889
यद	-890
एर	-891
िकी	-892
▁हेर	-893
▁भू	-894
▁आधार	-895
म्बर	-896
▁हुँदैन	-897
▁पि	-898
▁उच्च	-899
▁भनेको	-900
▁पूरा	-901
▁२०१	-902
▁यात्रा	-903
▁कहाँ	-904
▁मत	-905
▁सम्भव	-906
▁हुन्छन्	-907
यौं	-908
सर	-909
▁पुस्त	-910
ीत	-911
ष्टि	-912
ेकी	-913
मति	-914
▁छा	-915
▁मद्दत	-916
से	-917
त्ति	-918
▁शब्द	-919
▁१०	-920
ड़	-921
▁डरा	-922
तम	-923
▁विचार	-924
▁सफल	-925
▁20	-926
▁सूच	-927
▁निम्	-928
▁विक	-929
▁मृ	-930
▁अरु	-931
▁त्यही	-932
ज्ञा	-933
▁छोरा	-934
▁मुख	-935
▁उनीहरूले	-936
र्न	-937
▁महत्	-938
ष्य	-939
▁आशा	-940
टि	-941
भने	-942
▁आफू	-943
▁रे	-944
हो	-945
▁त्यसपछि	-946
▁नेपा	-947
▁विका	-948
▁बर्ष	-949
बल	-950
्टा	-951
on	-952
▁व्याप	-953
▁सहयोग	-954
हामी	-955
दाय	-956
▁अनुभव	-957
ल्प	-958
लिक	-959
▁सुरक्षा	-960
▁आवश्यकता	-961
▁पार	-962
वार	-963
▁पैसा	-964
र्थी	-965
▁रहे	-966
▁कार	-967
▁चाहन्छु	-968
▁जान्	-969
स्क	-970
▁प्रकार	-971
हरण	-972
गी	-973
दर्श	-974
▁4	-975
▁सी	-976
लत	-977
▁तिनीहरूले	-978
▁बीच	-979
साइट	-980
▁खे	-981
▁उदा	-982
▁टा	-983
हार	-984
▁किनभने	-985
बार	-986
▁अभि	-987
शि	-988
▁ढ	-989
▁तिमीलाई	-990
▁कसै	-991
▁सक्दैन	-992
▁हुनु	-993
▁प्	-994
सक्	-995
▁विभिन्न	-996
▁अफ	-997
▁रहेको	-998
▁रुपमा	-999
▁जन्म	-1000
त्मक	-1001
▁भन्न	-1002
स्थ्य	-1003
▁शहर	-1004
▁मौ	-1005
न्द्र	-1006
▁[	-1007
▁सुरक्षित	-1008
▁भवि	-1009
▁तिनीहरूलाई	-1010
तः	-1011
ूह	-1012
▁सद	-1013
▁घटना	-1014
्यु	-1015
▁दुवै	-1016
▁यद्य	-1017
▁पुस्तक	-1018
ें	-1019
रको	-1020
नुहुन्न	-1021
पन	-1022
▁समु	-1023
ूर्व	-1024
पो	-1025
प्ता	-1026
▁वेबसाइट	-1027
▁चु	-1028
एँ	-1029
लब्	-1030
इन्	-1031
नुभएको	-1032
▁महत्त्वपूर्ण	-1033
्रान्	-1034
▁उपलब्	-1035
▁धन्य	-1036
▁सक्दछ	-1037
▁हाम्रा	-1038
▁अमेरिकी	-1039
▁भाषा	-1040
▁लाई	-1041
पया	-1042
▁डर	-1043
गल	-1044
▁मानव	-1045
▁बाट	-1046
▁भविष्य	-1047
राष्ट	-1048
▁गर्नुभ	-1049
तिम	-1050
▁पुरा	-1051
▁पार्ट	-1052
▁बजार	-1053
दो	-1054
▁रात	-1055
▁बच	-1056
▁पटक	-1057
▁पानी	-1058
त्यु	-1059
▁छोड	-1060
▁प्रयोगकर्ता	-1061
ar	-1062
▁स्वास्थ्य	-1063
▁उठ	-1064
▁यद्यपि	-1065
▁आउ	-1066
▁सजि	-1067
▁उदाहरण	-1068
▁सत्य	-1069
an	-1070
▁उत्तर	-1071
▁अधिकार	-1072
▁१९	-1073
▁बिना	-1074
पर	-1075
▁गरेर	-1076
मु	-1077
▁A	-1078
▁ज्ञ	-1079
बु	-1080
▁भिडियो	-1081
▁कसैले	-1082
▁आग	-1083
इएको	-1084
▁सदस्य	-1085
▁स्थान	-1086
▁परी	-1087
रिका	-1088
▁तयार	-1089
▁अध्य	-1090
ीय	-1091
द्धि	-1092
डिया	-1093
▁मृत्यु	-1094
▁उनीहरुले	-1095
▁सही	-1096
ेद	-1097
▁चीज	-1098
ेन	-1099
▁बन्	-1100
▁कृपया	-1101
लाइन	-1102
▁फरक	-1103
▁उमेर	-1104
ल्न	-1105
ग्री	-1106
▁दिए	-1107
▁व्यवसाय	-1108
▁थप	-1109
▁सक्छन्	-1110
बी	-1111
▁संयुक्त	-1112
▁बनाउन	-1113
▁चाहा	-1114
▁आँखा	-1115
▁पक्ष	-1116
▁समर्थ	-1117
▁लिन	-1118
हरूका	-1119
▁महत्वपूर्ण	-1120
स्तु	-1121
▁प्रभु	-1122
▁दिन्छ	-1123
ल्या	-1124
रमा	-1125
सित	-1126
▁अनुमति	-1127
es	-1128
▁नियम	-1129
ेत	-1130
ोट	-1131
▁फर्क	-1132
नुहो	-1133
००	-1134
ेँ	-1135
▁गर्यो	-1136
वाह	-1137
▁महसु	-1138
न्या	-1139
▁निश्चित	-1140
▁स्पष्ट	-1141
▁प्रक्रिया	-1142
रोध	-1143
▁अन्तिम	-1144
▁उपलब्ध	-1145
▁आइ	-1146
▁भन्छन्	-1147
पति	-1148
▁गो	-1149
हरुमा	-1150
▁कोही	-1151
▁जवा	-1152
▁5	-1153
▁साइट	-1154
▁महसुस	-1155
ेलि	-1156
▁निर्माण	-1157
▁संस्	-1158
▁अगा	-1159
त्ता	-1160
▁बन्द	-1161
▁भन्छ	-1162
▁व्यक्तिगत	-1163
▁दृ	-1164
▁फिल्	-1165
▁गर्नुहुन्छ	-1166
▁गर्दा	-1167
पु	-1168
राष्ट्रिय	-1169
▁प्रो	-1170
त्या	-1171
कको	-1172
णी	-1173
▁कार्यक्रम	-1174
▁तरिका	-1175
▁आफै	-1176
कमा	-1177
▁अरू	-1178
▁आएको	-1179
▁मै	-1180
▁५	-1181
▁S	-1182
▁विकास	-1183
▁अनुस	-1184
णाली	-1185
व्य	-1186
▁कान	-1187
तिहा	-1188
▁भगवान	-1189
भित्र	-1190
▁मध्ये	-1191
▁अल्लाह	-1192
▁सक्छु	-1193
दम	-1194
▁लाग्	-1195
धारण	-1196
▁साँ	-1197
ग्	-1198
▁भु	-1199
▁विद्यार्थी	-1200
वरण	-1201
▁गरिन्छ	-1202
▁आयो	-1203
रुष	-1204
▁देख्न	-1205
ल्ने	-1206
▁भएका	-1207
▁श्री	-1208
▁प्रणाली	-1209
▁डे	-1210
▁है	-1211
▁छोरी	-1212
रोप	-1213
▁जित	-1214
▁ध्यान	-1215
ँदै	-1216
भग	-1217
▁मुख्य	-1218
▁विदेश	-1219
▁४	-1220
बारे	-1221
▁खुसी	-1222
▁अनलाइन	-1223
नेको	-1224
▁त्यसो	-1225
▁पर्या	-1226
▁ब्	-1227
▁जापा	-1228
▁हुनुपर्छ	-1229
▁हजार	-1230
एन	-1231
▁उनीहरूलाई	-1232
▁होस्	-1233
ग्य	-1234
▁फुट	-1235
▁अच	-1236
▁गर्दैन	-1237
▁सुन्द	-1238
▁समूह	-1239
शु	-1240
▁सबैलाई	-1241
िति	-1242
▁/	-1243
▁गरिरहेका	-1244
or	-1245
ंक	-1246
▁राजा	-1247
▁कठ	-1248
▁स्क	-1249
▁मूल्य	-1250
en	-1251
▁उपकरण	-1252
स्रो	-1253
▁पुरुष	-1254
▁निकै	-1255
▁योजना	-1256
▁फोन	-1257
▁घण	-1258
▁कथा	-1259
▁सर्	-1260
▁वै	-1261
▁स्वी	-1262
▁s	-1263
,'	-1264
जु	-1265
चित	-1266
तीय	-1267
ून	-1268
झा	-1269
▁वास्तवमा	-1270
द्यो	-1271
पोर्ट	-1272
▁पत्र	-1273
ल्क	-1274
छा	-1275
▁छन	-1276
▁चार	-1277
▁माग	-1278
▁वास्तविक	-1279
▁बाँ	-1280
▁लिए	-1281
▁सजिलो	-1282
सम	-1283
▁चाहन्छ	-1284
▁सुन्दर	-1285
▁स्वतन्त्र	-1286
▁सामाजिक	-1287
▁कुन	-1288
▁झू	-1289
▁नजिक	-1290
िन्द	-1291
काल	-1292
सं	-1293
▁19	-1294
वर	-1295
▁पृष्ठ	-1296
द्योग	-1297
▁उपयोग	-1298
▁हात	-1299
▁प्रकाश	-1300
▁मात्रै	-1301
ीको	-1302
नेछन्	-1303
▁वर्षको	-1304
▁अन्तर्राष्ट्रिय	-1305
▁201	-1306
▁दोस्रो	-1307
ट्ट	-1308
▁चिन्ता	-1309
▁जारी	-1310
▁सुन्	-1311
फा	-1312
लाइ	-1313
पटक	-1314
▁व्यापार	-1315
▁ईश्वर	-1316
▁धन्यवाद	-1317
▁यति	-1318
▁जीवनमा	-1319
गरिक	-1320
▁गर्नुपर्छ	-1321
at	-1322
ेक्	-1323
▁सँग	-1324
ीक	-1325
▁गति	-1326
ारि	-1327
▁इन्टर	-1328
षम	-1329
▁तिमीले	-1330
▁लगभग	-1331
तया	-1332
▁याद	-1333
▁नागरिक	-1334
▁डाटा	-1335
संग	-1336
▁सक्षम	-1337
▁त्यस्तो	-1338
▁विकल्प	-1339
बि	-1340
▁यू	-1341
▁पार्	-1342
▁जाने	-1343
राम	-1344
▁सायद	-1345
▁अगाडि	-1346
▁छौ	-1347
▁सके	-1348
▁एक्	-1349
▁जनता	-1350
▁राजनीति	-1351
माथि	-1352
▁सम्भाव	-1353
▁छि	-1354
▁उनका	-1355
▁हप्ता	-1356
▁प्रमाण	-1357
,"	-1358
▁जु	-1359
▁लोक	-1360
हरूसँग	-1361
▁सम्प	-1362
▁ज्ञान	-1363
यम	-1364
▁घो	-1365
▁आई	-1366
▁घरमा	-1367
जाति	-1368
म्भ	-1369
▁कौ	-1370
▁पी	-1371
▁गलत	-1372
▁खुशी	-1373
▁पठ	-1374
र्स	-1375
▁शरी	-1376
चि	-1377
▁राख्	-1378
ाउने	-1379
▁अधिका	-1380
▁घण्टा	-1381
▁भो	-1382
▁पर्दैन	-1383
▁पर्याप्त	-1384
▁उनीहरुलाई	-1385
लिका	-1386
▁फिल्म	-1387
▁स्थि	-1388
ेटि	-1389
▁पाठ	-1390
▁टि	-1391
▁इच्छ	-1392
क्ता	-1393
ङ्ग	-1394
▁आवा	-1395
▁लाग्यो	-1396
क्टर	-1397
लू	-1398
▁सम्पूर्ण	-1399
▁रमा	-1400
▁यस्ता	-1401
▁अवसर	-1402
▁सुनि	-1403
▁प्रतिश	-1404
▁विस्त	-1405
▁C	-1406
सकेको	-1407
▁पुनः	-1408
▁संघ	-1409
▁समर्थन	-1410
लना	-1411
ोरी	-1412
▁देखा	-1413
▁आउँ	-1414
▁दुर्	-1415
▁६	-1416
▁पाउ	-1417
बै	-1418
ित्	-1419
रुद्ध	-1420
▁प्राय	-1421
▁समावेश	-1422
▁नभ	-1423
▁सिक्	-1424
▁गुण	-1425
धी	-1426
▁क्षेत्रमा	-1427
▁उद्	-1428
▁गरिरहेको	-1429
▁तब	-1430
▁छौँ	-1431
▁सपना	-1432
▁तिन	-1433
धन	-1434
▁अधिकांश	-1435
it	-1436
तिर	-1437
▁नग	-1438
▁पाँच	-1439
▁रूप	-1440
▁त्यसको	-1441
▁मेरी	-1442
al	-1443
▁केन्द्र	-1444
▁फेस	-1445
ou	-1446
▁सन्द	-1447
न्धान	-1448
▁जवाफ	-1449
▁सामग्री	-1450
▁फोटो	-1451
▁तेर	-1452
▁आप	-1453
▁सध	-1454
▁युद्ध	-1455
मलाई	-1456
▁उल्	-1457
▁सार्व	-1458
▁समाधान	-1459
▁न्या	-1460
▁साथै	-1461
▁पृथ	-1462
▁गत	-1463
▁अनुसन्धान	-1464
▁आउँछ	-1465
▁प्ले	-1466
▁अध्ययन	-1467
▁यसमा	-1468
विधि	-1469
▁नियन्त्र	-1470
▁सबैले	-1471
कट	-1472
ूत	-1473
▁परिण	-1474
▁परीक्षण	-1475
▁हैन	-1476
▁संख्या	-1477
▁प्रदर्श	-1478
▁मानिसहरू	-1479
बुक	-1480
▁T	-1481
▁ठीक	-1482
▁प्रतिशत	-1483
▁अति	-1484
▁कर्म	-1485
लका	-1486
▁अन्त्य	-1487
लेख	-1488
पित	-1489
▁भन्नुभयो	-1490
▁अवधि	-1491
▁देख्	-1492
्वी	-1493
▁फा	-1494
▁हेर्न	-1495
▁N	-1496
चना	-1497
▁तेस	-1498
▁वृ	-1499
देश्य	-1500
▁फिर्ता	-1501
▁दश	-1502
▁_	-1503
▁बेला	-1504
▁राष्ट्रपति	-1505
्रह	-1506
प्रति	-1507
▁विवाह	-1508
▁भारत	-1509
▁भ्रम	-1510
▁न्य	-1511
▁इन्टरनेट	-1512
▁निः	-1513
▁त्यति	-1514
▁अंग	-1515
▁राख्न	-1516
▁डिजा	-1517
द्वारा	-1518
▁M	-1519
ढा	-1520
▁निर्भर	-1521
स्थित	-1522
न्तर	-1523
्रेजी	-1524
रिया	-1525
पनि	-1526
▁चरण	-1527
▁माथि	-1528
▁P	-1529
▁ठाउँमा	-1530
▁प्रस्ता	-1531
▁व्यवस्था	-1532
जनिक	-1533
▁गरें	-1534
▁उत्तम	-1535
्यू	-1536
▁प्रस्ताव	-1537
▁खाना	-1538
र्थिक	-1539
▁भएन	-1540
▁प्रवेश	-1541
▁उद्योग	-1542
ित्व	-1543
▁चाहनुहुन्छ	-1544
▁सक्नुहुनेछ	-1545
▁खेला	-1546
▁सिर्	-1547
प्रयोग	-1548
▁उक्त	-1549
▁समाज	-1550
▁देखिन्छ	-1551
▁उद्देश्य	-1552
▁गए	-1553
▁कस्तो	-1554
सका	-1555
दार	-1556
▁नियन्त्रण	-1557
नेछु	-1558
▁परमेश्वरको	-1559
▁फेसबुक	-1560
le	-1561
तामा	-1562
▁बैं	-1563
▁विषयमा	-1564
▁समाचार	-1565
▁स्तर	-1566
▁त्यसलाई	-1567
▁माया	-1568
▁सार्वजनिक	-1569
▁ट्र	-1570
▁पार्टी	-1571
दय	-1572
▁कर	-1573
▁शिक्षा	-1574
षण	-1575
▁I	-1576
▁सुधार	-1577
▁मसँग	-1578
टल	-1579
▁इतिहा	-1580
▁यस्तै	-1581
गि	-1582
▁गीत	-1583
▁परिणाम	-1584
क्षि	-1585
▁आर्थिक	-1586
▁गल्	-1587
▁आफैं	-1588
▁मतलब	-1589
अघि	-1590
▁युवा	-1591
▁तेस्रो	-1592
▁सिर्जना	-1593
▁अवस्थामा	-1594
▁भाइ	-1595
▁गर्छौं	-1596
▁प्रायः	-1597
ड्	-1598
मध्ये	-1599
लेको	-1600
▁स्रो	-1601
▁हाँ	-1602
▁कसले	-1603
▁B	-1604
▁आवाज	-1605
▁उहाँलाई	-1606
रै	-1607
▁बुबा	-1608
▁फाइ	-1609
र्जा	-1610
▁समुदाय	-1611
▁एकै	-1612
▁क्षम	-1613
र्का	-1614
▁बाल	-1615
▁२००	-1616
प्रभु	-1617
▁क्लब	-1618
▁जीवनको	-1619
▁हामीसँग	-1620
▁गर्नुभयो	-1621
▁राष्ट्रिय	-1622
टै	-1623
एस	-1624
▁सर्व	-1625
▁d	-1626
सिक	-1627
यौ	-1628
मुख	-1629
र्ण	-1630
▁कार्या	-1631
▁स्थानीय	-1632
▁धर्म	-1633
▁आएका	-1634
जर	-1635
▁मिनेट	-1636
▁अनुप्रयोग	-1637
▁चीन	-1638
ँदैन	-1639
कारा	-1640
▁भनेका	-1641
▁डिजाइन	-1642
▁जसलाई	-1643
▁फुटबल	-1644
▁6	-1645
यी	-1646
▁निम्ति	-1647
▁जसको	-1648
नुस्	-1649
▁मिडिया	-1650
▁लो	-1651
नुपर्ने	-1652
फो	-1653
यत	-1654
स्थिति	-1655
▁अत्य	-1656
▁भर	-1657
▁7	-1658
▁मार्क	-1659
▁कहिलेका	-1660
▁हम	-1661
क्ष्य	-1662
▁पर्ने	-1663
थम	-1664
हे	-1665
▁t	-1666
▁उनीहरुको	-1667
▁समान	-1668
▁फ्रान्	-1669
▁खर्च	-1670
▁खेलाडी	-1671
▁सम्पर्	-1672
फ्ट	-1673
▁सम्झौ	-1674
▁बुझ्न	-1675
हेक	-1676
▁८	-1677
▁बै	-1678
▁सामान्यतया	-1679
▁साँच्च	-1680
श्य	-1681
▁इस	-1682
नुहोस	-1683
▁पढ्न	-1684
▁परम	-1685
▁यसो	-1686
▁सुने	-1687
▁बहु	-1688
▁सक्ने	-1689
▁गर्दछौं	-1690
▁सानो	-1691
▁डाक्टर	-1692
प्ट	-1693
▁पुरानो	-1694
कले	-1695
न्थ्यो	-1696
▁इच्छा	-1697
▁मित्र	-1698
ताब	-1699
्छु	-1700
▁शै	-1701
हन	-1702
▁उहाँको	-1703
▁क्य	-1704
▁G	-1705
▁विज्ञ	-1706
इक	-1707
▁स्वर्ग	-1708
▁चल	-1709
तपा	-1710
▁बद	-1711
▁शुरु	-1712
म्मे	-1713
ैनिक	-1714
▁अभ	-1715
▁दिने	-1716
▁घोष	-1717
धु	-1718
▁8	-1719
ed	-1720
मैले	-1721
लु	-1722
कृत	-1723
चित्र	-1724
▁कठिन	-1725
▁भन्दै	-1726
▁सम्बन्धित	-1727
तै	-1728
▁संर	-1729
थ्य	-1730
मत	-1731
▁सक्छौं	-1732
क्रमण	-1733
ल्ट	-1734
▁बाँच	-1735
▁c	-1736
▁रहेछ	-1737
▁३३	-1738
▁खरी	-1739
यक	-1740
र्थना	-1741
▁७	-1742
▁मोड	-1743
▁बोल्	-1744
बन्धु	-1745
▁हुनसक्	-1746
▁डराउने	-1747
is	-1748
जित	-1749
▁भाग्य	-1750
▁संस्था	-1751
▁संसारमा	-1752
▁कौम	-1753
▁तिमीहरू	-1754
नन्	-1755
▁स्रोत	-1756
पूर्व	-1757
▁शी	-1758
om	-1759
▁लक्ष्य	-1760
न्तु	-1761
▁भएर	-1762
▁सृ	-1763
वेदन	-1764
▁प्रार्थना	-1765
▁सिका	-1766
▁दू	-1767
द्रा	-1768
▁अहिलेसम्म	-1769
▁युरोप	-1770
▁झूठा	-1771
ैर	-1772
▁हाल	-1773
▁मर्	-1774
श्	-1775
जातिबन्धु	-1776
ल्लो	-1777
▁अग	-1778
▁सबैको	-1779
बद्ध	-1780
न्त्री	-1781
▁दक्षि	-1782
फी	-1783
:1	-1784
ेली	-1785
▁सुरू	-1786
न्स	-1787
▁आफूलाई	-1788
▁रिपोर्ट	-1789
नका	-1790
▁बाँकी	-1791
▁निका	-1792
▁मार्ग	-1793
▁पे	-1794
▁9	-1795
▁गल्ती	-1796
▁तत्	-1797
ञ्च	-1798
▁जिम्मे	-1799
▁स्थापना	-1800
ध्यम	-1801
▁हौ	-1802
▁चुन	-1803
ूँ	-1804
कहरू	-1805
▁मुस्	-1806
छौं	-1807
मित	-1808
▁विगत	-1809
▁कसैलाई	-1810
▁९	-1811
नियाँ	-1812
▁खरीद	-1813
▁नेता	-1814
▁पूर्व	-1815
▁चाहिन्छ	-1816
तपाई	-1817
डर	-1818
▁दिनमा	-1819
▁बल	-1820
▁H	-1821
्छन्	-1822
▁चला	-1823
▁यसरी	-1824
▁अर्था	-1825
बो	-1826
लित	-1827
▁लगानी	-1828
गो	-1829
▁प्य	-1830
▁ब्लग	-1831
तृ	-1832
▁हुँदै	-1833
▁कला	-1834
▁घोषणा	-1835
▁उल्लेख	-1836
शाली	-1837
▁परमप्रभु	-1838
▁बिक	-1839
▁अस्प	-1840
▁हटा	-1841
▁एउटै	-1842
लूतको	-1843
▁किताब	-1844
▁तो	-1845
▁भ्रमण	-1846
▁लिएर	-1847
बीच	-1848
▁दिएको	-1849
▁आए	-1850
तिमी	-1851
ौती	-1852
ing	-1853
लोड	-1854
▁डराउनेहरूलाई	-1855
२०	-1856
▁जोखि	-1857
झको	-1858
्राए	-1859
वन	-1860
▁उपचार	-1861
▁हृ	-1862
▁समेत	-1863
▁लागू	-1864
▁देशमा	-1865
ग्रह	-1866
▁नीति	-1867
एक	-1868
▁त्यस्तै	-1869
▁क्षमता	-1870
▁पागल	-1871
▁बाटो	-1872
न्ति	-1873
ममा	-1874
ic	-1875
वारी	-1876
▁स्थिति	-1877
वादी	-1878
नाव	-1879
▁गरेँ	-1880
▁संस्करण	-1881
▁महान	-1882
▁पूजा	-1883
▁रमाइ	-1884
▁अंग्रेजी	-1885
re	-1886
▁उत्पाद	-1887
द्यालय	-1888
▁गर्दछु	-1889
▁सूची	-1890
▁D	-1891
▁हृदय	-1892
मती	-1893
कर्ष	-1894
▁बन्न	-1895
▁उपा	-1896
▁ऐ	-1897
प्प	-1898
स्कार	-1899
▁नम्बर	-1900
निया	-1901
▁लागेको	-1902
▁पाइ	-1903
▁आत्म	-1904
▁चाहानुहुन्छ	-1905
ञ्	-1906
तार	-1907
्रु	-1908
्नुहोस्	-1909
द्दा	-1910
▁थाले	-1911
▁शुल्क	-1912
▁भनिन्छ	-1913
चारी	-1914
▁10	-1915
▁न्याय	-1916
वेयर	-1917
लले	-1918
▁पेश	-1919
▁थिइन्	-1920
▁शरीर	-1921
▁प्रदर्शन	-1922
▁कुरामा	-1923
कृतिक	-1924
▁शायद	-1925
उँछन्	-1926
▁अर्का	-1927
▁अस्पता	-1928
▁संगठ	-1929
▁W	-1930
मेल	-1931
▁रोक्	-1932
▁सक्दिन	-1933
▁निर्देश	-1934
▁डाउन	-1935
▁L	-1936
ेम्बर	-1937
▁इस्राए	-1938
योजना	-1939
ीर	-1940
▁बेच	-1941
कारण	-1942
विद्यालय	-1943
▁नो	-1944
▁शीर्ष	-1945
▁दक्षिण	-1946
प्रिय	-1947
▁पश्च	-1948
▁ब्रा	-1949
▁खुला	-1950
डान	-1951
▁आउने	-1952
सन	-1953
▁सम्भावना	-1954
▁जर्म	-1955
▁सफलता	-1956
▁नगर्	-1957
▁चाहन्छन्	-1958
लेर	-1959
▁म्या	-1960
▁भूम	-1961
▁प्रि	-1962
मन	-1963
▁भइरहेको	-1964
फि	-1965
▁रोज	-1966
ेरी	-1967
▁पहु	-1968
र्फत	-1969
▁सहा	-1970
क्षक	-1971
▁जोड	-1972
▁पाउन	-1973
कृष्ट	-1974
लर	-1975
▁निम्न	-1976
▁विस्तार	-1977
▁हमको	-1978
▁तपाईंसँग	-1979
▁विद्यालय	-1980
तान	-1981
▁प्रती	-1982
▁जस	-1983
डो	-1984
क्कै	-1985
="	-1986
▁खेल्	-1987
▁पहुँच	-1988
▁सम्पर्क	-1989
म्ब	-1990
उँदै	-1991
▁मुद्दा	-1992
▁घृ	-1993
नुहुन्थ्यो	-1994
हरूबाट	-1995
भो	-1996
तिक	-1997
▁विश्वविद्यालय	-1998
▁खरा	-1999
▁प्रकारको	-2000
हरुका	-2001
▁क्षण	-2002
▁स्वागत	-2003
▁गर्दछन्	-2004
▁अर	-2005
▁नेट	-2006
▁सड	-2007
कारात्मक	-2008
▁रण	-2009
भाग्य	-2010
▁दुबै	-2011
▁विभा	-2012
▁गर्नका	-2013
▁राजनीतिक	-2014
▁सल्लाह	-2015
▁निर	-2016
▁आधा	-2017
▁देव	-2018
▁प्रमुख	-2019
▁खेल्न	-2020
▁भनिन्	-2021
▁परियोजना	-2022
▁वाता	-2023
श्चर्य	-2024
▁विदेशी	-2025
▁टाढा	-2026
▁जसमा	-2027
क्ट	-2028
▁पछा	-2029
▁लाग्दैन	-2030
द्धा	-2031
यान	-2032
▁जति	-2033
▁प्रतिक्रिया	-2034
▁सात	-2035
▁तुलना	-2036
▁बनाउने	-2037
▁चलचित्र	-2038
त्मा	-2039
▁गाडी	-2040
▁येश	-2041
बाइ	-2042
▁जान्छ	-2043
▁बिक्री	-2044
▁टी	-2045
▁जाँच	-2046
यात	-2047
▁कार्ड	-2048
▁पुर्या	-2049
▁वातावरण	-2050
▁खोजी	-2051
▁जान्न	-2052
▁कमज	-2053
▁लोकप्रिय	-2054
▁सारा	-2055
▁रमाइलो	-2056
▁टो	-2057
▁१२	-2058
▁अचम्म	-2059
▁पाए	-2060
चक	-2061
▁समाप्त	-2062
▁बस्न	-2063
▁भर्	-2064
▁छिन्	-2065
▁भी	-2066
व्या	-2067
▁अमेरिकामा	-2068
▁आश्चर्य	-2069
▁तिनीहरूको	-2070
ेटिंग	-2071
▁श्रीमती	-2072
▁E	-2073
▁शुरू	-2074
▁देशको	-2075
ध्या	-2076
▁लाख	-2077
▁कर्मचारी	-2078
▁प्रतिनि	-2079
▁आधारित	-2080
ते	-2081
▁एकदम	-2082
▁कल	-2083
▁सरकारले	-2084
▁दिइ	-2085
▁स्वीकार	-2086
▁वर्त	-2087
▁वस्तु	-2088
रहे	-2089
ज्ञानिक	-2090
▁लु	-2091
▁औष	-2092
विधा	-2093
▁बिता	-2094
ex	-2095
▁भूमिका	-2096
▁रणनीति	-2097
नाको	-2098
ur	-2099
ँदा	-2100
▁देखेको	-2101
▁उत्कृष्ट	-2102
स्पर्	-2103
▁सहज	-2104
▁रोग	-2105
जो	-2106
▁कमा	-2107
▁क्रि	-2108
डे	-2109
यल	-2110
द्र	-2111
ाउनु	-2112
▁भिन्न	-2113
▁बार	-2114
▁उनीसँग	-2115
▁उपयुक्त	-2116
शन	-2117
▁दुः	-2118
▁सरल	-2119
▁स्कूल	-2120
चन	-2121
▁येशू	-2122
▁सहित	-2123
▁चुनौती	-2124
▁भन्यो	-2125
ज्	-2126
▁टेक्	-2127
▁पत्	-2128
▁११	-2129
▁लाभ	-2130
▁सम्झौता	-2131
▁गरौं	-2132
▁प्रतिस्पर्	-2133
▁नगर	-2134
यार	-2135
्रेलि	-2136
▁शान्ति	-2137
सकेका	-2138
▁अत्यन्त	-2139
ंसा	-2140
ृत	-2141
▁मध्य	-2142
▁घृणा	-2143
▁अपे	-2144
बेला	-2145
▁अस्ति	-2146
▁हुनसक्छ	-2147
...]	-2148
▁दिनको	-2149
▁कारणले	-2150
साथ	-2151
्रै	-2152
नुपर्दछ	-2153
तृत्व	-2154
त्री	-2155
वर्क	-2156
ल्पना	-2157
▁[...]	-2158
▁भन्नु	-2159
▁सुनिश्चित	-2160
आई	-2161
क्र	-2162
ेशन	-2163
▁रेल	-2164
पूर्वक	-2165
ईन	-2166
▁चे	-2167
▁ब्या	-2168
▁साँच्चै	-2169
▁खास	-2170
दु	-2171
▁आउन	-2172
ूर्ति	-2173
▁निरा	-2174
▁आदेश	-2175
▁भाव	-2176
्युटर	-2177
▁गण	-2178
▁आजको	-2179
▁सक्रिय	-2180
लियन	-2181
▁p	-2182
▁सधैं	-2183
▁भेट्न	-2184
▁मानिसहरु	-2185
▁बने	-2186
▁बैठ	-2187
▁माध्यम	-2188
▁कवि	-2189
▁सुना	-2190
▁बताए	-2191
▁सन्तु	-2192
तु	-2193
चान	-2194
▁वर्ण	-2195
▁हौं	-2196
▁साझ	-2197
▁सम्मान	-2198
▁व्यक्तिको	-2199
दछन्	-2200
▁त्यसै	-2201
▁बस्ने	-2202
्स	-2203
शील	-2204
वात	-2205
व्यापी	-2206
▁गर्व	-2207
▁सुझा	-2208
▁डेटा	-2209
नामा	-2210
▁ताकि	-2211
धिकार	-2212
▁दैनिक	-2213
कुरा	-2214
▁एक्लै	-2215
दर	-2216
ंका	-2217
▁सम्पत्ति	-2218
▁गाउँ	-2219
▁आकाश	-2220
परि	-2221
▁दोष	-2222
▁साझेद	-2223
▁आगो	-2224
▁बीचमा	-2225
▁खाने	-2226
▁कम्प्युटर	-2227
▁सफ्ट	-2228
▁नेतृत्व	-2229
▁एजे	-2230
ैँ	-2231
▁सीमा	-2232
र्भ	-2233
▁खराब	-2234
▁खाता	-2235
▁गैर	-2236
▁विरुद्ध	-2237
ेरा	-2238
▁दर्श	-2239
▁कै	-2240
▁परमेश्वरले	-2241
लीन	-2242
▁$	-2243
ज्य	-2244
▁क्र	-2245
▁कल्पना	-2246
et	-2247
▁दी	-2248
▁गरियो	-2249
भू	-2250
▁जस्ता	-2251
▁धा	-2252
▁पहिचान	-2253
▁सुविधा	-2254
▁डाउनलोड	-2255
▁बैंक	-2256
▁नम	-2257
▁क्रम	-2258
▁कुराको	-2259
जनक	-2260
▁असफल	-2261
▁अस्तित्व	-2262
▁उस	-2263
▁प्लेट	-2264
▁नेपाल	-2265
▁हार	-2266
लक	-2267
▁यसका	-2268
▁पछाडि	-2269
▁आन	-2270
▁सुन्न	-2271
▁लड	-2272
▁बुझ्	-2273
विश्व	-2274
▁दुःख	-2275
ल्छ	-2276
सँगै	-2277
▁जिन्द	-2278
▁गतिविधि	-2279
▁इतिहास	-2280
मेरो	-2281
▁ब्र	-2282
▁दृष्टि	-2283
यौँ	-2284
िकित्	-2285
▁तपाइँको	-2286
▁सफ्टवेयर	-2287
न्व	-2288
▁खान	-2289
ेह	-2290
▁अदा	-2291
यता	-2292
▁मुल	-2293
▁असर	-2294
्रेलिया	-2295
▁कानून	-2296
▁अथ	-2297
▁जरु	-2298
▁आधारमा	-2299
▁गि	-2300
▁रोक	-2301
▁मालिक	-2302
▁छुट्ट	-2303
▁चौ	-2304
ासन	-2305
▁हरा	-2306
▁रहेका	-2307
▁निरन्तर	-2308
▁ठा	-2309
▁फै	-2310
▁यि	-2311
सिया	-2312
म्भीर	-2313
▁18	-2314
▁प्रेर	-2315
▁नेटवर्क	-2316
तो	-2317
▁यसै	-2318
▁कुराका	-2319
गमा	-2320
▁युव	-2321
▁निजी	-2322
▁प्रस्तु	-2323
▁रंग	-2324
▁सोच्	-2325
▁सुझाव	-2326
▁F	-2327
▁खबर	-2328
▁वित्	-2329
▁उनि	-2330
▁समयको	-2331
▁R	-2332
▁बनाउ	-2333
▁की	-2334
▁तत्काल	-2335
ोस्ट	-2336
▁हुँदा	-2337
▁गम्भीर	-2338
▁आनन्द	-2339
▁पर्य	-2340
▁a	-2341
st	-2342
केत	-2343
▁पुर	-2344
▁संगीत	-2345
▁निस्क	-2346
▁बढि	-2347
▁वृद्धि	-2348
▁तस्	-2349
▁कम्पनीले	-2350
▁अपेक्षा	-2351
▁स्थापित	-2352
ल्याण्ड	-2353
▁भारतीय	-2354
पत्र	-2355
▁बोल्न	-2356
▁दिनुहोस्	-2357
▁घु	-2358
▁ट्रे	-2359
▁तल	-2360
▁मौका	-2361
▁लिने	-2362
▁तुमको	-2363
▁अनुमान	-2364
▁अन्तमा	-2365
▁उही	-2366
▁प्रिय	-2367
▁वर्षमा	-2368
दू	-2369
▁तयारी	-2370
▁सन्देश	-2371
बाद	-2372
ठो	-2373
▁मुलुक	-2374
▁हुनेछन्	-2375
भरि	-2376
जस्तै	-2377
▁सँगै	-2378
ext	-2379
▁१५	-2380
000	-2381
▁कसैको	-2382
▁सामना	-2383
▁चिकित्	-2384
▁विश्वव्यापी	-2385
्वा	-2386
▁दृश्य	-2387
▁m	-2388
इड	-2389
▁अथवा	-2390
▁वर्तमान	-2391
▁दुर्भाग्य	-2392
▁वैज्ञानिक	-2393
कालीन	-2394
नुसार	-2395
न्थे	-2396
▁रहन	-2397
▁सक्नुहुन्न	-2398
तपाईं	-2399
ह्रो	-2400
▁बनाउँछ	-2401
▁लागत	-2402
▁व्यवहार	-2403
दमै	-2404
▁12	-2405
▁अलग	-2406
▁पत्नी	-2407
▁प्रशि	-2408
▁मानिसहरूले	-2409
▁जोखिम	-2410
टन	-2411
▁दर	-2412
नुहोला	-2413
रीका	-2414
▁कदम	-2415
सनीय	-2416
▁आत्मा	-2417
गार	-2418
ol	-2419
▁चीजहरू	-2420
▁सृष्टि	-2421
▁बी	-2422
▁तपाईँले	-2423
▁फल	-2424
स्सा	-2425
▁थियौं	-2426
▁मोबाइ	-2427
▁पालन	-2428
▁गुगल	-2429
▁नराम	-2430
ion	-2431
▁एका	-2432
▁बन्ने	-2433
▁गरेकी	-2434
▁योग्य	-2435
art	-2436
▁असल	-2437
▁व्याव	-2438
तरा	-2439
▁ऊर्जा	-2440
▁अर्थात्	-2441
▁अनुरोध	-2442
▁दिमा	-2443
▁बोला	-2444
▁मानिसहरूलाई	-2445
ँड	-2446
▁अधिकारी	-2447
नाइ	-2448
▁कुराकानी	-2449
▁नोट	-2450
▁पाप	-2451
▁सङ्	-2452
▁जाँदै	-2453
▁मान्य	-2454
वित्र	-2455
▁छुट	-2456
▁जबकि	-2457
),	-2458
▁सकिन	-2459
▁थिएनन्	-2460
▁पर्दछ	-2461
हीँ	-2462
▁कोरिया	-2463
▁मार्फत	-2464
▁काग	-2465
धुनिक	-2466
▁हातमा	-2467
▁संस्कृति	-2468
कर	-2469
▁एकदमै	-2470
▁गरिनेछ	-2471
स्व	-2472
▁उपयोगी	-2473
▁देखाउँ	-2474
्राइ	-2475
▁करि	-2476
▁नहु	-2477
▁जेल	-2478
▁वटा	-2479
तर्फ	-2480
▁शक्तिशाली	-2481
▁गर्नुभएको	-2482
▁कार्यालय	-2483
▁गाह्रो	-2484
लामा	-2485
▁वर्णन	-2486
ल्ड	-2487
▁सिक	-2488
▁प्या	-2489
कन	-2490
कुल	-2491
▁प्रधान	-2492
▁रेक	-2493
सन्द	-2494
▁अवश्य	-2495
▁बजारमा	-2496
किस्ता	-2497
▁उत्पादनहरू	-2498
▁पत्ता	-2499
वस	-2500
▁w	-2501
▁जीवित	-2502
▁बनाएको	-2503
ल्यो	-2504
▁विज्ञान	-2505
▁हुन्थ्यो	-2506
▁सेट	-2507
▁योग	-2508
▁पुलि	-2509
▁लाइन	-2510
▁बाहेक	-2511
ेड	-2512
श्र	-2513
▁रक्षा	-2514
▁त्यसले	-2515
▁<	-2516
▁O	-2517
िनो	-2518
्वि	-2519
▁ग्रह	-2520
ेज	-2521
▁रुचि	-2522
वटा	-2523
ारो	-2524
▁b	-2525
▁एस	-2526
▁चाहिँ	-2527
▁दौ	-2528
अर्का	-2529
▁पास	-2530
ग्राम	-2531
▁आकर्ष	-2532
▁तथ्य	-2533
▁सहभा	-2534
▁अपरा	-2535
▁उत्प	-2536
he	-2537
▁सञ्च	-2538
▁बुद्धि	-2539
▁ऋ	-2540
कूल	-2541
्राफ	-2542
▁पृथ्वी	-2543
▁कम्पनीको	-2544
▁साझा	-2545
मन्त्री	-2546
फर्म	-2547
▁विप	-2548
:2	-2549
्ले	-2550
न्तरण	-2551
▁बाबु	-2552
निर्	-2553
▁श्र	-2554
▁मार्	-2555
▁फाइदा	-2556
▁गर्नेछु	-2557
▁आखि	-2558
▁परा	-2559
▁डिजि	-2560
▁पिता	-2561
तित	-2562
थमिक	-2563
▁स्वय	-2564
▁ट्रम्प	-2565
आफ	-2566
▁गरिरह	-2567
▁जानु	-2568
एम	-2569
▁चयन	-2570
▁वास्तवमै	-2571
क्षर	-2572
▁लेख्न	-2573
▁सीमित	-2574
▁200	-2575
्रान्ति	-2576
मारी	-2577
▁कप	-2578
▁यौ	-2579
▁बरु	-2580
मात्र	-2581
▁आक्रमण	-2582
▁15	-2583
▁कुराहरु	-2584
▁गर्दैनन्	-2585
▁उदाहरणका	-2586
▁पुरस्कार	-2587
▁केन्द्रित	-2588
▁मार्केटिंग	-2589
वाला	-2590
▁मान्	-2591
▁मौसम	-2592
▁सक्दैनन्	-2593
▁ठिक	-2594
▁पहिला	-2595
▁प्राथमिक	-2596
▁पवित्र	-2597
▁प्रकृति	-2598
▁समी	-2599
▁हिस्सा	-2600
▁नेपाली	-2601
▁अन्तर्गत	-2602
हीं	-2603
▁सम्भवतः	-2604
द्व	-2605
▁हत्या	-2606
▁लाइ	-2607
▁चाहे	-2608
▁फेला	-2609
▁पाउने	-2610
▁पृथ्व	-2611
▁आकार	-2612
▁बच्चाहरु	-2613
टिल	-2614
▁औं	-2615
▁पश्चि	-2616
▁एयर	-2617
▁प्रतिबन्ध	-2618
ौट	-2619
▁सहमत	-2620
▁भन्छु	-2621
▁मोबाइल	-2622
▁झु	-2623
कहाँ	-2624
▁भूमि	-2625
▁पाकिस्ता	-2626
▁अरब	-2627
▁अचान	-2628
▁हेर्नुहोस्	-2629
क्का	-2630
▁कोठा	-2631
सके	-2632
त्रु	-2633
▁स्मा	-2634
▁॥	-2635
▁आधुनिक	-2636
▁st	-2637
▁दुख	-2638
▁परिवारको	-2639
ँचो	-2640
नाले	-2641
oo	-2642
▁खोज्दै	-2643
स्त्र	-2644
▁वर्षा	-2645
ac	-2646
▁सिफ	-2647
▁चित्र	-2648
लहरू	-2649
▁जरुरी	-2650
▁बनेको	-2651
त्कार	-2652
▁गुणस्त	-2653
▁प्रभावकारी	-2654
▁डिजिटल	-2655
▁रेकर्ड	-2656
▁सिफारि	-2657
▁सेवाहरू	-2658
▁अचानक	-2659
कम	-2660
▁स्थानमा	-2661
▁प्रभावित	-2662
▁भविष्यमा	-2663
ंख	-2664
वान	-2665
▁सुन	-2666
▁कुराहरू	-2667
म्मा	-2668
▁प्रत्यक्ष	-2669
▁घा	-2670
▁मन्	-2671
वृ	-2672
▁पठा	-2673
्याल	-2674
▁गएको	-2675
रिक्त	-2676
▁त्र	-2677
▁कानू	-2678
▁रहने	-2679
▁उपभो	-2680
शल	-2681
▁जटिल	-2682
▁हस्ता	-2683
▁गुमा	-2684
सन्देह	-2685
▁नराम्रो	-2686
क्क	-2687
क्षी	-2688
▁विश्वको	-2689
▁कडा	-2690
▁भनी	-2691
▁अन्ततः	-2692
▁पति	-2693
▁परिभा	-2694
▁संकेत	-2695
▁शता	-2696
▁प्रस्तुत	-2697
न्सी	-2698
▁न्यू	-2699
▁विरोध	-2700
हाज	-2701
स्टर	-2702
▁औषधि	-2703
▁अस्वी	-2704
▁त्यसमा	-2705
▁f	-2706
धानी	-2707
▁छोटो	-2708
▁कमजोर	-2709
▁अतिरिक्त	-2710
▁प्राकृतिक	-2711
▁प्लेटफर्म	-2712
क्सि	-2713
ुटि	-2714
▁लेखक	-2715
▁तरीका	-2716
▁वो	-2717
वासी	-2718
▁गर्नेछौं	-2719
▁प्रतीक्षा	-2720
▁टे	-2721
▁विज्ञा	-2722
नेछौं	-2723
▁व्यापक	-2724
▁सौ	-2725
▁उपाय	-2726
▁गर्नुपर्दछ	-2727
▁तिमीहरूलाई	-2728
रूप	-2729
्यास	-2730
▁करो	-2731
▁सहर	-2732
म्परा	-2733
▁सन्तान	-2734
▁गर्नेछन्	-2735
ये	-2736
▁संसारको	-2737
',	-2738
ची	-2739
▁सकेन	-2740
भी	-2741
▁शत्रु	-2742
▁चर्च	-2743
▁अक्स	-2744
▁दिएका	-2745
▁गर्नुपर्ने	-2746
▁U	-2747
▁साव	-2748
▁कोशि	-2749
▁रहस्य	-2750
▁उद्ध	-2751
▁दिनु	-2752
▁राति	-2753
▁मुक्त	-2754
▁क्रान्ति	-2755
▁वर्ग	-2756
▁फ्रान्स	-2757
▁सकारात्मक	-2758
▁डलर	-2759
हामीले	-2760
▁नियमित	-2761
▁जिन्दगी	-2762
▁भे	-2763
▁शिक्षक	-2764
▁वित्तीय	-2765
विधान	-2766
▁बहि	-2767
▁चिनियाँ	-2768
▁१८	-2769
▁बलियो	-2770
▁वरि	-2771
▁आगामी	-2772
▁सूचना	-2773
▁खतरा	-2774
▁देखे	-2775
▁निस्	-2776
क्सी	-2777
▁२०२०	-2778
▁परम्परा	-2779
▁इन	-2780
▁निष्	-2781
▁अवधिमा	-2782
▁महत्व	-2783
▁मुझको	-2784
दिए	-2785
▁कविता	-2786
ro	-2787
▁सय	-2788
िन्दु	-2789
▁मना	-2790
▁प्रविधि	-2791
▁प्रकारका	-2792
▁आराम	-2793
▁विधि	-2794
▁देवता	-2795
▁प्रतिस्पर्धा	-2796
▁इरा	-2797
▁निद्रा	-2798
▁नौ	-2799
र्मी	-2800
▁जापानी	-2801
▁तपाईँको	-2802
▁सूर्	-2803
▁स्पे	-2804
▁टेक्नो	-2805
घा	-2806
▁आउनु	-2807
▁टेलि	-2808
वरी	-2809
▁विश्ले	-2810
▁चुनाव	-2811
▁पक्कै	-2812
▁पाउँ	-2813
▁जिम्मेवारी	-2814
▁Y	-2815
▁लडा	-2816
▁क्षमा	-2817
▁पार्न	-2818
▁भन्छिन्	-2819
लोजी	-2820
शुल्क	-2821
▁अष्ट	-2822
▁बनाइ	-2823
▁बचत	-2824
▁निर्वा	-2825
▁हूँ	-2826
▁कानु	-2827
▁भगवान्	-2828
▁व्यक्तिले	-2829
▁नह	-2830
▁साधारण	-2831
▁१४	-2832
▁विशेषज्ञ	-2833
▁l	-2834
टमा	-2835
राख	-2836
▁लै	-2837
▁गोप	-2838
ag	-2839
छौ	-2840
▁>	-2841
र्ज	-2842
▁ब्रि	-2843
il	-2844
▁चलो	-2845
▁ठूला	-2846
▁राख्नु	-2847
ीकरण	-2848
▁चाहन्छौं	-2849
लाम	-2850
सिल	-2851
▁ग्राहकहरु	-2852
रामी	-2853
▁पोस्ट	-2854
▁ठु	-2855
▁फ्	-2856
▁देउ	-2857
▁मस्	-2858
▁मन्त्र	-2859
▁प्रमाणित	-2860
el	-2861
▁भन	-2862
▁युरो	-2863
▁डो	-2864
▁थोर	-2865
▁बज	-2866
▁धनी	-2867
▁सहायता	-2868
▁आवेदन	-2869
ंगा	-2870
रिक	-2871
सम्	-2872
▁व्यवस्थापन	-2873
ताका	-2874
▁दशक	-2875
▁खोजि	-2876
▁सम्झना	-2877
▁सन्दर्भ	-2878
▁पारि	-2879
▁संविधान	-2880
▁परिस्थिति	-2881
लग्न	-2882
▁अक्सर	-2883
▁संरक्षण	-2884
▁समीक्षा	-2885
हान	-2886
्यौ	-2887
थो	-2888
वास	-2889
▁टोली	-2890
▁रहन्छ	-2891
▁विवरण	-2892
▁पद	-2893
▁पुष्टि	-2894
▁संगठन	-2895
▁कतै	-2896
▁पाएको	-2897
न्ज	-2898
▁एक्स	-2899
तिमा	-2900
ुक्र	-2901
▁फु	-2902
▁छाड	-2903
▁पर्यो	-2904
▁मानिसको	-2905
▁मन्दि	-2906
िनको	-2907
▁मनो	-2908
▁ट्या	-2909
अनुसार	-2910
▁तथापि	-2911
▁खाली	-2912
▁छनौट	-2913
हरी	-2914
▁परेको	-2915
▁अस्पताल	-2916
▁प्रकाशित	-2917
रिद	-2918
शाल	-2919
▁पछ	-2920
▁व्यक्तिहरू	-2921
आर	-2922
्यौं	-2923
▁एकल	-2924
▁थाह	-2925
नुहार	-2926
▁जर्मनी	-2927
फोन	-2928
▁आखिर	-2929
▁ज्या	-2930
▁मजा	-2931
▁ढा	-2932
▁सच	-2933
▁१३	-2934
▁भएँ	-2935
▁जान्दछ	-2936
▁त्रुटि	-2937
▁साह	-2938
▁भावना	-2939
▁बर्	-2940
▁सोच्न	-2941
▁टेक्नोलोजी	-2942
▁सै	-2943
▁अनुकूल	-2944
कड	-2945
ट्टा	-2946
▁विमान	-2947
▁अनुवाद	-2948
▁आग्रह	-2949
भूत	-2950
षित	-2951
▁बजे	-2952
▁अन्त्यमा	-2953
ोका	-2954
▁सिद्धा	-2955
०००	-2956
कित	-2957
▁क्षति	-2958
▁स्मार्ट	-2959
पद	-2960
्रेष्ठ	-2961
▁अनुहार	-2962
▁14	-2963
▁मार	-2964
▁पेशे	-2965
▁मनपर्	-2966
▁तिमीहरूले	-2967
जुर	-2968
▁थोरै	-2969
▁ड्राइ	-2970
▁त्यस्ता	-2971
आमा	-2972
▁11	-2973
▁छः	-2974
▁खरिद	-2975
▁रोचक	-2976
▁कक्षा	-2977
▁हुनुहुन्न	-2978
▁भय	-2979
धिकारिक	-2980
▁शुभ	-2981
▁चाहना	-2982
▁विज	-2983
▁विशाल	-2984
▁गएर	-2985
▁मात्रा	-2986
▁युनि	-2987
▁मान्यता	-2988
▁भौ	-2989
▁बाध्य	-2990
▁चर्	-2991
20	-2992
हाम	-2993
तियार	-2994
▁मार्च	-2995
▁प्रतिबद्ध	-2996
बालिका	-2997
कार्य	-2998
▁शंका	-2999
▁किनकी	-3000
▁मद	-3001
▁विज्ञापन	-3002
▁साथमा	-3003
▁विकसित	-3004
ेसन	-3005
▁३०	-3006
▁दया	-3007
▁यिनी	-3008
▁पक्षमा	-3009
▁संलग्न	-3010
▁पत्रकार	-3011
▁आधिकारिक	-3012
am	-3013
सद	-3014
चालित	-3015
▁नष्ट	-3016
▁दाय	-3017
▁तर्फ	-3018
▁शैली	-3019
▁होईन	-3020
▁१००	-3021
▁प्रार	-3022
▁सां	-3023
▁स्म	-3024
▁सम्बन्धमा	-3025
▁छिटो	-3026
▁सुनेको	-3027
साहित	-3028
▁देखेर	-3029
▁नजिकै	-3030
▁यसैले	-3031
▁मानसिक	-3032
दृ	-3033
▁अंश	-3034
▁लाग्न	-3035
धै	-3036
▁तपाईँलाई	-3037
त्ती	-3038
र्सि	-3039
इरहेको	-3040
▁शुक्र	-3041
▁हजारौं	-3042
तरण	-3043
▁उत्स	-3044
▁धन	-3045
▁मानिन्छ	-3046
as	-3047
▁समझ	-3048
र्मिक	-3049
▁बालबालिका	-3050
▁सूर्य	-3051
▁सक्दछन्	-3052
रस	-3053
▁चाहन्थे	-3054
▁चिन्तित	-3055
▁एकपटक	-3056
▁खोज्न	-3057
▁चोट	-3058
▁सदा	-3059
▁दिशा	-3060
▁स्वस्थ	-3061
▁विस्तृत	-3062
बाटै	-3063
▁अलि	-3064
▁गर्यौं	-3065
▁सेप्ट	-3066
▁गरिएका	-3067
▁सिद्धान्त	-3068
▁माफ	-3069
▁जहाज	-3070
▁मर	-3071
▁काममा	-3072
▁गर्थे	-3073
▁पुग्न	-3074
पुग	-3075
रुन्त	-3076
▁माइक	-3077
▁सर्वश	-3078
▁पेशेवर	-3079
▁तुरुन्त	-3080
▁छै	-3081
▁भण्ड	-3082
तन	-3083
▁वे	-3084
▁कले	-3085
▁व्यस्त	-3086
▁सेक्स	-3087
डमा	-3088
▁सेक	-3089
विक	-3090
▁तिम्रा	-3091
▁त्या	-3092
▁सुरुमा	-3093
डेट	-3094
ay	-3095
▁सोधे	-3096
सल	-3097
▁उडान	-3098
▁गई	-3099
लिम	-3100
ालय	-3101
▁in	-3102
▁थिइन	-3103
▁पेरि	-3104
ad	-3105
▁समुद्र	-3106
▁माम	-3107
▁बिरामी	-3108
▁राख्ने	-3109
▁भगवानले	-3110
▁सन्तुष्ट	-3111
▁तै	-3112
घट	-3113
ँही	-3114
ेकै	-3115
▁खि	-3116
▁ग्र	-3117
▁युवती	-3118
▁ट्वि	-3119
▁बोले	-3120
▁सेप्टेम्बर	-3121
▁कुल	-3122
▁सुख	-3123
▁क्याम	-3124
कोण	-3125
▁नवी	-3126
स्ती	-3127
▁भनेँ	-3128
▁बुवा	-3129
▁आउँदै	-3130
▁जल	-3131
्रीय	-3132
▁फूल	-3133
▁उचित	-3134
▁हुन्न	-3135
गति	-3136
▁लगाउन	-3137
....	-3138
▁योगदान	-3139
हू	-3140
▁ब्रान्ड	-3141
▁मानिसले	-3142
▁तेल	-3143
ताहरू	-3144
▁क्यास	-3145
▁जनवरी	-3146
कलन	-3147
▁दीर्	-3148
हरुसँग	-3149
▁प्रतिनिध	-3150
▁फेरी	-3151
▁पुनर्	-3152
▁चाहेको	-3153
▁ईमेल	-3154
उनुहोस्	-3155
▁हुनुहुन्थ्यो	-3156
▁बरा	-3157
▁हानि	-3158
▁थो	-3159
▁सञ्चा	-3160
▁साँचो	-3161
▁दिइएको	-3162
▁आपूर्ति	-3163
▁एम	-3164
▁उत्पन्न	-3165
▁धार्मिक	-3166
▁अवस्थित	-3167
▁प्रतिनिधित्व	-3168
▁आर	-3169
▁यौन	-3170
▁आठ	-3171
▁छल	-3172
▁स्थिर	-3173
▁अष्ट्रेलिया	-3174
तक	-3175
▁नी	-3176
▁शो	-3177
▁अस्वीकार	-3178
▁पूर्	-3179
▁टिप्प	-3180
▁हरु	-3181
▁मोडेल	-3182
भाइ	-3183
▁भुक्ता	-3184
▁उठा	-3185
▁समग्र	-3186
▁शे	-3187
▁कोरो	-3188
▁जापान	-3189
▁नदी	-3190
सायिक	-3191
▁प्रारम्भ	-3192
▁उमेरमा	-3193
▁निर्मा	-3194
▁*	-3195
▁स्वयं	-3196
▁प्रशिक्षण	-3197
▁V	-3198
भूमि	-3199
▁पूरै	-3200
▁जिम्मेवार	-3201
th	-3202
▁आदि	-3203
▁आफैँ	-3204
▁परीक्षा	-3205
▁छे	-3206
▁चीनको	-3207
▁गर्नको	-3208
▁पाएँ	-3209
विरुद्ध	-3210
▁समयदेखि	-3211
▁माछा	-3212
▁सेना	-3213
्राफिक	-3214
▁सहभागी	-3215
▁सम्भावित	-3216
▁कायम	-3217
▁एजेन्सी	-3218
▁भवन	-3219
▁गरेन	-3220
▁हासिल	-3221
▁जनताको	-3222
जको	-3223
▁यथा	-3224
▁कार्यान्व	-3225
▁ख्री	-3226
▁मिश्र	-3227
▁हेर्ने	-3228
▁उसका	-3229
▁अन्यथा	-3230
▁हस्ताक्षर	-3231
▁निराश	-3232
गु	-3233
र्जन	-3234
▁इस्राएलका	-3235
पय	-3236
ड़ा	-3237
▁ज्ञा	-3238
▁प्रधानमन्त्री	-3239
दायक	-3240
▁विवाद	-3241
▁सिक्न	-3242
▁शरण	-3243
▁२१	-3244
▁ह्या	-3245
▁अदालत	-3246
न्तरिक	-3247
▁सर्वो	-3248
पको	-3249
▁सडक	-3250
▁समर्	-3251
तालाई	-3252
▁निःशुल्क	-3253
▁17	-3254
▁धारण	-3255
▁पार्क	-3256
▁असा	-3257
▁बच्चाको	-3258
ent	-3259
र्की	-3260
▁चढ	-3261
▁अपडेट	-3262
▁विश्लेषण	-3263
रले	-3264
▁रहनेछ	-3265
▁परिचित	-3266
टु	-3267
and	-3268
न्दो	-3269
▁भएपछि	-3270
▁उपस्थिति	-3271
▁राम्रोसँग	-3272
उँदछ	-3273
▁छवि	-3274
बाहेक	-3275
स्थान	-3276
▁टिप्पणी	-3277
▁पछिल्लो	-3278
टको	-3279
दूत	-3280
र्ती	-3281
र्ने	-3282
▁पीडा	-3283
▁बीमा	-3284
▁प्यार	-3285
▁प्रहरी	-3286
▁क्रममा	-3287
▁०	-3288
ब्दी	-3289
▁दृष्टिकोण	-3290
▁h	-3291
▁अपराध	-3292
यदि	-3293
▁आमाको	-3294
▁कतिपय	-3295
्दा	-3296
▁जुलाई	-3297
ताव	-3298
▁एन	-3299
▁आन्तरिक	-3300
▁हतियार	-3301
▁प्रतियोग	-3302
पक्ष	-3303
▁छैनौं	-3304
▁प्रबन्ध	-3305
▁हुनुपर्दछ	-3306
▁दिन्छु	-3307
▁सुरुवात	-3308
फ्	-3309
छोरी	-3310
उँछु	-3311
न्टी	-3312
▁पशु	-3313
▁जसरी	-3314
▁ठुलो	-3315
▁धु	-3316
▁चुप	-3317
▁क्रे	-3318
▁छलफल	-3319
▁साझेदारी	-3320
जस्तो	-3321
">	-3322
▁क्यासिनो	-3323
खित	-3324
▁सँ	-3325
सान	-3326
▁इज	-3327
▁यहि	-3328
▁संघर्ष	-3329
▁परिवारका	-3330
▁स्वि	-3331
▁फर्केर	-3332
▁भरो	-3333
▁नभएको	-3334
▁सरकारी	-3335
id	-3336
जब	-3337
▁सहमति	-3338
धे	-3339
▁Next	-3340
▁युरोपेली	-3341
क्टो	-3342
▁देशका	-3343
▁कलाकार	-3344
▁सक्दछौं	-3345
सर्थ	-3346
▁आफु	-3347
▁दीर्घ	-3348
म्र	-3349
िएर	-3350
कू	-3351
स्को	-3352
▁अर्डर	-3353
▁चर्चा	-3354
▁अमेरिकाको	-3355
▁रकम	-3356
▁हजुर	-3357
▁ख्रीष्ट	-3358
▁सम्पन्न	-3359
रहरू	-3360
▁परे	-3361
▁रेडियो	-3362
▁मन्त्रालय	-3363
▁बढ्	-3364
▁स्टोर	-3365
▁आफैलाई	-3366
ट्	-3367
▁dur	-3368
▁गयो	-3369
▁लिनु	-3370
▁श्रम	-3371
▁start	-3372
ch	-3373
ढी	-3374
▁फिर	-3375
पियन	-3376
रूद्ध	-3377
▁तेरो	-3378
्छौं	-3379
▁डी	-3380
▁यूरो	-3381
▁कसलाई	-3382
▁सामान	-3383
▁श्रृ	-3384
किन	-3385
▁प्रगति	-3386
,000	-3387
िष्ट	-3388
ताले	-3389
▁सोम	-3390
▁प्रोत्	-3391
▁क्लिक	-3392
्याम	-3393
▁अपर	-3394
▁ख्याल	-3395
▁दियो	-3396
▁नाममा	-3397
▁सम्मेल	-3398
▁जागि	-3399
▁मिलियन	-3400
▁निर्धारण	-3401
▁राती	-3402
▁तसर्थ	-3403
▁व्यक्त	-3404
▁१९९	-3405
▁भई	-3406
▁१६	-3407
▁मदत	-3408
▁आफूले	-3409
▁अविश्व	-3410
▁25	-3411
▁सुपर	-3412
▁एकअर्का	-3413
▁व्यावसायिक	-3414
▁विशिष्ट	-3415
▁तेरा	-3416
▁टेलिभि	-3417
▁सक्छौ	-3418
▁देशहरूमा	-3419
▁१७	-3420
▁सहि	-3421
स्टा	-3422
▁जनावर	-3423
िकेट	-3424
▁अभाव	-3425
▁मास्क	-3426
▁स्वतन्त्रता	-3427
शिया	-3428
▁अल्	-3429
▁माध्यमबाट	-3430
▁वितरण	-3431
▁अवधारण	-3432
औं	-3433
कल	-3434
▁आय	-3435
आफ्न	-3436
▁युग	-3437
▁16	-3438
▁प्रस	-3439
▁बनाए	-3440
▁हेर्दै	-3441
▁सजा	-3442
▁बहिनी	-3443
▁चन्द्र	-3444
▁संकट	-3445
िता	-3446
▁कोड	-3447
▁आन्दो	-3448
▁गोपनीय	-3449
▁गर्नुस्	-3450
पान	-3451
▁दुइ	-3452
▁निश्च	-3453
▁धर	-3454
▁उपभोक्ता	-3455
अप	-3456
▁कोरोना	-3457
टे	-3458
कान	-3459
▁उपहार	-3460
क्षे	-3461
न्टि	-3462
्ररी	-3463
▁199	-3464
्ग	-3465
▁सेके	-3466
गरी	-3467
▁सकेको	-3468
▁देखाउन	-3469
▁भनें	-3470
▁गर्दैछ	-3471
▁आज्ञ	-3472
▁भगवानको	-3473
एफ	-3474
▁बिन्दु	-3475
▁बिभिन्न	-3476
ृह	-3477
ऊँ	-3478
▁30	-3479
सेम्बर	-3480
▁पाउनु	-3481
▁अँ	-3482
▁चाहिएको	-3483
थ्या	-3484
▁जाग	-3485
▁लड़	-3486
▁अवधारणा	-3487
▁व्यक्तिलाई	-3488
िकल	-3489
▁गेम	-3490
▁गर्छौ	-3491
एल	-3492
यस	-3493
▁याता	-3494
▁आज्ञा	-3495
▁उद्धार	-3496
▁व्याख्या	-3497
मले	-3498
डित	-3499
▁कम्	-3500
▁यार	-3501
रत	-3502
▁सामु	-3503
▁जान्छु	-3504
▁निर्देशन	-3505
▁स्तरमा	-3506
▁नोभ	-3507
▁वचन	-3508
▁ऋण	-3509
▁असम्	-3510
▁K	-3511
▁शताब्दी	-3512
न्थ	-3513
▁हेरि	-3514
▁उनीहरूका	-3515
▁गठ	-3516
▁सम्पा	-3517
ितीय	-3518
▁भाषामा	-3519
बले	-3520
वस्था	-3521
▁o	-3522
▁कहिलेकाहीँ	-3523
▁भर्ख	-3524
▁सिफारिस	-3525
▁कलेज	-3526
▁जाति	-3527
▁वेबसाइटमा	-3528
धारित	-3529
▁सर्त	-3530
▁अन्तर	-3531
▁भरोसा	-3532
▁मिलेर	-3533
▁खेल्ने	-3534
▁तपाईका	-3535
लेक्ट	-3536
▁पालना	-3537
▁क्यारि	-3538
▁दुर्घट	-3539
▁भइसकेको	-3540
▁#	-3541
िंग	-3542
▁होइनन्	-3543
▁रचना	-3544
▁लिन्छ	-3545
▁ट्विटर	-3546
▁कहिलेकाँही	-3547
ाउँछ	-3548
▁बनायो	-3549
▁समिति	-3550
किल	-3551
▁भै	-3552
▁वर	-3553
मानी	-3554
▁सम्बो	-3555
▁नोभेम्बर	-3556
र्कि	-3557
▁तपाईसँग	-3558
ल्नु	-3559
▁दुब	-3560
▁राम्ररी	-3561
भए	-3562
▁अल	-3563
▁बह	-3564
▁सचेत	-3565
तना	-3566
▁वर्षदेखि	-3567
चाह	-3568
▁सफा	-3569
▁गरिन्	-3570
मानि	-3571
▁भनेः	-3572
▁विभाग	-3573
▁लेखेका	-3574
▁डिसेम्बर	-3575
डिट	-3576
ृद्धि	-3577
▁रगत	-3578
▁गुणस्तर	-3579
▁खै	-3580
▁सिं	-3581
▁तरिकाले	-3582
▁13	-3583
▁प्रसि	-3584
लिन	-3585
▁फे	-3586
योजन	-3587
▁आरोप	-3588
▁पक्र	-3589
▁स्टा	-3590
▁हँ	-3591
▁तँ	-3592
▁भोज	-3593
▁चाहन्न	-3594
▁पृथ्वीमा	-3595
▁अभ्यास	-3596
नाक	-3597
▁ग्री	-3598
▁प्रशास	-3599
▁संरचना	-3600
▁डु	-3601
▁प्रे	-3602
▁सजिलै	-3603
सेक	-3604
प्ति	-3605
विध	-3606
तावनी	-3607
▁चिनि	-3608
▁बोर्ड	-3609
▁बर्षको	-3610
▁कुरालाई	-3611
▁असम्भव	-3612
▁महिनामा	-3613
▁हुनेछैन	-3614
त्त	-3615
▁अह	-3616
▁आलो	-3617
▁शनि	-3618
▁प्रकट	-3619
ंखला	-3620
▁द्व	-3621
▁रह्यो	-3622
▁अध्यक्ष	-3623
-1	-3624
▁आइपुग	-3625
▁अद्	-3626
▁टाइ	-3627
चय	-3628
न्ने	-3629
▁लिएको	-3630
▁बताएका	-3631
▁अल्लाहले	-3632
▁खोजेको	-3633
फाइ	-3634
▁चम	-3635
▁बैठक	-3636
सत	-3637
▁सक्दैनौं	-3638
▁साँझ	-3639
▁प्रोग्राम	-3640
▁बौ	-3641
न्टा	-3642
▁केटी	-3643
▁अक्टो	-3644
▁सक्नु	-3645
▁हौँ	-3646
▁इजरा	-3647
▁पुगे	-3648
इरहेका	-3649
ंड	-3650
▁होटल	-3651
उनी	-3652
ारीरिक	-3653
▁विद्य	-3654
▁पहिलोपटक	-3655
िएन	-3656
▁तिर	-3657
▁पठाइ	-3658
▁पाएका	-3659
▁इलेक्ट	-3660
ers	-3661
▁धेरैले	-3662
ड़ी	-3663
िकै	-3664
▁आम	-3665
▁बित	-3666
▁भनिएको	-3667
▁24	-3668
▁बराबर	-3669
ईमा	-3670
▁२५	-3671
▁कहा	-3672
सक्ने	-3673
▁मी	-3674
▁हुन्छु	-3675
▁क्रिकेट	-3676
▁उद्य	-3677
▁हेर्दा	-3678
▁पहा	-3679
▁बोल्ने	-3680
▁लेखिएको	-3681
▁छोराछोरी	-3682
ेक्ट	-3683
▁मिला	-3684
▁कामको	-3685
▁सबैका	-3686
न्ना	-3687
▁हेर्नु	-3688
▁ईश्वरको	-3689
▁गर्दैछु	-3690
▁खण्ड	-3691
▁भारतको	-3692
▁प्रशंसा	-3693
▁शारीरिक	-3694
डामा	-3695
▁चेतावनी	-3696
▁महिलाको	-3697
ष्टा	-3698
▁आयोग	-3699
▁लिंक	-3700
▁उस्तै	-3701
वृत्ति	-3702
▁मुस्कुरा	-3703
▁जाए	-3704
▁देखिएको	-3705
un	-3706
▁धारणा	-3707
▁जन्मदिन	-3708
__	-3709
▁५०	-3710
▁निग	-3711
▁साउ	-3712
▁हिंसा	-3713
▁दुनिया	-3714
▁फ्रे	-3715
▁प्राणी	-3716
▁क्यारियर	-3717
:3	-3718
यू	-3719
▁ध्व	-3720
▁अपना	-3721
▁चौथो	-3722
▁वायु	-3723
ठी	-3724
▁कार्यान्वयन	-3725
षि	-3726
िकन	-3727
▁घरको	-3728
▁दुनियाँ	-3729
जात	-3730
हिँ	-3731
▁अध्या	-3732
साई	-3733
▁साइ	-3734
▁विन्ड	-3735
▁मुद्रा	-3736
क्सा	-3737
▁रुप	-3738
▁साल	-3739
▁दर्ता	-3740
▁दिमाग	-3741
ल्यान्ड	-3742
▁उपस्थित	-3743
▁सम्बन्धी	-3744
▁अक्टोबर	-3745
▁समयसम्म	-3746
ऊद	-3747
▁लकड	-3748
▁तस्वी	-3749
▁मानिसलाई	-3750
▁Q	-3751
लाग्	-3752
वक्ता	-3753
▁g	-3754
▁प्रतिनिधि	-3755
▁अफगा	-3756
▁क्रो	-3757
▁सम्बोधन	-3758
हरा	-3759
भुत	-3760
▁सत	-3761
सहित	-3762
▁खतर	-3763
▁सँधै	-3764
▁बढाउन	-3765
ज़	-3766
▁बलि	-3767
▁उर्जा	-3768
▁प्रसिद्ध	-3769
▁सर्वश्रेष्ठ	-3770
न्टर	-3771
▁बाइ	-3772
▁बसेर	-3773
▁आधारभूत	-3774
न्सर	-3775
▁इस्	-3776
▁जिल्ला	-3777
ाउनुहोस्	-3778
▁मन्त्री	-3779
▁विचारमा	-3780
▁मूल्या	-3781
▁उड	-3782
▁तनाव	-3783
▁माफी	-3784
▁अभिने	-3785
▁रोक्न	-3786
िया	-3787
▁पर्यटक	-3788
्रिका	-3789
रुप	-3790
वेद	-3791
दाता	-3792
▁निश्चय	-3793
▁केटा	-3794
▁खेलमा	-3795
▁तपाइँलाई	-3796
"।	-3797
अब	-3798
पे	-3799
▁X	-3800
▁थु	-3801
▁एकजना	-3802
▁राजधानी	-3803
▁बाबा	-3804
▁सबको	-3805
हाम्रो	-3806
▁आमाले	-3807
छिन	-3808
▁लागे	-3809
▁विजे	-3810
▁ल्याउन	-3811
▁बसि	-3812
▁तारा	-3813
▁तपाईंका	-3814
मेन्ट	-3815
ab	-3816
▁दस	-3817
▁पह	-3818
▁आउट	-3819
▁मनमा	-3820
▁रूसी	-3821
▁चीनमा	-3822
▁मस्ति	-3823
जसो	-3824
▁अस्ट	-3825
▁नेपालमा	-3826
धाई	-3827
▁तत्व	-3828
▁क्रेडिट	-3829
▁अने	-3830
▁पढ्	-3831
▁अभियान	-3832
ल्ल	-3833
▁चिकित्सा	-3834
पण	-3835
ङ्क	-3836
▁प्रोज	-3837
us	-3838
▁गरौँ	-3839
▁प्रदेश	-3840
कल्प	-3841
▁गुणव	-3842
▁टर्की	-3843
▁नहुने	-3844
▁जीत	-3845
्युनि	-3846
▁करोड	-3847
▁हिसा	-3848
गे	-3849
▁कानूनी	-3850
▁आएर	-3851
▁मेरै	-3852
णि	-3853
ess	-3854
▁मामला	-3855
▁स्मरण	-3856
▁प्रेरित	-3857
ot	-3858
वाई	-3859
▁लाग्ने	-3860
▁वरिपरि	-3861
▁उपकरणहरू	-3862
▁एल	-3863
▁चर	-3864
▁पढ्ने	-3865
▁पुगेको	-3866
▁त्यसोभए	-3867
▁गोपनीयता	-3868
▁निस्सन्देह	-3869
▁गर्नुपर्नेछ	-3870
निस्ता	-3871
संख्या	-3872
▁जर्मन	-3873
▁यहू	-3874
▁बीचको	-3875
▁अग्र	-3876
▁प्ला	-3877
▁रेखा	-3878
▁साक्षी	-3879
▁वर्षसम्म	-3880
ामित्व	-3881
▁तपाईहरु	-3882
▁समर्पित	-3883
em	-3884
सेकम	-3885
▁चाँ	-3886
▁पर्व	-3887
▁क्रिसम	-3888
▁तुलनामा	-3889
▁त्यसकारण	-3890
▁भन्नुहुन्छ	-3891
▁ग्	-3892
▁मिस	-3893
▁पछ्या	-3894
▁मानिसहरूको	-3895
▁ढु	-3896
▁ट्वी	-3897
▁दाऊद	-3898
▁दिवस	-3899
▁चरणमा	-3900
▁छोड्न	-3901
▁खोप	-3902
▁सुन्ने	-3903
ig	-3904
बाबु	-3905
▁बढ्दै	-3906
▁खतरनाक	-3907
▁अल्लाहको	-3908
▁रस	-3909
रान	-3910
▁विकि	-3911
हरुबाट	-3912
▁परिचय	-3913
मेत	-3914
▁घटा	-3915
▁बाह	-3916
▁श्रृंखला	-3917
▁सरकारको	-3918
▁चोरी	-3919
पान्तरण	-3920
ल्ली	-3921
▁गएका	-3922
▁बधाई	-3923
▁सोधेँ	-3924
▁वार्ता	-3925
▁महिलाले	-3926
▁प्रयोगको	-3927
लेका	-3928
▁करिब	-3929
▁तुझको	-3930
▁धन्यबाद	-3931
▁तुरुन्तै	-3932
ct	-3933
लाको	-3934
नुहुने	-3935
▁कोई	-3936
▁मोशा	-3937
▁गरेनन्	-3938
▁प्रेरणा	-3939
▁गर्नुहुनेछ	-3940
▁नजर	-3941
▁किसि	-3942
▁सञ्चालन	-3943
▁मृत्युको	-3944
▁बन	-3945
▁मेड	-3946
▁कमसेकम	-3947
▁ट्राफिक	-3948
▁महिलाहरु	-3949
▁शासन	-3950
▁यसकारण	-3951
▁साझेदार	-3952
देख	-3953
▁हावा	-3954
▁गेट	-3955
▁शरणा	-3956
▁जनसंख्या	-3957
गारी	-3958
▁ईमान	-3959
▁मेहन	-3960
तिहासिक	-3961
▁स्वामित्व	-3962
ub	-3963
आज	-3964
▁शर्त	-3965
क्सिको	-3966
▁सोध्न	-3967
▁ते	-3968
तिजा	-3969
▁लगातार	-3970
▁अफ्रिका	-3971
नलाई	-3972
▁पठाउन	-3973
▁विविध	-3974
व्यक्ति	-3975
▁बुझ्ने	-3976
▁स्थायी	-3977
▁उत्पादनहरु	-3978
▁शास	-3979
रहेकी	-3980
▁गर्छन	-3981
▁मस्तिष्	-3982
▁विश्वका	-3983
ir	-3984
म्बार	-3985
▁पेरिस	-3986
िनँ	-3987
▁टिक	-3988
▁वार्ष	-3989
▁जान्नु	-3990
▁राखेको	-3991
शो	-3992
▁जागिर	-3993
▁पुस्तका	-3994
▁प्रच	-3995
▁महान्	-3996
हिक	-3997
▁कपडा	-3998
▁यातायात	-3999
▁भ्र	-4000
▁प्रवि	-4001
▁जबसम्म	-4002
▁महामारी	-4003
मिन	-4004
रीय	-4005
▁टीम	-4006
▁अप्रि	-4007
▁तर्फबाट	-4008
्रह्	-4009
▁छिम	-4010
ation	-4011
ow	-4012
मूल	-4013
▁चो	-4014
▁एफ	-4015
▁हालै	-4016
▁एक्लो	-4017
▁फर्का	-4018
▁अद्भुत	-4019
▁लेखेको	-4020
▁निर्माता	-4021
▁y	-4022
जिनि	-4023
वेक्षण	-4024
▁मिल्	-4025
▁कोशिस	-4026
▁बनाउनु	-4027
▁भौतिक	-4028
▁मन्दिर	-4029
▁रहेछन्	-4030
▁शरणार्थी	-4031
▁पुस्तकालय	-4032
▁पक्राउ	-4033
▁वर्षपछि	-4034
▁अविश्वसनीय	-4035
▁अनेक	-4036
▁भनाइ	-4037
▁जापानमा	-4038
ीकृत	-4039
▁गरिब	-4040
ँचा	-4041
▁हित	-4042
▁छोरो	-4043
▁तथ्या	-4044
▁सिर्फ	-4045
▁स्कुल	-4046
ut	-4047
▁पेट	-4048
▁ब्य	-4049
▁होट	-4050
▁साहि	-4051
▁प्रारम्भिक	-4052
ब्र	-4053
▁अपरि	-4054
▁निकट	-4055
▁प्रथम	-4056
▁विश्वसनीय	-4057
▁ढि	-4058
▁चलि	-4059
▁अर्थात	-4060
▁देखेका	-4061
▁बारम्बार	-4062
चो	-4063
▁दोहो	-4064
ँदैनन्	-4065
▁तालिका	-4066
▁भविष्यको	-4067
▁अद्व	-4068
▁पुलिस	-4069
▁मतदान	-4070
▁मुक्ति	-4071
▁प्रश्नको	-4072
ep	-4073
नेर	-4074
▁प्रदू	-4075
▁भन्नेमा	-4076
▁विश्वमा	-4077
▁डिग्री	-4078
▁अफगानिस्ता	-4079
▁बास	-4080
▁द्रु	-4081
▁फुटब	-4082
▁नतिजा	-4083
हीन	-4084
हालय	-4085
▁बचा	-4086
चारिक	-4087
▁गरिने	-4088
▁महिनाको	-4089
▁ऐतिहासिक	-4090
▁=	-4091
▁कर्त	-4092
▁गन्त	-4093
▁एकदिन	-4094
▁अत्यधिक	-4095
▁विश्वभर	-4096
ः१	-4097
▁वय	-4098
▁क्षेत्रको	-4099
▁आवश्यकताहरू	-4100
दिनँ	-4101
क्षिक	-4102
▁हेरचाह	-4103
▁जम्मा	-4104
▁न्यून	-4105
ve	-4106
▁गर्मी	-4107
▁ट्रेन	-4108
▁सडकमा	-4109
पक	-4110
▁नगर्नुहोस्	-4111
▁अभिभाव	-4112
▁लेख्ने	-4113
▁राखिएको	-4114
▁इटा	-4115
▁रहि	-4116
▁क्ला	-4117
▁नारी	-4118
▁खाद्य	-4119
नेछैन	-4120
▁तिनले	-4121
▁हुदैन	-4122
▁स्त्री	-4123
▁अद्वितीय	-4124
▁मेक्सिको	-4125
▁तह	-4126
▁२४	-4127
▁४०	-4128
दार्थ	-4129
▁द्रुत	-4130
▁अघिल्लो	-4131
▁(1	-4132
वाहित	-4133
▁ब्रह्	-4134
▁सेकेन्ड	-4135
▁परम्परागत	-4136
▁n	-4137
▁तर्क	-4138
▁शब्दहरू	-4139
नीको	-4140
माले	-4141
▁गरा	-4142
▁सम्झि	-4143
्रेस	-4144
▁बिहे	-4145
▁उनीहरूसँग	-4146
समेत	-4147
▁खडा	-4148
▁मरि	-4149
विधिक	-4150
स्कृतिक	-4151
▁जनताले	-4152
भवती	-4153
▁नभए	-4154
▁अन्ध	-4155
▁गुरु	-4156
▁बताउ	-4157
▁पाठ्य	-4158
▁दीर्घकालीन	-4159
▁यसबारे	-4160
चे	-4161
▁पक्का	-4162
▁चिकित्सक	-4163
▁परिभाषित	-4164
▁हुनुहुनेछ	-4165
▁बढ्न	-4166
▁सधैँ	-4167
▁अर्कै	-4168
▁स्टेशन	-4169
▁राख्नुहोस्	-4170
सबै	-4171
▁छैन्	-4172
▁दर्शक	-4173
▁बचाउन	-4174
▁बढा	-4175
▁एप्प	-4176
▁विश्वस्त	-4177
).	-4178
▁साना	-4179
क्रे	-4180
▁केस	-4181
▁कम्युनि	-4182
▁संक्रमण	-4183
दारी	-4184
▁अना	-4185
▁गर्दैछौं	-4186
▁चन्द्रमा	-4187
▁कन्	-4188
जान	-4189
▁पाठक	-4190
▁रूपान्तरण	-4191
कस	-4192
मय	-4193
▁सबैजना	-4194
▁नवीन	-4195
▁शहरमा	-4196
▁तिनलाई	-4197
▁विकासको	-4198
▁न्यु	-4199
▁संग्र	-4200
▁त्यसका	-4201
▁आकर्षित	-4202
im	-4203
▁धरती	-4204
िरहेका	-4205
▁ब्राउ	-4206
कर्मी	-4207
▁नहुन	-4208
▁भक्त	-4209
▁अनुमो	-4210
▁गर्भवती	-4211
म्मेद	-4212
▁आयोजना	-4213
▁भारतमा	-4214
▁रोजगार	-4215
▁सूचीमा	-4216
▁वर्षअघि	-4217
▁चाहान्छु	-4218
▁स्वचालित	-4219
नेछौ	-4220
▁ओली	-4221
▁बेर	-4222
▁देउवा	-4223
▁अर्थतन्त्र	-4224
शै	-4225
▁प्राविधिक	-4226
▁त्यहि	-4227
▁सकेनन्	-4228
▁सबभन्दा	-4229
▁साथीहरु	-4230
सिस	-4231
▁घरेल	-4232
▁मलाइ	-4233
▁यसबाट	-4234
अल	-4235
जमा	-4236
▁अफि	-4237
सक्यो	-4238
▁मिले	-4239
▁विजय	-4240
▁शुक्रबार	-4241
चर	-4242
सला	-4243
र्खा	-4244
▁You	-4245
▁मौन	-4246
▁दोषी	-4247
▁नपा	-4248
▁बिहान	-4249
▁गन्तव्य	-4250
न्यास	-4251
▁मानक	-4252
▁बसेको	-4253
▁शैक्षिक	-4254
▁चीनले	-4255
▁दुष्ट	-4256
▁न्याया	-4257
▁राज्यको	-4258
दल	-4259
हैन	-4260
▁पल	-4261
▁100	-4262
▁जवान	-4263
▁भोलि	-4264
▁अनुसरण	-4265
▁विजेता	-4266
▁साहित्य	-4267
सू	-4268
दैछ	-4269
▁रसूल	-4270
▁हिजो	-4271
लाग्दो	-4272
▁जीवनका	-4273
▁प्रतिज्ञा	-4274
शले	-4275
▁करा	-4276
▁ग्य	-4277
सँगको	-4278
▁मिति	-4279
पचारिक	-4280
▁एशिया	-4281
▁पुत्र	-4282
▁गुणवत्ता	-4283
▁0	-4284
ल्स	-4285
▁टु	-4286
▁लैजा	-4287
▁लक्षण	-4288
▁हटाउन	-4289
▁बाँच्न	-4290
▁सर्वोच्च	-4291
▁नकारात्मक	-4292
थेँ	-4293
▁भाई	-4294
आफ्नो	-4295
▁मूर्	-4296
▁गर्छिन्	-4297
वायु	-4298
▁फेब	-4299
▁स्वर्गदूत	-4300
इज	-4301
नस	-4302
▁गहि	-4303
▁यसअघि	-4304
▁अभिन	-4305
▁यहीँ	-4306
▁हुँदैछ	-4307
▁पोष्ट	-4308
▁हेरेर	-4309
▁दिमागमा	-4310
▁माइक्रो	-4311
व्र	-4312
▁बताउन	-4313
▁सोचे	-4314
▁वयस्क	-4315
▁सवारी	-4316
▁अधिकतम	-4317
▁कागजात	-4318
▁गर्नुहोस	-4319
ख्	-4320
संघ	-4321
▁उभ	-4322
▁बनाएका	-4323
▁J	-4324
▁संसद	-4325
▁संघीय	-4326
▁सामेल	-4327
▁गरेपछि	-4328
▁छिमेकी	-4329
▁ब्रह्मा	-4330
▁साथीहरू	-4331
▁एव	-4332
▁लाखौं	-4333
.1	-4334
▁बायाँ	-4335
▁आँखामा	-4336
▁राख्छ	-4337
▁आमालाई	-4338
▁ः	-4339
▁काट	-4340
▁दबा	-4341
▁पीडित	-4342
▁प्राथमिकता	-4343
जिन	-4344
▁च्या	-4345
ठमा	-4346
ेगा	-4347
▁दायाँ	-4348
▁उनकी	-4349
▁कुराले	-4350
▁नेपालको	-4351
▁फ्रान्सेली	-4352
▁अत्यन्तै	-4353
▁परिवारलाई	-4354
▁तुम	-4355
▁आप्र	-4356
▁उनीहरुका	-4357
▁सन्दर्भमा	-4358
▁दल	-4359
▁शेयर	-4360
▁सत्ता	-4361
▁अमेरिकाले	-4362
▁गर्नुहुन्न	-4363
ँउ	-4364
िएँ	-4365
▁उद्योगमा	-4366
▁क्यान्सर	-4367
▁संग्रहालय	-4368
अरी	-4369
▁ढोका	-4370
वारिक	-4371
▁ज्यान	-4372
▁पत्रिका	-4373
▁देवी	-4374
▁दिनुभयो	-4375
दायी	-4376
मान्	-4377
▁करे	-4378
▁तिमि	-4379
▁बग	-4380
शाला	-4381
▁मरे	-4382
ज्ञान	-4383
▁कार्	-4384
▁आफ्नी	-4385
▁नगर्ने	-4386
कारि	-4387
युद्ध	-4388
▁बालिका	-4389
▁टेलिभिजन	-4390
ap	-4391
राज	-4392
▁कालो	-4393
▁ज्यो	-4394
▁दूरी	-4395
▁मोटर	-4396
▁प्रया	-4397
▁आलोचना	-4398
व्यवस्था	-4399
▁चिज	-4400
▁भिसा	-4401
▁लायक	-4402
▁पृष्ठमा	-4403
▁जंग	-4404
▁सभा	-4405
▁प्रतिभा	-4406
▁तिमीहरूको	-4407
▁उन्	-4408
▁कर्	-4409
▁गोली	-4410
▁कार्यक्रममा	-4411
▁वजन	-4412
▁फोनमा	-4413
▁प्याके	-4414
▁क्रिसमस	-4415
▁प्रश्नहरू	-4416
र्इ	-4417
▁हिँड	-4418
▁सैनिक	-4419
▁सावधान	-4420
▁परिभाषा	-4421
▁लाग्थ्यो	-4422
वार्ता	-4423
भित्रै	-4424
▁जान्ने	-4425
▁कर्तव्य	-4426
▁नृ	-4427
▁कमी	-4428
योर्क	-4429
▁विना	-4430
▁सैन्य	-4431
▁तस्वीर	-4432
▁राज्यमा	-4433
▁कसको	-4434
▁चाहियो	-4435
रीत	-4436
▁कफी	-4437
▁मेहनत	-4438
ंकन	-4439
गमन	-4440
मका	-4441
▁जै	-4442
िन्छ	-4443
▁एन्ड	-4444
▁गणना	-4445
▁दण्ड	-4446
▁देखाइ	-4447
▁फेब्रु	-4448
जत	-4449
ँडै	-4450
पाल	-4451
▁पाठ्यक्रम	-4452
▁उसै	-4453
ामर्श	-4454
▁जन्मा	-4455
▁पार्ने	-4456
▁दायित्व	-4457
▁सर्वेक्षण	-4458
▁प्रक्रियामा	-4459
▁दास	-4460
भाविक	-4461
▁केन्द	-4462
▁रातको	-4463
▁पढ्नुहोस्	-4464
न्च	-4465
▁फाइल	-4466
▁पारिवारिक	-4467
त्यो	-4468
▁सकिनँ	-4469
सम्बन्ध	-4470
▁साइटमा	-4471
▁बताइएको	-4472
▁सुरक्षाको	-4473
▁लगानीकर्ता	-4474
रानी	-4475
वाही	-4476
▁चेक	-4477
▁हप्	-4478
▁प्रजा	-4479
▁प्रेमी	-4480
▁टेब	-4481
▁थिई	-4482
▁दाइ	-4483
▁रहनु	-4484
▁किन्न	-4485
▁चलाउन	-4486
▁गरिदि	-4487
ँगा	-4488
▁बानी	-4489
▁पश्चा	-4490
▁यथार्थ	-4491
▁प्रभुको	-4492
ज्या	-4493
▁जाऊ	-4494
▁वार्षिक	-4495
लेट	-4496
▁२२	-4497
▁कोठामा	-4498
▁बुझ्नु	-4499
os	-4500
▁गृह	-4501
▁नृत्य	-4502
▁बढ्दो	-4503
▁छुट्टी	-4504
काे	-4505
▁21	-4506
लोकन	-4507
ल्का	-4508
▁रद्द	-4509
▁छोडेर	-4510
▁बाल्य	-4511
▁नियमहरू	-4512
▁महत्त्व	-4513
लभ	-4514
दछु	-4515
▁सश	-4516
नियम	-4517
▁अनौ	-4518
▁भूल	-4519
▁२०२	-4520
▁चकित	-4521
▁तेरे	-4522
▁त्यसरी	-4523
▁राम्रा	-4524
▁अहिलेको	-4525
याम	-4526
▁चाँडै	-4527
▁पदार्थ	-4528
▁परामर्श	-4529
▁कार्यहरू	-4530
▁दिनुभएको	-4531
▁इन्टरनेटमा	-4532
▁पुराना	-4533
उहाँ	-4534
हत्या	-4535
▁बस्नु	-4536
▁होस्ट	-4537
ारेन्टी	-4538
▁सोमबार	-4539
बे	-4540
▁50	-4541
लिपि	-4542
▁खिच	-4543
दैनौं	-4544
▁चालक	-4545
▁दावी	-4546
▁संभाव	-4547
▁उत्साहित	-4548
ेटर	-4549
▁औसत	-4550
▁मेडिकल	-4551
▁भण्डारण	-4552
▁आत	-4553
▁बनि	-4554
▁सजाय	-4555
▁सीधा	-4556
▁खोज्ने	-4557
रहनु	-4558
▁कुरो	-4559
▁गराउन	-4560
च्छा	-4561
▁सेव	-4562
▁दुर्भाग्यवश	-4563
▁जग	-4564
रियो	-4565
▁जान्छन्	-4566
▁रानी	-4567
▁लुका	-4568
▁टेस्ट	-4569
▁बढेको	-4570
▁कानुनी	-4571
▁कष्ट	-4572
▁कारखा	-4573
▁शान्त	-4574
▁उपन्यास	-4575
oc	-4576
ेनन्	-4577
लिएको	-4578
वार्य	-4579
▁फाइन	-4580
▁गर्नै	-4581
▁लिएका	-4582
▁कहाँबाट	-4583
▁सांस्कृतिक	-4584
ईएको	-4585
▁आशि	-4586
▁कृषि	-4587
▁इच्छुक	-4588
▁दुर्घटना	-4589
▁+	-4590
हारी	-4591
▁अवि	-4592
▁विधे	-4593
िरहेको	-4594
▁तपाईंहरु	-4595
ोस	-4596
▁मनु	-4597
▁घरमै	-4598
▁प्रेमको	-4599
लीको	-4600
▁लन्ड	-4601
ूहन्ना	-4602
▁चमत्कार	-4603
▁प्रेममा	-4604
-'	-4605
ईको	-4606
▁दौड	-4607
▁राह	-4608
▁कृपा	-4609
▁बजेट	-4610
▁ब्रिटि	-4611
▁सक्दिनँ	-4612
▁ट्रम्पले	-4613
र्नु	-4614
▁२००८	-4615
▁देखियो	-4616
▁लिनुहोस्	-4617
र्द	-4618
▁साब	-4619
▁छोड्	-4620
▁त्याग	-4621
▁क्रिया	-4622
▁जलवायु	-4623
एकी	-4624
▁संग्रह	-4625
▁फेब्रुअरी	-4626
▁करी	-4627
चाहिँ	-4628
मानित	-4629
▁श्रे	-4630
▁एकमात्र	-4631
▁दिनसम्म	-4632
▁अनिवार्य	-4633
▁क्यामेरा	-4634
gle	-4635
▁विपरीत	-4636
▁प्रदूषण	-4637
नर	-4638
▁धू	-4639
प्रा	-4640
लियो	-4641
दृश्य	-4642
मानमा	-4643
▁अदाल	-4644
▁आउँछन्	-4645
▁कमजोरी	-4646
▁तरिकामा	-4647
जनको	-4648
▁कहानी	-4649
▁पोर्ट	-4650
▁आफैंलाई	-4651
ुर	-4652
▁बिल	-4653
▁चासो	-4654
ओस्	-4655
वर्ड	-4656
▁बोली	-4657
▁आन्दोलन	-4658
▁अनन्त	-4659
▁जहिले	-4660
▁एयरपोर्ट	-4661
▁अर्थव्यवस्था	-4662
▁of	-4663
▁ली	-4664
▁फाई	-4665
एनन्	-4666
चालन	-4667
▁जसो	-4668
▁मेट	-4669
▁खोज्	-4670
▁बन्यो	-4671
▁बेच्न	-4672
▁खुल्ला	-4673
▁बच्चालाई	-4674
छो	-4675
यमा	-4676
योग्य	-4677
▁स्कु	-4678
▁विकल्पहरू	-4679
उको	-4680
ञ्जी	-4681
▁नदि	-4682
▁अप्र	-4683
▁दिएर	-4684
▁अत्या	-4685
हामीलाई	-4686
खर	-4687
▁Goo	-4688
▁शरीरमा	-4689
▁घटनाहरू	-4690
▁पृष्ठभूमि	-4691
▁आश्चर्यजनक	-4692
र्सिलो	-4693
▁खेलको	-4694
▁मूर्ख	-4695
▁माइ	-4696
▁सोशल	-4697
▁खोल्न	-4698
▁देख्ने	-4699
▁मुस्लिम	-4700
भार	-4701
▁नरक	-4702
▁दिनभर	-4703
▁जनतालाई	-4704
ेरै	-4705
▁दुव	-4706
▁किसान	-4707
▁पाउँदा	-4708
▁पार्टीको	-4709
▁त्यहाँबाट	-4710
छन	-4711
▁छान	-4712
▁वाक	-4713
▁क्याना	-4714
▁ब्रह्माण्ड	-4715
कला	-4716
डको	-4717
▁लोकतन्त्र	-4718
▁वास्तविकता	-4719
▁प्रतियोगिता	-4720
▁दै	-4721
▁उन्न	-4722
▁तपाइ	-4723
▁अज्ञा	-4724
▁त्यसबेला	-4725
▁महिलालाई	-4726
▁हुनुहोस्	-4727
▁दाँ	-4728
▁कामदार	-4729
▁उत्पादनको	-4730
▁भन्नुभयोः	-4731
ंच	-4732
म्स	-4733
नेमा	-4734
स्टम	-4735
▁चोर	-4736
▁भारी	-4737
▁अगाडी	-4738
▁अप्रिल	-4739
▁विगतमा	-4740
▁साँच्चिकै	-4741
पर्छ	-4742
दर्शी	-4743
रहन्छ	-4744
▁साउदी	-4745
▁त्यहीँ	-4746
▁गणतन्त्र	-4747
▁उहाँहरुले	-4748
um	-4749
कीय	-4750
▁स्ना	-4751
▁उहाँका	-4752
▁युद्धको	-4753
▁अस्पतालमा	-4754
▁त्यतिबेला	-4755
▁अभिव्यक्ति	-4756
▁बला	-4757
▁कांग	-4758
▁चिया	-4759
▁महिमा	-4760
▁राजकु	-4761
इन्छ	-4762
ारमा	-4763
णिज्य	-4764
▁प्रेमिका	-4765
▁जल्	-4766
▁भ्या	-4767
▁छात्र	-4768
▁देखिए	-4769
▁ज्योति	-4770
▁निर्यात	-4771
ंस	-4772
िम	-4773
▁एसिया	-4774
▁देखाउ	-4775
▁लिखित	-4776
▁यसबाहेक	-4777
▁प्रतिक्षा	-4778
ेरो	-4779
▁मेल	-4780
▁हाउ	-4781
ष्कार	-4782
▁अनुप	-4783
▁सुत्	-4784
▁ढाँचा	-4785
▁ब्राजि	-4786
पिंग	-4787
▁इन्कार	-4788
▁ग्राहकहरूको	-4789
र्चु	-4790
▁ध्या	-4791
▁लकडाउन	-4792
ेपछि	-4793
▁कोष	-4794
▁टुक	-4795
▁शरीरको	-4796
▁बच्चाहरू	-4797
चाप	-4798
डरा	-4799
नाई	-4800
▁कठोर	-4801
▁प्रभा	-4802
▁हेरौं	-4803
▁पाइन्छ	-4804
▁दिन्छन्	-4805
▁दिन्छौं	-4806
▁हप्तामा	-4807
▁i	-4808
्र्या	-4809
▁जडान	-4810
▁पूर्वा	-4811
▁आमाबाबु	-4812
▁प्रतिलिपि	-4813
▁हक	-4814
▁अरे	-4815
▁एल्	-4816
▁लम्	-4817
▁विद्यु	-4818
▁भिन्नता	-4819
▁हेर्नुस्	-4820
ver	-4821
▁जोडी	-4822
▁बौद्ध	-4823
▁नसक्ने	-4824
▁आत्महत्या	-4825
भरी	-4826
▁मज	-4827
▁गिर	-4828
नुभएन	-4829
िन्दा	-4830
▁स्टार	-4831
▁बर्षमा	-4832
▁तिमीहरु	-4833
▁न्यूनतम	-4834
▁समस्याको	-4835
काम	-4836
▁शू	-4837
पदण्ड	-4838
▁तीव्र	-4839
▁उम्मेद	-4840
▁खुट्टा	-4841
▁नियन्त्रणमा	-4842
इदि	-4843
वर्ष	-4844
▁गोल	-4845
▁पुग्	-4846
▁याकू	-4847
▁सोध्	-4848
▁च्यान	-4849
▁तिनका	-4850
▁यातना	-4851
ईओ	-4852
▁सधै	-4853
▁देखो	-4854
द्योगिक	-4855
शास्त्र	-4856
▁मापदण्ड	-4857
ौर	-4858
▁th	-4859
▁एप	-4860
▁पनी	-4861
हारिक	-4862
▁मार्न	-4863
▁प्रतिस्पर्धी	-4864
nd	-4865
क्रमित	-4866
▁शुद्ध	-4867
नुपर्यो	-4868
▁तिनीहरूका	-4869
▁बिस्त	-4870
▁Google	-4871
▁येशूले	-4872
▁जोडिएको	-4873
ome	-4874
सेन्स	-4875
▁फर्कि	-4876
▁एकीकृत	-4877
खु	-4878
▁देर	-4879
▁यता	-4880
▁हस्त	-4881
▁अरूलाई	-4882
▁विश्वा	-4883
▁उपलब्धि	-4884
▁बनाउँदछ	-4885
▁वहाँ	-4886
▁पुस्ता	-4887
▁अर्कालाई	-4888
इकल	-4889
▁शौ	-4890
▁अंक	-4891
▁निराशा	-4892
op	-4893
रहेछ	-4894
▁Tag	-4895
▁गया	-4896
▁लड्न	-4897
▁भागमा	-4898
▁छैनौ	-4899
▁पश्चिमी	-4900
▁बू	-4901
्यूब	-4902
▁जीवनलाई	-4903
▁ग्यारेन्टी	-4904
स्स	-4905
▁गएँ	-4906
▁भरि	-4907
▁उल्ल	-4908
▁बहुमत	-4909
▁रातमा	-4910
▁ल्याउ	-4911
▁दिल्ली	-4912
▁सफलताको	-4913
सीको	-4914
▁१९८	-4915
▁बिल्	-4916
▁निकाय	-4917
▁सोध्नु	-4918
▁गरिसकेका	-4919
▁बार्सिलो	-4920
▁परमप्रभुले	-4921
▁थियौ	-4922
▁बिर्स	-4923
▁शिक्ष	-4924
ध्यात्म	-4925
▁युक्रे	-4926
वीय	-4927
पमान	-4928
हिने	-4929
▁छिन	-4930
▁गुना	-4931
▁निको	-4932
▁खेलहरू	-4933
▁बताउँछ	-4934
▁समाजमा	-4935
▁नमस्कार	-4936
▁हप्ताको	-4937
▁आयात	-4938
▁दाबी	-4939
▁उदाहरणको	-4940
▁यात्रामा	-4941
▁कुकु	-4942
▁मुटु	-4943
▁सुन्नु	-4944
▁अचम्मको	-4945
▁ड्र	-4946
▁भोक	-4947
▁दिदी	-4948
▁संचार	-4949
▁सेवाको	-4950
ous	-4951
यत्न	-4952
▁घन्टा	-4953
▁दशकमा	-4954
▁लगाएको	-4955
▁आप्रवासी	-4956
ore	-4957
थें	-4958
ेरे	-4959
पालिका	-4960
▁चाहँदैन	-4961
▁वेबसाइटको	-4962
▁दूध	-4963
▁धारा	-4964
▁नाउँ	-4965
▁सोधें	-4966
▁अस्ट्रेलिया	-4967
▁मँ	-4968
ञ्जा	-4969
▁झन्	-4970
▁चाहने	-4971
▁निर्वाचन	-4972
▁मानिसहरुले	-4973
धित	-4974
रात	-4975
▁सभ	-4976
▁the	-4977
▁परेका	-4978
▁प्रयत्न	-4979
ेरिया	-4980
▁आदर्श	-4981
▁सुनेर	-4982
▁देख्नु	-4983
▁स्पेनि	-4984
▁हृदयमा	-4985
▁आध्यात्म	-4986
▁छेउ	-4987
▁२०१६	-4988
▁औद्योगिक	-4989
मर	-4990
▁आश	-4991
ण्डा	-4992
▁छन्ः	-4993
म्रपान	-4994
▁थाल्यो	-4995
दको	-4996
▁22	-4997
▁रोजगारी	-4998
vi	-4999
▁गाय	-5000
▁प्रोजेक्ट	-5001
एच	-5002
▁होः	-5003
▁दिएँ	-5004
▁बालक	-5005
▁दिनदेखि	-5006
▁मुस्कान	-5007
नाम	-5008
▁तू	-5009
▁ये	-5010
▁आयु	-5011
▁गुणा	-5012
▁विन्डोज	-5013
▁समस्याहरू	-5014
किंग	-5015
▁पश्चिम	-5016
▁जोखिममा	-5017
▁पढ्नु	-5018
▁व्यावहारिक	-5019
▁मर्न	-5020
▁साइन	-5021
सकेपछि	-5022
तरी	-5023
स्पद	-5024
क्षेप	-5025
▁छोडि	-5026
▁जाँदा	-5027
▁प्राण	-5028
▁सहयोगी	-5029
स्म	-5030
▁जसका	-5031
▁उमेरका	-5032
▁देऊ	-5033
▁बुढ	-5034
▁सागर	-5035
▁सिंह	-5036
▁आफैले	-5037
▁पारित	-5038
▁सिक्ने	-5039
▁अर्काको	-5040
स्प	-5041
ाउँदै	-5042
▁घरबाट	-5043
▁देख्छु	-5044
▁आध्यात्मिक	-5045
लिया	-5046
▁काउ	-5047
▁भोजन	-5048
▁फैसला	-5049
▁यात्राको	-5050
फेस	-5051
▁40	-5052
▁गठन	-5053
▁इतिहासमा	-5054
वट	-5055
▁इमेल	-5056
▁दुवैले	-5057
▁देशहरू	-5058
▁वर्षका	-5059
▁निःसन्देह	-5060
ाउँछन्	-5061
▁क्यान	-5062
ly	-5063
स्थल	-5064
▁बनेका	-5065
▁शीर्षक	-5066
▁जानुहोस्	-5067
▁निष्कर्ष	-5068
,,	-5069
▁भोग	-5070
▁रातो	-5071
▁अनिश्चित	-5072
▁पृथ्वीको	-5073
यनको	-5074
▁पुग्छ	-5075
▁कुञ्जी	-5076
▁युरोपियन	-5077
लस	-5078
तका	-5079
उँदा	-5080
▁कत्ति	-5081
▁जनाले	-5082
▁प्रेस	-5083
▁हुनेछु	-5084
▁पाउनुहुनेछ	-5085
बन	-5086
दैनौ	-5087
▁पढाइ	-5088
▁गर्नुहोला	-5089
.5	-5090
▁फिट	-5091
▁किलो	-5092
▁आउँदछ	-5093
▁प्रोत्सा	-5094
▁भुक्तानी	-5095
▁एकछिन	-5096
▁जित्न	-5097
▁भाइरस	-5098
▁हाँस्	-5099
▁ग्राहकको	-5100
UM	-5101
बेस	-5102
ामक	-5103
▁बन्छ	-5104
▁मेरे	-5105
▁लगाए	-5106
▁संसा	-5107
▁बर्बाद	-5108
▁बाहिरी	-5109
नुपर्नेछ	-5110
.2	-5111
▁धै	-5112
▁परिष	-5113
▁लेख्	-5114
▁सूचित	-5115
▁केन्द्रीय	-5116
ak	-5117
खत	-5118
▁फेर	-5119
▁कुकी	-5120
▁बनाइएको	-5121
▁हुँदैनन्	-5122
पथ	-5123
▁टिकट	-5124
▁लडाई	-5125
▁२०१२	-5126
▁देखें	-5127
▁वृद्ध	-5128
कर्म	-5129
ङ्गा	-5130
▁मेस	-5131
▁खासै	-5132
▁सोचेको	-5133
▁औपचारिक	-5134
▁प्रोफाइ	-5135
▁२६	-5136
▁युट	-5137
▁वाह	-5138
▁जनाको	-5139
▁अर्थमा	-5140
▁सुनेका	-5141
▁होलान्	-5142
अनि	-5143
्रेड	-5144
▁2016	-5145
▁दायरा	-5146
▁आयोजित	-5147
▁विवाहित	-5148
▁सर्तहरू	-5149
▁अर्कोतर्फ	-5150
वेष	-5151
▁to	-5152
▁पुगेका	-5153
▁सेवाहरूको	-5154
द्री	-5155
▁पर्ख	-5156
▁रक्त	-5157
हरूमाथि	-5158
▁बृद्धि	-5159
▁गर्दैछन्	-5160
ूट	-5161
गडा	-5162
▁हिड	-5163
▁पर्नेछ	-5164
▁लक्षित	-5165
▁यहाँबाट	-5166
▁आउनुहोस्	-5167
ri	-5168
▁मू	-5169
दछौं	-5170
▁एउटी	-5171
▁भेला	-5172
▁चाहिए	-5173
▁सप्ता	-5174
▁प्रचार	-5175
▁लगाउने	-5176
▁चलिरहेको	-5177
र्वाद	-5178
▁पर्न	-5179
▁इजराय	-5180
▁अन्वेष	-5181
▁अब्राह	-5182
▁पर्यटन	-5183
▁जानकारीको	-5184
▁पालनकर्ता	-5185
▁प्रणालीको	-5186
ब्लिक	-5187
▁2019	-5188
▁घुम्	-5189
▁तालि	-5190
▁कोशिश	-5191
▁बताएको	-5192
▁सक्छौँ	-5193
▁साम्रा	-5194
▁सावधानी	-5195
रका	-5196
थिन्	-5197
बीचको	-5198
▁टुक्रा	-5199
▁सम्मेलन	-5200
नाइट	-5201
▁टिम	-5202
▁ग्लो	-5203
▁दुईवटा	-5204
▁स्वर्गमा	-5205
▁एवं	-5206
▁संभव	-5207
▁सोच्ने	-5208
▁संभावना	-5209
तिकै	-5210
▁ईन्	-5211
▁चाल	-5212
▁शिका	-5213
▁तिनको	-5214
▁भनेकी	-5215
▁सकियो	-5216
▁युद्धमा	-5217
पू	-5218
िनै	-5219
यानक	-5220
▁दिनेछ	-5221
▁तिनीहरु	-5222
▁रिस	-5223
शक्ति	-5224
▁फ्या	-5225
▁बोनस	-5226
घन	-5227
िल	-5228
text	-5229
▁हाइ	-5230
▁गरीब	-5231
▁कोसिस	-5232
▁संकलन	-5233
▁ल्याउने	-5234
▁फेसबुकमा	-5235
="1	-5236
▁अं	-5237
ल्दै	-5238
▁भयानक	-5239
▁अमेरिकन	-5240
▁प्रचण्ड	-5241
▁प्रसारण	-5242
▁कम्पनीहरूले	-5243
ong	-5244
लिप	-5245
▁गते	-5246
▁हल्का	-5247
▁अन्धकार	-5248
▁व्यक्तिहरूको	-5249
थी	-5250
होइन	-5251
▁पार्छ	-5252
िन्थ्यो	-5253
▁दिनेछु	-5254
▁संसारका	-5255
▁व्यवसायको	-5256
--	-5257
सम्बन्धी	-5258
:4	-5259
▁१९७	-5260
न्छौं	-5261
▁यहाँको	-5262
▁स्वच्छ	-5263
▁गरिसकेको	-5264
▁मान्छेहरु	-5265
स्ते	-5266
▁पहाड	-5267
▁अज्ञात	-5268
▁पारेको	-5269
▁विदेशमा	-5270
▁विभाजित	-5271
▁परिवारमा	-5272
▁कह	-5273
पनको	-5274
▁कठि	-5275
▁चेत	-5276
च्छेद	-5277
▁आश्व	-5278
▁शिशु	-5279
▁देखिने	-5280
▁उद्देश्यका	-5281
▁बच्चाहरूको	-5282
ुवा	-5283
▁वन	-5284
▁भीड	-5285
▁मुसा	-5286
▁अन्या	-5287
▁धैर्य	-5288
▁युनियन	-5289
▁उहाँसँग	-5290
ul	-5291
▁किश	-5292
▁बिच	-5293
▁ल्याए	-5294
▁प्रोत्साहन	-5295
ूद	-5296
डिंग	-5297
वाणी	-5298
्रिक	-5299
▁जून	-5300
▁रोकि	-5301
▁सयौं	-5302
▁थियौँ	-5303
▁सकेका	-5304
▁ग्राहकहरू	-5305
▁निर्धारित	-5306
com	-5307
ललाई	-5308
▁दूर	-5309
▁रोब	-5310
क्सको	-5311
निर्देश	-5312
▁रचनात्मक	-5313
eb	-5314
ost	-5315
पात	-5316
▁..	-5317
क्षम	-5318
▁फार	-5319
दिएको	-5320
▁तेरी	-5321
▁राखेर	-5322
▁छोराहरू	-5323
निकल	-5324
▁अधी	-5325
रुपमा	-5326
▁२०१९	-5327
▁लेखमा	-5328
विर	-5329
▁८०	-5330
श्रम	-5331
▁बहस	-5332
▁पढेको	-5333
▁सञ्जा	-5334
▁सोच्नु	-5335
▁भुक्तान	-5336
▁कम्पनीमा	-5337
▁परिवारले	-5338
▁क्षेत्रका	-5339
▁परिणामहरू	-5340
▁प्रतिवेदन	-5341
▁प्रक्रियाको	-5342
पोर	-5343
▁टोक	-5344
▁बुध	-5345
▁बोल	-5346
▁अङ्ग	-5347
▁अरुलाई	-5348
▁re	-5349
▁पाकिस्तान	-5350
ेन्ट	-5351
▁and	-5352
▁खैर	-5353
▁संशो	-5354
▁घरेलु	-5355
▁बनाएर	-5356
▁यात्रु	-5357
▁संख्यामा	-5358
▁खोज्नु	-5359
▁साम्राज्य	-5360
ter	-5361
▁दृढ	-5362
▁नोटः	-5363
▁एकसाथ	-5364
▁उत्तरी	-5365
▁लाइसेन्स	-5366
▁अनुप्रयोगहरू	-5367
ाई	-5368
मार	-5369
उँदैन	-5370
▁अफ्र	-5371
▁नक्सा	-5372
▁पात्र	-5373
▁बसेका	-5374
▁विभाजन	-5375
▁समुद्री	-5376
▁भाग्यमानी	-5377
कता	-5378
देऊ	-5379
कम्प	-5380
कार्	-5381
सीले	-5382
▁अगम	-5383
▁जोग	-5384
▁सेल	-5385
▁झगडा	-5386
▁काठमा	-5387
▁सम्पाद	-5388
▁कम्पनीहरु	-5389
रोह	-5390
वको	-5391
▁Pre	-5392
▁कता	-5393
मूल्य	-5394
▁ठेगा	-5395
▁धर्ती	-5396
▁ट्र्या	-5397
▁मास्टर	-5398
▁नव	-5399
▁आवि	-5400
कालमा	-5401
▁नाटक	-5402
▁बिदा	-5403
▁टाउको	-5404
▁२८	-5405
द्रो	-5406
▁बहा	-5407
नीहरू	-5408
▁चार्	-5409
▁अपवाद	-5410
▁सोच्नुहुन्छ	-5411
▁दुश्	-5412
न्दर्य	-5413
▁दर्शन	-5414
▁चरित्र	-5415
▁बुबाको	-5416
▁सिनेमा	-5417
▁अभिभावक	-5418
▁मार्केट	-5419
▁मार्गदर्श	-5420
▁प्रयोगकर्ताहरू	-5421
▁36	-5422
लम्ब	-5423
▁निशा	-5424
स्थायी	-5425
▁ध्वनि	-5426
▁फर्किए	-5427
▁न्यायाधी	-5428
▁कहिलेकाहीं	-5429
▁हद	-5430
▁देखिन	-5431
▁वर्षौं	-5432
▁शुरुवात	-5433
▁e	-5434
चीन	-5435
बमा	-5436
ामु	-5437
▁कारो	-5438
▁रोमा	-5439
▁चिन्ह	-5440
▁हल्ला	-5441
▁समुदायको	-5442
▁दिनुहुन्छ	-5443
खेर	-5444
न्तुक	-5445
▁२०१५	-5446
▁अभिनय	-5447
▁अवरोध	-5448
▁बन्नु	-5449
▁पुर्खा	-5450
▁कम्पनीहरू	-5451
):	-5452
▁आह	-5453
▁इजा	-5454
▁मृत	-5455
▁अरुको	-5456
▁अवधिको	-5457
उनुहुन्छ	-5458
▁निगरानी	-5459
▁दुर्लभ	-5460
▁पैसाको	-5461
▁सिरिया	-5462
▁संक्रमित	-5463
if	-5464
चालय	-5465
जनमा	-5466
टरमा	-5467
त्यस	-5468
▁अर्ब	-5469
▁अभिया	-5470
▁शनिबार	-5471
▁भन्नुभएको	-5472
टिन	-5473
ारै	-5474
▁एड	-5475
▁नआ	-5476
▁उनै	-5477
▁माल	-5478
▁लेखन	-5479
▁अगस्ट	-5480
▁उठाउन	-5481
▁थिइनँ	-5482
▁भेट्ने	-5483
▁राजाको	-5484
▁विशेषता	-5485
ख्य	-5486
कारक	-5487
▁अलिक	-5488
▁पठाउ	-5489
▁ज्ञात	-5490
▁सकिने	-5491
▁कर्पोर	-5492
▁हुनुभयो	-5493
▁सम्पर्कमा	-5494
▁&	-5495
▁it	-5496
▁मेम	-5497
▁जुवा	-5498
तापूर्वक	-5499
▁आगन्तुक	-5500
▁चिनिन्छ	-5501
▁वर्	-5502
▁सदै	-5503
▁माने	-5504
▁प्रशं	-5505
▁बाह्य	-5506
▁तपाइँले	-5507
िङ	-5508
UMX	-5509
▁2018	-5510
▁निरी	-5511
▁हवाई	-5512
▁मध्यम	-5513
ra	-5514
षे	-5515
▁गर्भ	-5516
▁थकित	-5517
निर्माण	-5518
▁भर्खरै	-5519
▁गइरहेको	-5520
▁निर्मित	-5521
▁श्रीमान	-5522
▁अन्तर्वार्ता	-5523
ट्स	-5524
▁गाइ	-5525
▁आतंक	-5526
▁दाजु	-5527
▁भेडा	-5528
▁तिम्रै	-5529
▁बिरूद्ध	-5530
▁अधिकारको	-5531
कां	-5532
▁(2	-5533
▁भएमा	-5534
▁नैतिक	-5535
▁सोच्दै	-5536
▁प्रकाशन	-5537
▁रणनीतिक	-5538
ँगो	-5539
ज्यू	-5540
▁जाओ	-5541
▁अल्प	-5542
▁सौन्दर्य	-5543
▁व्यक्तित्व	-5544
औँ	-5545
NUMX	-5546
▁कसम	-5547
▁दयालु	-5548
▁यहूदी	-5549
▁सबैमा	-5550
▁प्रोत्साहित	-5551
इस	-5552
न्तमा	-5553
नाइटेड	-5554
▁भन्थे	-5555
▁आफैंले	-5556
▁तरीकाले	-5557
▁लेन	-5558
मान्य	-5559
▁राखे	-5560
▁शौचालय	-5561
▁युरोपमा	-5562
हाले	-5563
▁भइन्	-5564
▁लडाइँ	-5565
विश्वास	-5566
▁उहाँहरु	-5567
▁भिडियोमा	-5568
▁चाहँदैनन्	-5569
ब्रा	-5570
ेटिङ	-5571
्राम	-5572
▁खाए	-5573
▁मेश	-5574
▁कोहि	-5575
▁भएकी	-5576
▁बदल्न	-5577
▁सकिदैन	-5578
▁प्रशासन	-5579
▁परमेश्वरलाई	-5580
▁लौ	-5581
▁२३	-5582
म्मत	-5583
▁१९६	-5584
▁इजाजत	-5585
वेदनशील	-5586
▁नमस्ते	-5587
▁राख्छन्	-5588
▁खानेकुरा	-5589
▁हेर्नुहोस	-5590
ce	-5591
ग्गा	-5592
▁होस	-5593
▁दुबई	-5594
▁मनोर	-5595
▁रूपले	-5596
▁विधेयक	-5597
▁कारखाना	-5598
▁सहकार्य	-5599
काउ	-5600
त्स	-5601
जिनियर	-5602
▁शब्दमा	-5603
▁आविष्कार	-5604
▁प्रविष्ट	-5605
रल	-5606
बास	-5607
▁ज़	-5608
▁बक्स	-5609
▁रहेन	-5610
▁मानवीय	-5611
▁राखेका	-5612
▁धेरैजसो	-5613
▁सम्पादन	-5614
▁देखिन्छन्	-5615
:-	-5616
est	-5617
ord	-5618
पश्च	-5619
▁पढ़	-5620
▁स्त	-5621
धिकरण	-5622
▁गाउँमा	-5623
▁भरिएको	-5624
▁छोरीलाई	-5625
▁क्षेत्रीय	-5626
.0	-5627
ia	-5628
▁पठाएको	-5629
▁सिफारिश	-5630
▁अग्	-5631
▁एसईओ	-5632
▁चक्र	-5633
▁तिम्	-5634
▁पुग्ने	-5635
▁संसाधन	-5636
▁अनुमोदन	-5637
मेन	-5638
हाल्	-5639
▁पेशा	-5640
▁मामि	-5641
▁तैपनि	-5642
▁मानौं	-5643
50	-5644
▁26	-5645
▁करार	-5646
▁बिजु	-5647
▁जिनको	-5648
▁देशलाई	-5649
▁भारतले	-5650
▁गर्दैनौं	-5651
▁परमप्रभुको	-5652
घर	-5653
थोक	-5654
▁आऊ	-5655
▁आस	-5656
▁थाल्	-5657
र्निया	-5658
▁गहिरो	-5659
▁क्यालि	-5660
▁ड्राइभ	-5661
▁प्यारा	-5662
ate	-5663
स्टि	-5664
▁असह	-5665
▁जाये	-5666
▁जहाँसम्म	-5667
▁खेलाडीहरू	-5668
उदा	-5669
फिर	-5670
▁In	-5671
मानको	-5672
▁साधन	-5673
▁कानुन	-5674
▁अध्याय	-5675
▁खोजीमा	-5676
▁भित्री	-5677
▁हिसाबले	-5678
▁खोजिरहेका	-5679
▁हल	-5680
▁प्रजाति	-5681
▁ब्रिटिश	-5682
▁अब्राहाम	-5683
हुँ	-5684
▁you	-5685
▁उता	-5686
▁कन्ट	-5687
न्त्रिक	-5688
▁विक्रे	-5689
▁प्रणालीमा	-5690
▁सल	-5691
▁रुच	-5692
▁शहरको	-5693
▁देख्नुहुनेछ	-5694
▁भव	-5695
अमेर	-5696
▁नमू	-5697
▁नेदर	-5698
▁गर्यौ	-5699
▁मिडियामा	-5700
▁तपाईहरुले	-5701
▁व्यक्तिहरूले	-5702
od	-5703
oin	-5704
यनमा	-5705
▁कुशल	-5706
▁वैश्व	-5707
▁सतर्क	-5708
▁ट्रान्	-5709
▁बुझेको	-5710
▁कारोबार	-5711
qu	-5712
▁पौ	-5713
भूति	-5714
मिटर	-5715
▁ढंग	-5716
▁अनौठो	-5717
▁अन्तरि	-5718
▁देख्दा	-5719
▁मनुष्य	-5720
ट्टै	-5721
▁थपे	-5722
▁ईश्व	-5723
▁हुनै	-5724
▁मस्तिष्क	-5725
फे	-5726
▁रहर	-5727
▁नहोस्	-5728
▁हालसा	-5729
▁सिस्टम	-5730
▁देखाउँदछ	-5731
▁उल्लेखनीय	-5732
▁मुश्	-5733
▁मेटा	-5734
▁कप्ता	-5735
तीमा	-5736
▁लिग	-5737
▁नानी	-5738
▁बेरोज	-5739
▁रक्सी	-5740
▁साबित	-5741
▁देखाउँछ	-5742
▁सकिँदैन	-5743
▁नागरिकता	-5744
▁निर्देशक	-5745
▁इलेक्ट्रो	-5746
▁परिवर्तनको	-5747
▁आफन्त	-5748
▁लागेन	-5749
▁स्थितिमा	-5750
▁प्रयोगकर्ताले	-5751
ID	-5752
इयो	-5753
ग्ने	-5754
लाउन	-5755
▁लोड	-5756
▁खेले	-5757
▁सङ्ग	-5758
▁सत्र	-5759
▁उन्नत	-5760
▁जल्दी	-5761
▁अवलोकन	-5762
▁मूल्यांकन	-5763
▁धो	-5764
प्रै	-5765
▁रिप	-5766
▁पूरक	-5767
▁बयान	-5768
▁ल्याएको	-5769
▁सामग्रीको	-5770
▁प्रतिबद्धता	-5771
्क	-5772
त्न	-5773
ष्ण	-5774
▁७०	-5775
▁निषे	-5776
▁पल्ट	-5777
▁मण्ड	-5778
▁ह्वा	-5779
▁आउनेछ	-5780
▁अदालतले	-5781
▁क्षेत्रहरूमा	-5782
'।	-5783
▁←	-5784
▁ही	-5785
▁छाप	-5786
▁खानु	-5787
▁धोका	-5788
▁उज्या	-5789
▁हुन्छौं	-5790
▁भाग्यशाली	-5791
▁परिवर्तनहरू	-5792
टहरू	-5793
दियो	-5794
न्थी	-5795
▁पका	-5796
▁प्लग	-5797
▁आस्था	-5798
▁उत्सा	-5799
▁बन्दै	-5800
▁आकर्षक	-5801
▁ग्लोबल	-5802
▁कम्तिमा	-5803
▁विद्यालयमा	-5804
▁कट	-5805
▁अप्	-5806
▁शान	-5807
▁सत्	-5808
▁गिरफ्	-5809
▁स्वास्थ्यको	-5810
लैहि	-5811
▁उद्यम	-5812
फोर्निया	-5813
▁मान्छेले	-5814
▁अभिनेत्री	-5815
▁देख्नुहुन्छ	-5816
पार	-5817
बेल	-5818
▁घोडा	-5819
▁प्रव	-5820
▁रिसा	-5821
▁लेखे	-5822
▁ठेगाना	-5823
▁पुग्यो	-5824
▁एकअर्कालाई	-5825
िर	-5826
▁ब्ल	-5827
लिखित	-5828
▁जमिन	-5829
▁नत्र	-5830
▁ब्रेक	-5831
▁राजाले	-5832
▁फिल्मको	-5833
▁मिनेटमा	-5834
▁संसारलाई	-5835
▁व्यक्तिहरु	-5836
▁कार्यक्रमको	-5837
छिन्	-5838
र्यो	-5839
्यौँ	-5840
परेको	-5841
▁Home	-5842
▁कारक	-5843
▁मेयर	-5844
▁२०१०	-5845
▁चार्ज	-5846
▁इस्लाम	-5847
▁थालेको	-5848
▁पानीको	-5849
▁पूर्वी	-5850
▁विरोधी	-5851
▁समूहमा	-5852
▁सहभागि	-5853
▁अफ्रिकी	-5854
▁बासिन्दा	-5855
▁जानुहुन्छ	-5856
▁६०	-5857
माणु	-5858
ित्त	-5859
▁com	-5860
▁ताप	-5861
▁सवा	-5862
क्षमा	-5863
लादेश	-5864
्याम्	-5865
▁किन्	-5866
▁लगाउ	-5867
▁सेयर	-5868
▁आमाबु	-5869
▁एप्पल	-5870
▁स्थित	-5871
स्थापित	-5872
▁सम्ममा	-5873
▁वैश्विक	-5874
▁विद्यार्थीहरू	-5875
ew	-5876
खी	-5877
खो	-5878
हिर	-5879
▁नु	-5880
पार्ट	-5881
▁पिउन	-5882
▁शून्य	-5883
भिड	-5884
मध्य	-5885
▁नलि	-5886
मार्ग	-5887
▁देशले	-5888
▁स्पेस	-5889
▁चुपचाप	-5890
▁यात्री	-5891
▁तिमीहरूका	-5892
▁28	-5893
▁बोलि	-5894
▁सन्त	-5895
स्वरूप	-5896
▁नामको	-5897
▁क्लबमा	-5898
▁बुबाले	-5899
▁ब्राउजर	-5900
▁क्यानाडा	-5901
▁पर्यावरण	-5902
गन	-5903
रम	-5904
▁r	-5905
end	-5906
ill	-5907
ब्ब	-5908
▁रै	-5909
▁९०	-5910
च्चै	-5911
दिनु	-5912
▁ग्या	-5913
▁राशि	-5914
▁जग्गा	-5915
▁पुकार	-5916
▁महारा	-5917
▁भण्डार	-5918
▁छोरालाई	-5919
▁प्याकेज	-5920
▁स्वाभाविक	-5921
गान	-5922
दुर	-5923
▁२७	-5924
▁अगर	-5925
▁माई	-5926
दिष्ट	-5927
▁आवेद	-5928
▁भक्ति	-5929
▁हातले	-5930
▁एजेन्ट	-5931
▁स्पेनिश	-5932
▁कोरोनाभाइ	-5933
▁विरुद्धमा	-5934
▁एच	-5935
▁आइत	-5936
▁कौन	-5937
▁नाच	-5938
▁रूस	-5939
कल्पिक	-5940
▁जेलमा	-5941
▁सेन्ट	-5942
▁छोड्ने	-5943
▁युट्यु	-5944
▁धेरैलाई	-5945
▁होम	-5946
▁2017	-5947
▁राखि	-5948
▁छोराको	-5949
▁जापानको	-5950
▁ज्ञानको	-5951
▁CO	-5952
उनले	-5953
▁छोड़	-5954
▁बादल	-5955
▁बिताउन	-5956
▁हाम्रै	-5957
▁हालसालै	-5958
▁जान्दछन्	-5959
सभा	-5960
र्दै	-5961
स्टिक	-5962
▁घटनाको	-5963
▁परमाणु	-5964
▁वातावरणमा	-5965
उड	-5966
पुर	-5967
▁फ़	-5968
▁अवा	-5969
▁थाहै	-5970
▁२०१३	-5971
▁नमूना	-5972
▁विजयी	-5973
राष्ट्र	-5974
▁काठमाड	-5975
▁गर्दिन	-5976
▁भित्रै	-5977
▁उज्यालो	-5978
च्या	-5979
▁बच्न	-5980
▁२०२१	-5981
▁बाइबल	-5982
▁अन्याय	-5983
▁दिशामा	-5984
▁प्रतिरोध	-5985
▁शुक्रवार	-5986
▁)	-5987
ist	-5988
ाली	-5989
▁कोइ	-5990
धानिक	-5991
▁तिहा	-5992
▁स्टे	-5993
▁आजसम्म	-5994
▁क्षणमा	-5995
▁प्लेयर	-5996
▁राष्ट्रसंघ	-5997
▁ओह	-5998
▁वाम	-5999
▁कागज	-6000
▁जादू	-6001
▁मारि	-6002
▁२०१८	-6003
▁उत्सव	-6004
▁यूरोप	-6005
▁हैरान	-6006
▁थुप्रै	-6007
▁प्रकारले	-6008
▁न्यायाधीश	-6009
टप	-6010
201	-6011
बिया	-6012
▁भेट्	-6013
▁विरूद्ध	-6014
▁पासपोर्ट	-6015
▁आशी	-6016
▁उचा	-6017
▁कमि	-6018
▁यरू	-6019
▁खोल्	-6020
▁महँगो	-6021
▁विनाश	-6022
▁जनालाई	-6023
▁बाटोमा	-6024
ख्त	-6025
▁पारे	-6026
▁अपलोड	-6027
▁इश्वर	-6028
▁पिउने	-6029
▁भन्छन	-6030
▁युगमा	-6031
▁दोहोर्या	-6032
▁भन्नुहोस्	-6033
▁शताब्दीको	-6034
▁दुर्भाग्यवस	-6035
▁श्रो	-6036
▁आँखाले	-6037
▁विद्रो	-6038
▁सदस्यता	-6039
ik	-6040
ies	-6041
▁31	-6042
▁घडी	-6043
▁बसे	-6044
▁स्थाना	-6045
▁हुनुको	-6046
▁पासवर्ड	-6047
▁बिल्कुल	-6048
▁सरकारलाई	-6049
▁हानिकारक	-6050
▁प्राधिकरण	-6051
▁संवेदनशील	-6052
ँस	-6053
चकित	-6054
्वान	-6055
अहिले	-6056
▁खेलेको	-6057
▁चाहन्छौ	-6058
▁सकेसम्म	-6059
▁विश्वासी	-6060
▁पुस्तकहरू	-6061
og	-6062
ंट	-6063
वधान	-6064
▁महो	-6065
ष्टिक	-6066
सायनिक	-6067
▁खान्छ	-6068
▁रसिया	-6069
▁समन्व	-6070
▁बस्छन्	-6071
नुपर्दैन	-6072
लट	-6073
▁आव	-6074
नैतिक	-6075
▁सदैव	-6076
▁पर्दा	-6077
▁लड़की	-6078
▁अग्रणी	-6079
▁दाहिने	-6080
▁कारणहरू	-6081
▁पार्टनर	-6082
▁विश्राम	-6083
▁ट्याक्सी	-6084
▁रहनुहोस्	-6085
▁हुनुपर्ने	-6086
▁भविष्यवाणी	-6087
▁Z	-6088
लीमा	-6089
▁फरि	-6090
▁नडरा	-6091
▁२०१७	-6092
:5	-6093
ुँ	-6094
▁SE	-6095
▁खोइ	-6096
▁सरा	-6097
ध्यारो	-6098
▁तस्बि	-6099
▁दिँदै	-6100
▁पाउँछ	-6101
▁संवाद	-6102
▁यरूशले	-6103
▁श्रेणी	-6104
▁प्रश्नः	-6105
ीतको	-6106
▁कृत	-6107
ख्यात	-6108
बं	-6109
हेर	-6110
ृद्ध	-6111
▁नहीं	-6112
▁बिषय	-6113
▁सत्यको	-6114
▁पुस्तकको	-6115
▁प्रवृत्ति	-6116
मू	-6117
▁गराइ	-6118
▁बचाउ	-6119
▁विस्	-6120
▁भाषाको	-6121
▁देखाउने	-6122
▁प्रहरीले	-6123
▁क्यालिफोर्निया	-6124
दुई	-6125
हां	-6126
▁बाव	-6127
▁कहीं	-6128
▁सहायक	-6129
▁प्यारो	-6130
▁फिल्ममा	-6131
▁उम्मेदवार	-6132
▁वर्षहरूमा	-6133
▁प्रश्नहरूको	-6134
लिज	-6135
▁नहो	-6136
प्रेर	-6137
▁मापन	-6138
▁कस्ता	-6139
▁भर्ना	-6140
▁सन्ता	-6141
▁]	-6142
▁27	-6143
▁हट	-6144
▁हाई	-6145
▁आईफोन	-6146
▁कुकुर	-6147
▁अनुगमन	-6148
▁छोरीको	-6149
▁बोलेको	-6150
▁जान्दछु	-6151
▁निकाल्न	-6152
तान्त्रिक	-6153
▁पुस्तकमा	-6154
▁प्रोफाइल	-6155
▁रिपब्लिक	-6156
▁अंग्रेजीमा	-6157
▁थप्न	-6158
▁बुद्ध	-6159
▁नवीकरण	-6160
▁भगवानलाई	-6161
▁सदस्यहरू	-6162
▁सम्मानित	-6163
▁सम्झौताको	-6164
▁हस्तक्षेप	-6165
नीमा	-6166
▁२०११	-6167
▁ग्रहण	-6168
▁राजस्व	-6169
▁शानदार	-6170
▁हदसम्म	-6171
▁अस्थायी	-6172
▁मार्गमा	-6173
▁राष्ट्रको	-6174
.4	-6175
ine	-6176
भेद	-6177
▁वी	-6178
निकी	-6179
▁सार	-6180
▁दिउँ	-6181
▁यत्ति	-6182
ष्टाचार	-6183
▁आउँदैन	-6184
▁समारोह	-6185
ड्स	-6186
रेड	-6187
▁कथ	-6188
ress	-6189
लाइट	-6190
▁ठहर	-6191
▁तोड	-6192
▁भाषण	-6193
▁लेखि	-6194
▁वरपर	-6195
▁छैनौँ	-6196
▁लेनदे	-6197
▁बोल्दै	-6198
▁हिम्मत	-6199
▁हेरेको	-6200
▁दिनुपर्छ	-6201
▁सल्लाहकार	-6202
up	-6203
ीन	-6204
सना	-6205
▁दान	-6206
▁येशूको	-6207
▁शब्दको	-6208
▁कम्प्यू	-6209
▁संस्थान	-6210
are	-6211
ity	-6212
लाका	-6213
▁नजा	-6214
▁बखत	-6215
▁तँलाई	-6216
▁बस्ती	-6217
▁कार्यकर्ता	-6218
▁प्रमाणपत्र	-6219
ंग्	-6220
▁थप्	-6221
▁माझ	-6222
ाउँछु	-6223
▁गुगलले	-6224
नुहुँदैन	-6225
▁संचालित	-6226
▁स्कूलमा	-6227
▁डाक्टरले	-6228
▁न्यूयोर्क	-6229
▁मानिसहरुलाई	-6230
जक	-6231
ञ्ज	-6232
स्सी	-6233
▁झुट	-6234
मुक्त	-6235
▁सेवक	-6236
क्र्या	-6237
▁वरिष्ठ	-6238
▁अन्वेषण	-6239
▁स्रोतहरू	-6240
▁सुविधाहरू	-6241
▁आश्चर्यचकित	-6242
ry	-6243
ंगे	-6244
▁व्	-6245
उँथे	-6246
दिरा	-6247
▁घण्ट	-6248
▁ठाँउ	-6249
▁दर्जन	-6250
▁सस्तो	-6251
▁स्क्र	-6252
▁स्पेन	-6253
▁हार्ड	-6254
▁इन्स्टा	-6255
▁प्रदायक	-6256
▁विविधता	-6257
▁पार्टीमा	-6258
▁भविष्यका	-6259
षक	-6260
चिव	-6261
शनल	-6262
ून्	-6263
ंशिक	-6264
▁कभर	-6265
▁गाई	-6266
▁सको	-6267
▁पावर	-6268
▁सोचेँ	-6269
▁छिट्टै	-6270
▁बजारको	-6271
▁सप्ताह	-6272
▁वाणिज्य	-6273
▁उत्पत्ति	-6274
▁बलात्कार	-6275
▁कार्यालयमा	-6276
▁सफलतापूर्वक	-6277
▁प्रयोगकर्ताको	-6278
▁वैध	-6279
प्रथम	-6280
▁स्या	-6281
▁तालिबा	-6282
▁अनुकूलन	-6283
▁पुर्याउन	-6284
▁मात्रामा	-6285
▁स्थानान्तरण	-6286
ks	-6287
ँजी	-6288
▁35	-6289
ज्जित	-6290
प्रेस	-6291
राज्य	-6292
वशाली	-6293
▁ढिलो	-6294
▁आफुलाई	-6295
▁च्यानल	-6296
▁अदालतमा	-6297
▁तयारीमा	-6298
▁नियुक्त	-6299
▁शक्तिको	-6300
▁प्रयोगशाला	-6301
▁गौर	-6302
▁बसो	-6303
▁लड़का	-6304
▁हालको	-6305
▁मुश्किल	-6306
▁वैकल्पिक	-6307
लव	-6308
ंत्र	-6309
▁श्व	-6310
स्थापन	-6311
▁मेमोरी	-6312
▁उपकरणको	-6313
▁इस्राएली	-6314
▁भिडियोहरू	-6315
.9	-6316
▁60	-6317
▁झो	-6318
लागि	-6319
स्ले	-6320
▁अवै	-6321
▁गुग	-6322
▁चिसो	-6323
भावस्था	-6324
▁प्राप्ति	-6325
दित	-6326
निय	-6327
▁पेय	-6328
संख्य	-6329
▁औषधी	-6330
▁मर्म	-6331
▁जितना	-6332
▁गर्छौँ	-6333
▁महिलाहरू	-6334
▁प्रतिबन्धित	-6335
▁अख	-6336
ग्रा	-6337
बर्ग	-6338
लान्	-6339
▁अती	-6340
▁आपत	-6341
▁तिनै	-6342
▁आउँदा	-6343
▁देखेँ	-6344
▁डाटाबेस	-6345
▁प्रशंसक	-6346
▁गर्भावस्था	-6347
▁मानिसहरुको	-6348
IS	-6349
▁•	-6350
अनु	-6351
देव	-6352
र्मा	-6353
लम्प	-6354
▁एना	-6355
दानमा	-6356
▁लियो	-6357
▁गरिरहे	-6358
▁लगाएका	-6359
▁लागेका	-6360
▁समाजको	-6361
▁हुन्थे	-6362
▁अनुभूति	-6363
▁साइटहरू	-6364
▁अँध्यारो	-6365
▁उनीहरुसँग	-6366
सन्	-6367
ब्जा	-6368
▁दिया	-6369
▁अद्या	-6370
▁जिम्मा	-6371
▁नगरेको	-6372
▁बिजुली	-6373
▁सेवामा	-6374
▁ड्राइभर	-6375
.3	-6376
चाइ	-6377
▁चल्	-6378
▁रेड	-6379
कामना	-6380
▁आजकल	-6381
▁जानि	-6382
▁फर्म	-6383
▁रमाई	-6384
▁वकिल	-6385
▁संगै	-6386
▁दुवैको	-6387
▁लगाइएको	-6388
▁शब्दहरु	-6389
ear	-6390
one	-6391
होर	-6392
▁सन	-6393
▁फ्र	-6394
▁२०७	-6395
▁गरिरहेकी	-6396
uc	-6397
▁%	-6398
जीव	-6399
त्रा	-6400
सफ्ट	-6401
▁जाउ	-6402
लार्इ	-6403
▁रुसी	-6404
ब्दीमा	-6405
यूहन्ना	-6406
▁भइसक्यो	-6407
▁पार्टीले	-6408
यहाँ	-6409
लिंग	-6410
▁बसा	-6411
▁लागु	-6412
▁गुनासो	-6413
▁आशीर्वाद	-6414
▁युनाइटेड	-6415
▁क्रियाकला	-6416
ind	-6417
▁झा	-6418
▁डल	-6419
▁चले	-6420
▁हिँ	-6421
थ्यौं	-6422
कारिता	-6423
▁फिल्ट	-6424
▁साइबर	-6425
▁देखाएको	-6426
फर	-6427
जुन	-6428
ौति	-6429
▁29	-6430
्रिड	-6431
▁ठोस	-6432
▁पाई	-6433
▁पेज	-6434
▁2015	-6435
▁२०१४	-6436
▁पढ्दै	-6437
▁संशोधन	-6438
▁ध्यानमा	-6439
▁समग्रमा	-6440
▁तरिकाहरू	-6441
▁प्रतियोगि	-6442
▁क्षेत्रहरू	-6443
▁इन्स्टाग्राम	-6444
प्स	-6445
▁जू	-6446
्रोल	-6447
▁col	-6448
▁संस	-6449
▁छाडेर	-6450
▁मासिक	-6451
▁साइटको	-6452
▁अनावश्यक	-6453
▁सूचीबद्ध	-6454
▁व्यवसायमा	-6455
सक्छ	-6456
स्मा	-6457
▁असम	-6458
▁करीव	-6459
▁मोडल	-6460
▁दुश्मन	-6461
▁समृद्धि	-6462
▁हुनेछौं	-6463
ल्याण्डमा	-6464
कप	-6465
अन्त	-6466
▁उठ्	-6467
▁हिंड	-6468
▁देख्छ	-6469
▁श्रील	-6470
▁भेटेको	-6471
▁हेर्छु	-6472
▁प्रतिबि	-6473
iv	-6474
मण्ड	-6475
सीसी	-6476
▁मधु	-6477
▁एकता	-6478
▁सामू	-6479
▁सुरुवा	-6480
▁सहयोगको	-6481
एं	-6482
जल	-6483
▁v	-6484
ube	-6485
▁३५	-6486
एक्स	-6487
▁चेला	-6488
▁बनेर	-6489
▁सिटी	-6490
▁काफिर	-6491
▁जैविक	-6492
▁कर्पोरेट	-6493
▁मान्छेलाई	-6494
केट	-6495
हना	-6496
▁तौ	-6497
लिन्	-6498
ल्यू	-6499
▁ओबा	-6500
▁लुक	-6501
▁दूता	-6502
▁ब्याज	-6503
▁रमाईलो	-6504
▁अनुग्रह	-6505
▁पुरुषको	-6506
▁समुदायमा	-6507
▁फ्रान्समा	-6508
▁भ्रष्टाचार	-6509
पत	-6510
सुफ	-6511
ोकर	-6512
▁धी	-6513
्रिम	-6514
्वीप	-6515
▁198	-6516
▁क्लि	-6517
▁माटो	-6518
▁थोड़ा	-6519
▁खातामा	-6520
▁स्तरको	-6521
▁अस्तित्वमा	-6522
खे	-6523
दमा	-6524
त्तर	-6525
▁आएन	-6526
▁फ्लो	-6527
▁सभ्य	-6528
="2	-6529
फोट	-6530
लनमा	-6531
▁बोलो	-6532
परिवार	-6533
▁याकूब	-6534
▁सृजना	-6535
▁आकर्षण	-6536
▁दिइन्छ	-6537
▁नगर्नु	-6538
▁प्रयोगमा	-6539
▁विचारहरू	-6540
▁उभि	-6541
▁तेज	-6542
▁माओ	-6543
▁अवसरमा	-6544
▁आह्वान	-6545
▁उद्यमी	-6546
▁ज्यादा	-6547
▁किसिमको	-6548
▁तपाईंहरू	-6549
▁गर्नुपर्दैन	-6550
▁उत्पादनहरूको	-6551
वधिक	-6552
▁दिल	-6553
vious	-6554
▁दक्ष	-6555
▁भेट्ट	-6556
▁अपराधी	-6557
▁गरीएको	-6558
▁मिल्ने	-6559
▁प्रभावी	-6560
all	-6561
ामै	-6562
▁पुल	-6563
दिन्छु	-6564
▁देखाए	-6565
▁भाग्न	-6566
▁डराउनु	-6567
▁राम्रै	-6568
▁कानूनको	-6569
▁समस्यामा	-6570
क्व	-6571
जले	-6572
▁बाथ	-6573
▁भेद	-6574
▁पढेर	-6575
▁लेखा	-6576
्रिप्ट	-6577
▁कामहरू	-6578
▁हालसम्म	-6579
▁व्यवस्थित	-6580
▁कम्युनिस्ट	-6581
▁मार्गदर्शन	-6582
घाट	-6583
लास	-6584
▁नं	-6585
इन्ट	-6586
न्डा	-6587
न्डो	-6588
रीमा	-6589
▁असुर	-6590
▁जन्मि	-6591
▁अधीनमा	-6592
▁खेल्दै	-6593
▁प्राचीन	-6594
▁फुटबलमा	-6595
▁अगमवक्ता	-6596
नीले	-6597
िनमा	-6598
▁इमा	-6599
▁उनकै	-6600
▁ओलम्प	-6601
▁बिचार	-6602
▁सोध्यो	-6603
▁ईश्वरीय	-6604
▁फुटबलको	-6605
▁मनपर्ने	-6606
▁बिस्तारै	-6607
▁इजाजतपत्र	-6608
▁तपाईहरुको	-6609
▁शताब्दीमा	-6610
आउ	-6611
जति	-6612
यरि	-6613
ृति	-6614
▁पथ	-6615
▁उम्	-6616
▁जमा	-6617
▁फाउ	-6618
▁शोध	-6619
ग्राफ	-6620
▁गायब	-6621
▁बुझे	-6622
▁रोना	-6623
ग्रस्त	-6624
▁रोबोट	-6625
▁सट्टा	-6626
▁चुनौति	-6627
▁बैठकमा	-6628
▁पहिल्यै	-6629
▁कांग्रेस	-6630
▁व्यापारी	-6631
ec	-6632
समय	-6633
पल्ट	-6634
▁एसि	-6635
▁डेम	-6636
▁उल्ट	-6637
▁छाया	-6638
▁पुरै	-6639
▁कृतज्ञ	-6640
▁गराउने	-6641
▁थालेका	-6642
▁त्यसबाट	-6643
▁शिक्षाको	-6644
▁स्मार्टफोन	-6645
णविक	-6646
▁जला	-6647
▁सास	-6648
▁मनको	-6649
▁सलमान	-6650
▁प्लगइन	-6651
▁फुटबलर	-6652
▁फ्रेन्च	-6653
▁लिन्छन्	-6654
▁बाल्यकाल	-6655
▁पूछ	-6656
▁राहत	-6657
▁गतिमा	-6658
▁अनुभवी	-6659
▁जित्ने	-6660
▁स्वभाव	-6661
▁Previous	-6662
▁प्रतिबिम्ब	-6663
▁आपूर्तिकर्ता	-6664
ज्जा	-6665
▁हारून	-6666
▁समर्थक	-6667
▁परिश्रम	-6668
▁निरीक्षण	-6669
▁वस्तुहरू	-6670
ील	-6671
ack	-6672
नोट	-6673
▁--	-6674
गीमा	-6675
न्डर	-6676
▁थोक	-6677
▁दिव	-6678
▁ममा	-6679
▁आँसु	-6680
▁नाइज	-6681
▁छेउमा	-6682
▁दिनहरू	-6683
▁बढाउने	-6684
▁विगतका	-6685
▁साह्रै	-6686
▁अनुभवको	-6687
▁उद्योगको	-6688
▁अद्यावधिक	-6689
ans	-6690
गित	-6691
ल्फ	-6692
▁En	-6693
क्रो	-6694
▁कभी	-6695
▁झूट	-6696
वास्ता	-6697
▁करियर	-6698
▁आउँदैछ	-6699
▁भूकम्प	-6700
▁स्वीकृति	-6701
▁परमेश्वरका	-6702
ः२	-6703
टाइ	-6704
वाइ	-6705
▁आएँ	-6706
▁विच	-6707
▁आणविक	-6708
▁जीवनशै	-6709
▁समानता	-6710
▁समूहले	-6711
▁होटलमा	-6712
▁उहाँहरुलाई	-6713
▁स्वतन्त्रताको	-6714
▁तट	-6715
...।	-6716
किया	-6717
लनको	-6718
▁काल	-6719
▁चरा	-6720
वस्तु	-6721
▁करें	-6722
▁तारि	-6723
▁दाँत	-6724
▁मोदी	-6725
पक्षीय	-6726
▁ट्वीट	-6727
▁क्लबको	-6728
▁धर्मको	-6729
▁राख्दछ	-6730
▁स्नातक	-6731
▁मध्यस्थ	-6732
▁गिरफ्तार	-6733
▁सम्बन्धको	-6734
क्न	-6735
घ्र	-6736
नेस	-6737
▁नप	-6738
▁गहन	-6739
▁पुत	-6740
ाउनको	-6741
▁खोले	-6742
▁भएकै	-6743
▁फिलिप	-6744
▁उमेरको	-6745
▁कुनैपनि	-6746
▁भइसकेका	-6747
▁सामूहिक	-6748
▁खोजिरहेको	-6749
▁सोच्नुहोस्	-6750
खमा	-6751
मिर	-6752
ीले	-6753
▁६७	-6754
ल्डो	-6755
श्रो	-6756
ष्ठा	-6757
▁आजै	-6758
ल्याण	-6759
▁बाढी	-6760
▁ब्लक	-6761
▁अर्जे	-6762
▁चाहनु	-6763
▁खुशीको	-6764
▁प्रिन्	-6765
▁स्वयम्	-6766
▁जाँदैछु	-6767
▁बनाउँदै	-6768
▁गइ	-6769
▁फर	-6770
▁साता	-6771
▁कामका	-6772
▁संघको	-6773
▁उत्साह	-6774
▁सोधेको	-6775
▁छुटकारा	-6776
▁इन्टरनेटको	-6777
▁अा	-6778
सुकै	-6779
▁बेल	-6780
हुन्छ	-6781
▁ताजा	-6782
मन्त्र	-6783
स्त्री	-6784
▁भूमिमा	-6785
▁गरिरहनु	-6786
▁निर्वाचित	-6787
))	-6788
-2	-6789
१९	-6790
▁नया	-6791
▁बिरा	-6792
▁लुगा	-6793
▁बुझेका	-6794
▁शनिवार	-6795
▁लाभदायक	-6796
ant	-6797
▁नज	-6798
नबाट	-6799
▁एन्	-6800
▁शाम	-6801
▁ईन्ज	-6802
▁नर्स	-6803
▁पापी	-6804
▁बाइक	-6805
▁किशोर	-6806
▁चिन्न	-6807
▁मेट्रो	-6808
▁रोक्ने	-6809
▁शुरुमा	-6810
▁फेसबुकले	-6811
▁अङ्ग्रेजी	-6812
▁कम्प्युटरमा	-6813
उदै	-6814
दथे	-6815
दृढ	-6816
पुट	-6817
बुझ	-6818
राई	-6819
▁पं	-6820
▁फिरऊ	-6821
▁आपसमा	-6822
▁हरियो	-6823
▁अपरिचित	-6824
▁प्रख्यात	-6825
▁कम्प्यूटर	-6826
▁सोध्नुहोस्	-6827
ht	-6828
छे	-6829
▁32	-6830
▁औँ	-6831
प्रे	-6832
▁डबल	-6833
▁सङ्घ	-6834
▁कब्जा	-6835
▁सच्चा	-6836
▁सुन्दै	-6837
▁विश्वभरि	-6838
कर्ताहरूले	-6839
▁कार्यकारी	-6840
▁विश्वासको	-6841
VID	-6842
दोष	-6843
उनको	-6844
देशी	-6845
▁साहस	-6846
▁यसपछि	-6847
▁गर्नमा	-6848
▁मन्त्रालयले	-6849
10	-6850
ंगल	-6851
▁सज	-6852
त्तम	-6853
रहने	-6854
▁डब्	-6855
▁रुस	-6856
▁सता	-6857
सलमान	-6858
▁फाइनल	-6859
▁समयमै	-6860
▁आँखाको	-6861
▁मान्ने	-6862
▁रासायनिक	-6863
सने	-6864
उनेछ	-6865
क्शन	-6866
र्को	-6867
▁अमे	-6868
सक्नु	-6869
्याउन	-6870
▁इमान	-6871
▁घाटा	-6872
▁डेलि	-6873
▁डोमेन	-6874
▁समयका	-6875
▁छुट्टै	-6876
▁दुईपटक	-6877
▁लिन्छु	-6878
▁पुर्याउँछ	-6879
="3	-6880
▁is	-6881
▁२९	-6882
▁अला	-6883
▁नभई	-6884
▁१९५	-6885
रूपमा	-6886
▁उठेर	-6887
▁फ्यान	-6888
▁साइकल	-6889
▁आफैंमा	-6890
▁बौद्धिक	-6891
▁कोरियाली	-6892
ंगो	-6893
उँदो	-6894
▁तोक	-6895
▁तातो	-6896
▁स्को	-6897
▁सिंगा	-6898
▁हुन्छन	-6899
▁पठाइएको	-6900
▁स्कुलमा	-6901
▁स्टार्ट	-6902
▁सर्वप्रथम	-6903
निज	-6904
▁लगे	-6905
▁शासक	-6906
उनुभयो	-6907
▁अच्छा	-6908
▁एन्टि	-6909
▁सहारा	-6910
▁हाँसो	-6911
▁देख्यो	-6912
▁तीमध्ये	-6913
▁बार्सिलोना	-6914
क्सन	-6915
▁सीट	-6916
▁2013	-6917
▁यूसुफ	-6918
▁इजरायल	-6919
▁तुल्या	-6920
▁प्रतीक	-6921
▁राजनीतिमा	-6922
▁प्रजातन्त्र	-6923
काई	-6924
▁बम	-6925
▁रब	-6926
इन्स	-6927
केही	-6928
नेका	-6929
मेरा	-6930
▁The	-6931
नमार्क	-6932
▁तिर्न	-6933
▁सांसद	-6934
▁समन्वय	-6935
▁सेन्टर	-6936
▁तिमीसँग	-6937
▁सम्पत्ती	-6938
▁नगरपालिका	-6939
▁वर्षभन्दा	-6940
दिने	-6941
ेदार	-6942
विचार	-6943
▁ठ्या	-6944
▁मासु	-6945
▁मौलिक	-6946
▁लिइएको	-6947
▁स्थगित	-6948
▁महामारीको	-6949
▁वेबसाइटहरू	-6950
▁आत्मविश्वास	-6951
ah	-6952
ूर	-6953
ali	-6954
इनँ	-6955
ङको	-6956
्ना	-6957
▁दूत	-6958
▁हारे	-6959
▁बढ्ने	-6960
▁बस्छु	-6961
▁क्याम्	-6962
▁फर्कने	-6963
▁गर्नुपर्यो	-6964
▁परिस्थितिमा	-6965
▁बर	-6966
▁गाइड	-6967
▁मदिरा	-6968
▁सहरमा	-6969
▁ज्ञानी	-6970
▁बताउँछन्	-6971
▁केन्द्रमा	-6972
▁आवश्यकताहरु	-6973
धना	-6974
दिएँ	-6975
▁शीत	-6976
▁बियर	-6977
▁भनाई	-6978
▁अक्षर	-6979
▁उपभोग	-6980
▁चीजको	-6981
▁डेस्क	-6982
▁पुनरा	-6983
▁चाहिने	-6984
▁बोल्नु	-6985
▁समूहको	-6986
▁घण्टामा	-6987
▁बाँच्ने	-6988
▁अनुकूलित	-6989
▁इतिहासको	-6990
▁डेनमार्क	-6991
आइ	-6992
▁नब	-6993
▁जरू	-6994
▁राउ	-6995
▁दिला	-6996
▁भित्	-6997
▁शाखा	-6998
▁सर्वा	-6999
▁सुदृढ	-7000
▁असाध्य	-7001
▁यहाँका	-7002
▁इटालियन	-7003
▁उत्पादक	-7004
▁राष्ट्रीय	-7005
▁तपाईहरुलाई	-7006
▁प्रभावशाली	-7007
▁सुन्नुहोस्	-7008
प्या	-7009
▁कने	-7010
▁विनि	-7011
▁२००९	-7012
▁फर्कन	-7013
▁नवीनतम	-7014
हरूमध्ये	-7015
▁अवसरहरू	-7016
▁ओलम्पिक	-7017
▁न्यायको	-7018
▁डरलाग्दो	-7019
िको	-7020
▁अश	-7021
रहेछु	-7022
▁बदला	-7023
प्तिमा	-7024
▁रोगको	-7025
▁गतिशील	-7026
▁सबैथोक	-7027
▁सक्दैनौ	-7028
▁इं	-7029
साथै	-7030
▁धम्	-7031
▁मैं	-7032
▁सतह	-7033
रक्षा	-7034
▁अवैध	-7035
▁दबाब	-7036
▁धीरे	-7037
▁हमला	-7038
▁कान्छ	-7039
▁क्रोध	-7040
▁गरिबी	-7041
▁मिल्छ	-7042
▁सिद्ध	-7043
▁ट्रान्स	-7044
हाल	-7045
▁आदर	-7046
▁परेन	-7047
▁पायो	-7048
▁वृक्ष	-7049
▁शैतान	-7050
▁एकीकरण	-7051
▁पठाउने	-7052
▁बेच्ने	-7053
▁स्क्री	-7054
▁क्यानडा	-7055
▁राज्यले	-7056
▁किलोमिटर	-7057
▁सामाग्री	-7058
.8	-7059
ain	-7060
▁थी	-7061
क्या	-7062
▁रसा	-7063
▁खुवा	-7064
▁मातृ	-7065
अधिकार	-7066
▁कमरेड	-7067
▁रहोस्	-7068
▁स्टाफ	-7069
▁असफलता	-7070
▁असमर्थ	-7071
▁गठबन्ध	-7072
▁मनपर्छ	-7073
▁साथीको	-7074
▁असाधारण	-7075
▁कम्पनीका	-7076
▁प्रबन्धक	-7077
▁शुभकामना	-7078
▁प्लास्टिक	-7079
▁चुनौतीपूर्ण	-7080
▁प्रतिस्थापन	-7081
रूम	-7082
▁पस	-7083
हार्य	-7084
▁....	-7085
▁अक्ट	-7086
▁कहीँ	-7087
▁नगरी	-7088
▁बीबी	-7089
▁रियल	-7090
▁रोएँ	-7091
▁रोगी	-7092
▁ग्यास	-7093
▁वाक्य	-7094
क्षिप्त	-7095
▁बसोबास	-7096
▁नागरिकको	-7097
▁मुख्यतया	-7098
▁अन्तरिक्ष	-7099
▁दुनियाँमा	-7100
.6	-7101
ang	-7102
काइ	-7103
निस	-7104
पले	-7105
जीवन	-7106
▁चम्	-7107
▁YouT	-7108
▁कपाल	-7109
▁खोजे	-7110
र्चुअल	-7111
▁अपमान	-7112
▁गोप्य	-7113
▁मैदान	-7114
▁उत्सुक	-7115
▁दोश्रो	-7116
▁प्यारी	-7117
▁शिकायत	-7118
▁प्रावधान	-7119
▁राष्ट्रपतिले	-7120
नन	-7121
फ़	-7122
वादको	-7123
▁आहार	-7124
▁जाना	-7125
▁नारा	-7126
▁बुझि	-7127
▁समेट	-7128
▁सेतो	-7129
▁कामना	-7130
▁प्रको	-7131
▁बुझाइ	-7132
▁मरेको	-7133
▁इन्जिन	-7134
▁कथाहरू	-7135
▁डाटाको	-7136
▁सपनाको	-7137
▁मुसलमान	-7138
▁श्रेष्ठ	-7139
▁पृष्ठहरू	-7140
भौ	-7141
▁on	-7142
क्ने	-7143
वहार	-7144
▁नमा	-7145
▁पहल	-7146
▁पुज	-7147
▁अनुश	-7148
▁जाउँ	-7149
▁झुटो	-7150
▁साइड	-7151
आधारित	-7152
▁जसबाट	-7153
▁लागेर	-7154
▁छोड्नु	-7155
▁टोकियो	-7156
▁बेलामा	-7157
▁मार्ने	-7158
▁ईश्वरले	-7159
▁विकासमा	-7160
▁श्रीमान्	-7161
▁क्रान्तिकारी	-7162
▁48	-7163
वादन	-7164
▁करु	-7165
▁पोख	-7166
▁बेल्	-7167
▁लण्ड	-7168
▁हतार	-7169
दिनुस्	-7170
स्थलमा	-7171
ँडा	-7172
▁ख़	-7173
भियत	-7174
स्ति	-7175
▁कमब	-7176
▁युए	-7177
▁मुर्	-7178
▁युवक	-7179
▁द्वार	-7180
▁निकाल	-7181
▁जनाएको	-7182
▁वर्ल्ड	-7183
▁सुन्दा	-7184
▁आइरहेको	-7185
▁प्रसन्न	-7186
▁मिल्दैन	-7187
▁ह्यान्ड	-7188
▁जर्मनीमा	-7189
▁ठ्याक्कै	-7190
ee	-7191
बम	-7192
पास	-7193
▁नक्	-7194
▁कक्ष	-7195
▁नदेख	-7196
▁रोटी	-7197
▁अडियो	-7198
▁तैयार	-7199
▁पर्खि	-7200
▁रातभर	-7201
▁कल्याण	-7202
▁भनेपछि	-7203
▁पार्दैन	-7204
▁मैदानमा	-7205
▁सुन्दरता	-7206
टू	-7207
:18	-7208
out	-7209
यती	-7210
▁ऐन	-7211
▁३१	-7212
▁पसल	-7213
▁कुर्	-7214
▁गरिन	-7215
▁ग्रा	-7216
▁छैनन	-7217
▁दुःखी	-7218
▁मेशिन	-7219
▁साक्षा	-7220
▁स्वीकृत	-7221
▁विश्वभरका	-7222
▁बच्चाहरूलाई	-7223
iss	-7224
पक्व	-7225
▁SEO	-7226
संख्यक	-7227
▁कसैसँग	-7228
▁खोल्ने	-7229
▁जानकार	-7230
▁भेट्टा	-7231
▁सोमवार	-7232
▁निम्त्या	-7233
▁मान्छेको	-7234
:11	-7235
बाई	-7236
ियन	-7237
▁44	-7238
चोटि	-7239
▁लिइ	-7240
पन्थी	-7241
▁गर्म	-7242
▁बाधा	-7243
▁मर्ने	-7244
▁अदृश्य	-7245
▁वर्षकी	-7246
▁जन्मेको	-7247
तले	-7248
▁Re	-7249
▁डराउ	-7250
▁मनले	-7251
▁शिखर	-7252
▁हानी	-7253
▁च्याम्	-7254
▁पुलिसले	-7255
▁भइरहेका	-7256
.7	-7257
ंख्य	-7258
रीको	-7259
सीमा	-7260
हरूः	-7261
पर्ने	-7262
ाउँदछ	-7263
▁मबाट	-7264
स्सलाम	-7265
▁अगस्त	-7266
▁यसर्थ	-7267
▁उच्चतम	-7268
▁कार्यमा	-7269
ढे	-7270
:12	-7271
झैं	-7272
स्वा	-7273
▁एलि	-7274
िन्ती	-7275
▁प्लस	-7276
यन्त्र	-7277
▁तिब्ब	-7278
▁भागको	-7279
▁प्रष्ट	-7280
▁नाइजेरिया	-7281
▁वातावरणीय	-7282
▁US	-7283
अधिक	-7284
▁राय	-7285
▁कैदी	-7286
▁ग्रु	-7287
▁बाँध	-7288
▁स्टु	-7289
▁हिमा	-7290
▁असाध्यै	-7291
▁निर्वाच	-7292
▁बच्चाले	-7293
▁बसिरहेका	-7294
▁उत्पादनमा	-7295
▁सम्झौतामा	-7296
▁कम्युनिष्ट	-7297
▁मानिसहरूका	-7298
▁री	-7299
▁मगर	-7300
बाहिर	-7301
▁घुमा	-7302
▁लाइट	-7303
पिडिया	-7304
▁कमाउन	-7305
▁गल्ति	-7306
▁ढंगले	-7307
▁मुम्ब	-7308
▁भेटघाट	-7309
▁यूरोपी	-7310
▁एन्ड्रो	-7311
▁निष्पक्ष	-7312
▁व्यवसायी	-7313
▁सन्तुष्टि	-7314
▁प्रस्तावित	-7315
AD	-7316
ुन्	-7317
____	-7318
▁उजा	-7319
▁हिन्द	-7320
▁हुनको	-7321
प्रेरित	-7322
▁प्रहार	-7323
▁उपचारको	-7324
▁माइक्रोसफ्ट	-7325
तरित	-7326
▁ओभर	-7327
▁नाश	-7328
▁तिर्	-7329
▁बुढा	-7330
▁भयौं	-7331
उदाहरण	-7332
▁अरूको	-7333
▁सोचें	-7334
▁कठिनाइ	-7335
▁मानवता	-7336
▁स्वरूप	-7337
▁YouTube	-7338
ठ्	-7339
▁^	-7340
धेरै	-7341
▁मले	-7342
न्द्व	-7343
▁अक्सि	-7344
▁उल्लं	-7345
▁चाहिं	-7346
▁वित्त	-7347
▁खतरामा	-7348
▁घण्टाको	-7349
▁मन्दिरमा	-7350
लैहिस्सलाम	-7351
▁अर्जेन्टि	-7352
▁तिनीहरुले	-7353
▁लागिरहेको	-7354
▁बताउनुहोस्	-7355
▁व्यक्तिसँग	-7356
नँ	-7357
पहि	-7358
श्मी	-7359
▁कित	-7360
▁दिई	-7361
▁भएछ	-7362
▁अप्ठ	-7363
▁गरिए	-7364
▁चोटि	-7365
▁तीनै	-7366
▁रेलवे	-7367
▁अलिकति	-7368
▁तस्विर	-7369
▁संसारभर	-7370
▁धूम्रपान	-7371
▁जान्नुहोस्	-7372
▁तपाईंहरुले	-7373
▁कोरोनाभाइरस	-7374
▁तपाईंहरुलाई	-7375
:8	-7376
PA	-7377
ोष	-7378
्कलन	-7379
▁टेक	-7380
▁ट्रा	-7381
▁अनुया	-7382
▁नक्शा	-7383
▁मुखबाट	-7384
▁समृद्ध	-7385
▁सिकेको	-7386
▁सोच्छु	-7387
▁प्रतिफल	-7388
▁रहनेछन्	-7389
▁स्पेनमा	-7390
बह	-7391
▁</	-7392
नुभो	-7393
▁बाउ	-7394
▁आगमन	-7395
▁गाली	-7396
▁गिरा	-7397
▁कटौती	-7398
▁खेलकु	-7399
▁जाएगा	-7400
▁जनताका	-7401
▁सञ्जाल	-7402
▁क्षमताको	-7403
▁जिन्दगीमा	-7404
▁वर्तमानमा	-7405
▁इलेक्ट्रिक	-7406
लाग	-7407
▁चू	-7408
किने	-7409
गोलिक	-7410
▁आर्ट	-7411
▁थिएटर	-7412
▁दरबार	-7413
▁बनाएँ	-7414
स्थापना	-7415
▁अवार्ड	-7416
▁उनिहरु	-7417
▁प्रवाह	-7418
▁निर्दोष	-7419
▁भर्चुअल	-7420
▁पारदर्शी	-7421
▁मूल्यवान	-7422
▁चै	-7423
▁पच	-7424
टाउन	-7425
▁चाख	-7426
▁क्वा	-7427
▁लन्डन	-7428
▁आकाशमा	-7429
▁लाग्दै	-7430
▁व्यापारिक	-7431
▁अम	-7432
▁गरौ	-7433
▁भोट	-7434
▁याे	-7435
▁हेड	-7436
▁अरूले	-7437
▁खासमा	-7438
▁शुरुआ	-7439
▁लेख्दै	-7440
▁बिन्दुमा	-7441
▁अमेरिकाका	-7442
▁जान्नुहुन्छ	-7443
ort	-7444
टिंग	-7445
ट्टान	-7446
▁डरले	-7447
▁वाचा	-7448
▁वाहन	-7449
▁सक्त	-7450
▁XNUMX	-7451
▁मरेका	-7452
▁बेल्जि	-7453
▁लगाउनु	-7454
▁स्वार्थ	-7455
▁बेवास्ता	-7456
▁क्रियाकलाप	-7457
▁कम्पनीहरूको	-7458
▁अष्ट्रेलियामा	-7459
परा	-7460
एपछि	-7461
कामा	-7462
▁बुक	-7463
▁विव	-7464
▁पैदा	-7465
▁बित्	-7466
तिमीले	-7467
▁पुगेर	-7468
▁बढावा	-7469
▁जन्मेका	-7470
▁प्रान्त	-7471
▁समर्थित	-7472
▁स्वीकार्	-7473
अलैहिस्सलाम	-7474
▁राख्नुहुन्छ	-7475
ड़े	-7476
शित	-7477
▁महल	-7478
दानको	-7479
▁गराउ	-7480
▁छुपा	-7481
▁सवाल	-7482
▁उत्ते	-7483
▁गुप्त	-7484
▁निषेध	-7485
▁तीनवटा	-7486
▁हराएको	-7487
▁आशावादी	-7488
▁कक्षामा	-7489
▁विवाहको	-7490
▁तिमीहरुले	-7491
▁फ्रान्सको	-7492
▁परियोजनाको	-7493
▁व्यक्तिहरूलाई	-7494
आन	-7495
▁घटक	-7496
▁बटन	-7497
▁भत्	-7498
▁2014	-7499
▁आएकी	-7500
▁चारै	-7501
▁स्टक	-7502
पूर्ति	-7503
▁पत्या	-7504
▁यहूदा	-7505
▁दिनपछि	-7506
▁बुधवार	-7507
▁सोभियत	-7508
▁मुलुकमा	-7509
▁चिन्ताको	-7510
▁प्रयासमा	-7511
▁प्रवक्ता	-7512
▁विक्रेता	-7513
▁विद्यमान	-7514
▁असुरक्षित	-7515
▁37	-7516
▁Bit	-7517
▁पस्	-7518
▁ठिकै	-7519
▁सोचि	-7520
▁आशिष्	-7521
▁च्याट	-7522
▁यसपटक	-7523
▁सक्थे	-7524
▁रोकियो	-7525
▁विन्डो	-7526
▁शहरहरू	-7527
▁सोध्ने	-7528
रहनुभएको	-7529
▁दुवैलाई	-7530
▁राजनैतिक	-7531
▁निर्दिष्ट	-7532
▁निर्देशित	-7533
▁ग्राहकहरूलाई	-7534
▁विद्यार्थीले	-7535
▁विद्यार्थीहरूको	-7536
aw	-7537
ob	-7538
▁वु	-7539
त्रि	-7540
वर्त	-7541
▁यहो	-7542
बोर्ड	-7543
▁किंग	-7544
▁मिशन	-7545
▁बढीको	-7546
▁ब्याट	-7547
कांक्षा	-7548
▁कमबख्त	-7549
▁नेपालले	-7550
▁श्रीलंका	-7551
▁निर्माणको	-7552
▁विकिपिडिया	-7553
छी	-7554
ंदै	-7555
दिन्छ	-7556
यस्तो	-7557
▁स्थल	-7558
▁अरुले	-7559
▁खालको	-7560
▁दस्ता	-7561
▁दिइयो	-7562
▁संचालन	-7563
▁देखिएका	-7564
▁भौगोलिक	-7565
▁डराउँछन्	-7566
▁प्रश्नहरु	-7567
▁भन्नेबारे	-7568
▁हस्तान्तरण	-7569
30	-7570
pt	-7571
ढ़	-7572
ोन	-7573
आउट	-7574
छौँ	-7575
ेडे	-7576
▁बक	-7577
▁क्व	-7578
▁घाइ	-7579
▁जिव	-7580
▁अफिस	-7581
▁मिटर	-7582
▁विरा	-7583
त्यहाँ	-7584
▁अतिथि	-7585
▁नभएका	-7586
▁आइतबार	-7587
▁बेलायत	-7588
▁भएकाले	-7589
▁अनुयायी	-7590
▁कार्यरत	-7591
▁उत्सर्जन	-7592
▁प्रतिष्ठ	-7593
▁प्रविधिको	-7594
ङक	-7595
१०	-7596
▁३२	-7597
तीको	-7598
▁लाल	-7599
▁भइहा	-7600
▁सहजै	-7601
▁मर्नु	-7602
▁चट्टान	-7603
▁प्रोटो	-7604
▁लेनदेन	-7605
▁स्वामी	-7606
▁कार्यको	-7607
▁पाउँछन्	-7608
▁चाहनुहुन्न	-7609
चु	-7610
▁Al	-7611
िनले	-7612
▁जगत	-7613
▁कुरै	-7614
▁गणित	-7615
▁कोर्स	-7616
▁दिनका	-7617
▁पानीमा	-7618
▁उपायहरू	-7619
▁चाहन्छौँ	-7620
▁परिवारसँग	-7621
%%	-7622
:)	-7623
भे	-7624
▁St	-7625
▁१ः	-7626
त्रो	-7627
रणीय	-7628
सेवा	-7629
▁डाइ	-7630
▁बेब	-7631
संगिक	-7632
▁इरान	-7633
▁कोरि	-7634
▁बन्ध	-7635
▁योर्क	-7636
▁दिनहरु	-7637
▁व्यायाम	-7638
▁परीक्षणको	-7639
▁भाषाहरूमा	-7640
ell	-7641
our	-7642
नित	-7643
र्जी	-7644
▁आउछ	-7645
▁बिट	-7646
आफ्नै	-7647
रेन्ट	-7648
▁शैता	-7649
▁सोही	-7650
▁जितनी	-7651
▁तालिम	-7652
▁छोराले	-7653
▁ज्यादै	-7654
▁ब्लगमा	-7655
▁भएकोमा	-7656
▁राख्दै	-7657
▁अभिवादन	-7658
▁शरीरलाई	-7659
▁सबैकुरा	-7660
▁पूजाहारी	-7661
▁सक्नेछन्	-7662
▁संक्षिप्त	-7663
बहि	-7664
पालन	-7665
▁जोन	-7666
▁बेड	-7667
योजित	-7668
▁ब्रो	-7669
▁उनीलाई	-7670
▁मान्नु	-7671
▁मोशाले	-7672
▁अपरिहार्य	-7673
▁एन्ड्रोइड	-7674
▁बिज	-7675
▁देखी	-7676
▁सारी	-7677
▁सिपा	-7678
▁दोस्त	-7679
▁सर्भर	-7680
▁लाइनमा	-7681
▁योजनाको	-7682
▁सिकाउँछ	-7683
:6	-7684
डम	-7685
her	-7686
िने	-7687
▁80	-7688
▁90	-7689
icle	-7690
केको	-7691
लीले	-7692
▁पकड	-7693
दायिक	-7694
▁भाइर	-7695
▁अमेजन	-7696
▁तापक्रम	-7697
▁देखाउनु	-7698
▁सशस्त्र	-7699
▁साक्षात्कार	-7700
▁विद्यार्थीको	-7701
काको	-7702
▁for	-7703
▁भूत	-7704
▁सहन	-7705
▁आश्र	-7706
▁इन्ट	-7707
▁टेबल	-7708
▁यिनै	-7709
▁असत्य	-7710
▁खाँदै	-7711
▁खाएको	-7712
▁वरदान	-7713
▁माथिको	-7714
▁अभिनेता	-7715
▁महिलाका	-7716
▁स्थिरता	-7717
▁द्वन्द्व	-7718
▁विषयवस्तु	-7719
▁सर्वशक्ति	-7720
IC	-7721
▁नखा	-7722
▁बेका	-7723
▁भएपनि	-7724
जिनियरि	-7725
▁खुसीको	-7726
▁खेलेका	-7727
▁फिर्ती	-7728
▁सेनाको	-7729
▁स्मृति	-7730
वैज्ञानिक	-7731
▁गर्नुहोस्ः	-7732
हरे	-7733
▁38	-7734
▁An	-7735
त्सव	-7736
दानी	-7737
▁एम्	-7738
गम्बर	-7739
▁पालो	-7740
▁अखबार	-7741
▁भर्ती	-7742
▁जीवनभर	-7743
▁मूर्ति	-7744
▁सक्तैन	-7745
▁हात्ती	-7746
अर	-7747
भौम	-7748
▁तक	-7749
▁आयत	-7750
▁ताइ	-7751
▁शपथ	-7752
▁बच्च	-7753
▁बुढो	-7754
▁सलाम	-7755
▁हेलो	-7756
▁प्रशो	-7757
▁सिंहा	-7758
▁कप्तान	-7759
▁श्रमिक	-7760
▁सक्दछु	-7761
▁आश्वासन	-7762
▁साथसाथै	-7763
▁सम्झन्छु	-7764
▁सहभागिता	-7765
▁डाक्टरलाई	-7766
▁प्रकृतिको	-7767
▁मान्छेहरू	-7768
."	-7769
थ्	-7770
▁£	-7771
जुद	-7772
थाम	-7773
▁यदी	-7774
▁लाज	-7775
▁More	-7776
▁इनको	-7777
▁स्वाद	-7778
▁चलाउने	-7779
▁संयोजन	-7780
▁प्रशस्त	-7781
▁ख्रीष्टको	-7782
▁प्रतिष्ठा	-7783
▁पुनर्निर्माण	-7784
गको	-7785
lect	-7786
न्नु	-7787
ामीण	-7788
्रेट	-7789
▁बंग	-7790
▁हेल	-7791
▁१९४	-7792
नाल्ड	-7793
▁चाँद	-7794
▁जित्	-7795
▁फाईल	-7796
▁चेतना	-7797
▁मर्मत	-7798
▁सुनको	-7799
▁क्यारे	-7800
▁तस्बिर	-7801
▁भएसम्म	-7802
▁स्ट्रि	-7803
परमेश्वर	-7804
▁कम्पनीलाई	-7805
▁लक्ष्यहरू	-7806
ip	-7807
्छौ	-7808
▁वस	-7809
धर्म	-7810
▁चलन	-7811
टिक्स	-7812
▁उसैको	-7813
▁पापको	-7814
▁रिलिज	-7815
▁ग्रामीण	-7816
▁ल्याउँछ	-7817
▁रोनाल्डो	-7818
▁ग्राहकलाई	-7819
▁चाहान्छन्	-7820
▁प्रतिशतले	-7821
▁राष्ट्रपतिको	-7822
एउ	-7823
जाइ	-7824
टिक	-7825
पनमा	-7826
श्री	-7827
साले	-7828
▁जिन	-7829
ग्रहण	-7830
▁बदलि	-7831
▁चित्त	-7832
▁भनेकै	-7833
▁दस्तावे	-7834
▁प्रयोजन	-7835
▁अध्ययनले	-7836
▁अन्त्यसम्म	-7837
▁गतिविधिहरू	-7838
gl	-7839
उप	-7840
ast	-7841
गुण	-7842
▁टै	-7843
जिंग	-7844
▁And	-7845
▁करू	-7846
▁चुका	-7847
▁कोभिड	-7848
▁बिश्व	-7849
▁इमान्द	-7850
▁गर्नुस	-7851
▁परिपक्व	-7852
▁विस्फोट	-7853
▁विश्वलाई	-7854
▁स्क्र्या	-7855
▁मानवअधिकार	-7856
बू	-7857
▁नसो	-7858
▁सरो	-7859
करणको	-7860
कालको	-7861
कृपया	-7862
त्रिम	-7863
▁हिउँ	-7864
▁स्वतः	-7865
▁गाडीमा	-7866
▁बलिदान	-7867
▁संसारभरि	-7868
▁सार्वभौम	-7869
▁स्थानहरू	-7870
▁विज्ञप्तिमा	-7871
ङमा	-7872
हिं	-7873
▁45	-7874
िकरण	-7875
▁माँ	-7876
▁लहर	-7877
▁१५०	-7878
▁फ्रि	-7879
▁माइकल	-7880
▁गर्दछः	-7881
कर्ताहरू	-7882
▁संगठनको	-7883
▁इलेक्ट्रोनिक	-7884
coin	-7885
▁सटी	-7886
▁घातक	-7887
▁जेम्स	-7888
▁परिणत	-7889
उँदैनन्	-7890
▁गरीन्छ	-7891
▁मोटरसा	-7892
▁ट्र्याक	-7893
▁ब्यक्ति	-7894
▁तिनीहरूसँग	-7895
ँट	-7896
परित	-7897
▁एकज	-7898
▁कदर	-7899
नीतिक	-7900
▁उठ्न	-7901
▁उम्र	-7902
▁खेती	-7903
▁प्री	-7904
राखेको	-7905
▁ईन्टर	-7906
▁चुम्ब	-7907
▁सन्धि	-7908
▁उपासना	-7909
▁गर्नुको	-7910
▁सक्छिन्	-7911
▁काठमाडौं	-7912
▁स्टुडियो	-7913
▁पुर्याउने	-7914
▁राजकुमारी	-7915
ov	-7916
दण्ड	-7917
िएकी	-7918
▁नूह	-7919
▁सिट	-7920
▁चल्छ	-7921
▁जाडो	-7922
▁घाइते	-7923
▁बढ्यो	-7924
▁मूलतः	-7925
▁फर्किन	-7926
▁वर्षीय	-7927
▁पुरुषले	-7928
▁फोटोहरू	-7929
▁शिक्षित	-7930
▁दिनहरूमा	-7931
▁बस्नुहुन्छ	-7932
ib	-7933
धर	-7934
ऊन्	-7935
्का	-7936
नयाँ	-7937
▁अतः	-7938
▁लुट	-7939
▁हाे	-7940
▁दुखी	-7941
▁माता	-7942
▁हिरो	-7943
▁COVID	-7944
▁गरेकै	-7945
▁सुनाए	-7946
▁चिच्या	-7947
▁दुईजना	-7948
▁बताइन्	-7949
▁मिल्यो	-7950
▁मूल्यको	-7951
▁युरोपको	-7952
▁सम्पादक	-7953
▁परिदृश्य	-7954
▁बहुमूल्य	-7955
▁सुविधाजनक	-7956
थर	-7957
ों	-7958
ग्न	-7959
हले	-7960
▁(3	-7961
तिको	-7962
न्छौ	-7963
रुवा	-7964
▁मौस	-7965
▁2008	-7966
▁यहीं	-7967
क्षेत्र	-7968
नुपर्दा	-7969
▁घटनामा	-7970
▁देशबाट	-7971
▁बाध्यता	-7972
▁विकासका	-7973
▁देशहरुमा	-7974
▁नलिनुहोस्	-7975
▁प्रासंगिक	-7976
▁सम्मेलनमा	-7977
▁क्षेत्रहरु	-7978
▁३६	-7979
▁कती	-7980
▁बीस	-7981
पश्चा	-7982
हाम्रा	-7983
▁आगोको	-7984
▁उपाधि	-7985
▁एकजुट	-7986
▁तापनि	-7987
▁पूँजी	-7988
▁चरणहरू	-7989
▁पूर्णतया	-7990
▁विश्वयुद्ध	-7991
21	-7992
ith	-7993
ंगी	-7994
डीको	-7995
हम्म	-7996
▁con	-7997
▁ओहो	-7998
▁कुर	-7999
▁चाड	-8000
▁झैं	-8001
िन्थे	-8002
▁ट्रक	-8003
▁फोकस	-8004
▁फ्री	-8005
▁स्वर	-8006
▁एकत्र	-8007
▁चाहानु	-8008
▁हुनेछौ	-8009
▁जान्छौं	-8010
▁मामलामा	-8011
▁सुरक्षाका	-8012
झै	-8013
ूं	-8014
▁~	-8015
टेन	-8016
डोर	-8017
▁Th	-8018
▁एले	-8019
▁टर्म	-8020
▁दिगो	-8021
▁बल्ल	-8022
▁सुले	-8023
रुपयोग	-8024
▁नजिकको	-8025
▁फिल्टर	-8026
▁बनाउनको	-8027
▁त्यहाँका	-8028
▁त्यहाँको	-8029
▁यूरोपियन	-8030
▁प्रशासनिक	-8031
▁विमानस्थल	-8032
▁व्यापारको	-8033
ज्ज	-8034
▁फौ	-8035
न्ती	-8036
संगै	-8037
▁आम्	-8038
▁डेब	-8039
▁भयौ	-8040
▁माउ	-8041
▁100%	-8042
▁टाइम	-8043
▁धातु	-8044
▁नभएर	-8045
▁मजाक	-8046
▁बिग्र	-8047
▁सालमा	-8048
▁क्रिस्ट	-8049
▁अनुहारमा	-8050
▁देशहरूको	-8051
▁निरन्तरता	-8052
▁पाकिस्तानको	-8053
गण	-8054
वण	-8055
मेट	-8056
सोस	-8057
ल्यु	-8058
सियन	-8059
▁घाम	-8060
▁वकी	-8061
▁त्रि	-8062
▁गवाही	-8063
▁निवास	-8064
▁परिमा	-8065
▁मनाउन	-8066
▁हिसाब	-8067
▁हुर्क	-8068
▁कारणका	-8069
▁पक्षले	-8070
▁चुनावमा	-8071
▁बुद्धिमान	-8072
▁अफगानिस्तानमा	-8073
फु	-8074
▁जम	-8075
▁आयर	-8076
▁डाय	-8077
▁नको	-8078
▁बोझ	-8079
ेडेमी	-8080
▁अरबी	-8081
▁छोडे	-8082
▁भूले	-8083
समाचार	-8084
▁चलेको	-8085
▁पर्खा	-8086
▁मार्ट	-8087
▁समूहका	-8088
▁साच्चै	-8089
▁एकेडेमी	-8090
▁पैगम्बर	-8091
▁फेसबुकको	-8092
▁समुदायले	-8093
▁श्रीमतीले	-8094
िमा	-8095
▁तन	-8096
▁३८	-8097
▁197	-8098
▁कौशल	-8099
▁पाहु	-8100
▁मनाइ	-8101
▁रिहा	-8102
▁भर्खर	-8103
▁दिउँसो	-8104
▁ब्लगको	-8105
▁भएकोले	-8106
▁भारतका	-8107
▁रोकथाम	-8108
▁नेपालका	-8109
▁वस्तुको	-8110
▁विद्रोह	-8111
▁प्रोजेक्	-8112
▁स्वर्गदूतहरू	-8113
ive	-8114
डेन	-8115
शेष	-8116
राको	-8117
▁उसो	-8118
▁...]	-8119
▁2012	-8120
▁अबको	-8121
▁फारम	-8122
▁बढ्छ	-8123
▁मेला	-8124
▁लगाइ	-8125
▁विधा	-8126
▁हाउस	-8127
▁इब्रा	-8128
▁बस्दै	-8129
▁कार्बन	-8130
▁चाहेका	-8131
▁जिज्ञा	-8132
▁समर्पण	-8133
▁मुलुकको	-8134
▁दुरुपयोग	-8135
▁प्रस्थान	-8136
▁हामीमध्ये	-8137
iz	-8138
ढो	-8139
-19	-8140
सङ्	-8141
म्या	-8142
▁नही	-8143
▁लड्	-8144
्यारो	-8145
▁इंग्	-8146
▁छाला	-8147
ुरेन्ट	-8148
▁फार्म	-8149
▁मुखमा	-8150
▁गुगलको	-8151
▁सारांश	-8152
▁मूल्यमा	-8153
▁सृष्टिक	-8154
▁हेर्छन्	-8155
▁प्रदर्शित	-8156
कथ	-8157
▁थे	-8158
थ्यौ	-8159
▁art	-8160
▁यहा	-8161
▁रूख	-8162
▁जानी	-8163
▁बाँड	-8164
▁भागे	-8165
▁माग्	-8166
▁लिएँ	-8167
▁स्तन	-8168
▁हर्ष	-8169
तिम्रो	-8170
निर्भर	-8171
▁थाल्छ	-8172
▁माग्न	-8173
▁जानेको	-8174
▁जितेको	-8175
▁पोर्चु	-8176
▁निर्वाह	-8177
▁मित्रता	-8178
▁टेलिभिजनमा	-8179
ईले	-8180
करी	-8181
▁23	-8182
लबाट	-8183
वानी	-8184
▁नती	-8185
ण्डमा	-8186
न्टिक	-8187
▁आईपी	-8188
▁खोलि	-8189
▁छाडि	-8190
▁महशु	-8191
हरूसित	-8192
▁आंशिक	-8193
▁होटेल	-8194
▁अनुरूप	-8195
▁सिक्नु	-8196
▁Bitcoin	-8197
▁उल्लंघन	-8198
▁यूहन्ना	-8199
▁असामान्य	-8200
▁ट्विटरमा	-8201
▁सुरुदेखि	-8202
▁नेटवर्कमा	-8203
▁हेरिरहेका	-8204
▁क्रान्तिको	-8205
णु	-8206
याे	-8207
सं॰	-8208
ment	-8209
ङ्गल	-8210
▁जता	-8211
▁Word	-8212
▁पोषण	-8213
▁सिरि	-8214
सम्मको	-8215
▁दुइटा	-8216
▁युगको	-8217
▁वर्षे	-8218
▁सकिएन	-8219
▁चर्चित	-8220
▁चिन्छु	-8221
▁आकाशहरू	-8222
▁हामीहरु	-8223
▁चीजहरूको	-8224
किङ	-8225
साइ	-8226
▁नस	-8227
प्ले	-8228
बन्द	-8229
वान्	-8230
▁भयभ	-8231
▁वि॰	-8232
▁भव्य	-8233
▁शाही	-8234
▁हामि	-8235
▁२००७	-8236
▁पुतली	-8237
▁समस्त	-8238
▁निलम्ब	-8239
▁कृत्रिम	-8240
▁श्रद्धा	-8241
▁सर्वाधिक	-8242
▁न्युयोर्क	-8243
▁अस्तित्वको	-8244
IN	-8245
ff	-8246
▁🙂	-8247
ard	-8248
▁आद	-8249
▁असी	-8250
▁पता	-8251
▁मही	-8252
▁रही	-8253
▁उठाइ	-8254
▁छनोट	-8255
▁बताइ	-8256
▁इटाली	-8257
▁ईतिहा	-8258
▁खातिर	-8259
▁ग्रीन	-8260
▁डलरको	-8261
▁नहुनु	-8262
▁भएनन्	-8263
विज्ञान	-8264
▁खेल्नु	-8265
▁पार्दछ	-8266
▁पोइन्ट	-8267
▁भन्छौं	-8268
▁लेखकको	-8269
▁विनिमय	-8270
▁संगठित	-8271
▁आउनुभयो	-8272
▁पहिलेको	-8273
▁अन्तिममा	-8274
▁सन्तानको	-8275
▁नागरिकलाई	-8276
▁प्रभावहरू	-8277
▁सामुदायिक	-8278
40	-8279
▁→	-8280
ish	-8281
लीज	-8282
▁शव	-8283
सागर	-8284
▁आरा	-8285
▁गुज	-8286
▁टिप	-8287
तपाईँ	-8288
रून्त	-8289
▁आपको	-8290
▁विफल	-8291
▁सिन्	-8292
▁धम्की	-8293
▁बाह्र	-8294
▁देशहरु	-8295
▁पक्षको	-8296
▁सञ्चार	-8297
▁सपनामा	-8298
▁सोचेका	-8299
▁तुरून्त	-8300
▁ल्याउनु	-8301
▁अवस्थाको	-8302
▁कोरियामा	-8303
▁मिडियाको	-8304
▁रिपब्लिकन	-8305
▁राजनीतिज्ञ	-8306
ii	-8307
शः	-8308
▁k	-8309
ook	-8310
चरण	-8311
देह	-8312
▁Ch	-8313
▁इट	-8314
थियो	-8315
परिक	-8316
कालिन	-8317
सकेकी	-8318
▁अप्ट	-8319
▁एण्ड	-8320
▁चल्न	-8321
▁निया	-8322
▁नीलो	-8323
▁स्कू	-8324
▁विधान	-8325
▁सिपाही	-8326
▁हुन्छौ	-8327
▁जानुभयो	-8328
▁नभएसम्म	-8329
▁समायोजन	-8330
▁बढिरहेको	-8331
▁समस्याहरु	-8332
▁सृष्टिकर्ता	-8333
▁विद्यार्थीलाई	-8334
ft	-8335
▁"।	-8336
▁अय	-8337
▁ओठ	-8338
लोमा	-8339
विदा	-8340
▁खपत	-8341
▁भले	-8342
▁रिट	-8343
▁गायक	-8344
▁फैला	-8345
त्तिकै	-8346
▁असन्तु	-8347
▁प्रकोप	-8348
▁प्रसंग	-8349
▁स्वर्ण	-8350
▁जहाँबाट	-8351
▁सुनिन्छ	-8352
▁आइपुगेको	-8353
▁जान्दछौं	-8354
▁ब्याट्री	-8355
▁सक्दैनौँ	-8356
▁उद्देश्यको	-8357
▁प्रतिबिम्बित	-8358
▁लोकतान्त्रिक	-8359
पृ	-8360
ren	-8361
ीकै	-8362
कुनै	-8363
भारी	-8364
शिका	-8365
▁बाद	-8366
▁जाऊँ	-8367
▁म्याक	-8368
▁हेरें	-8369
▁धेरैको	-8370
▁नियामक	-8371
▁साप्ता	-8372
▁सेनाले	-8373
▁सङ्ख्या	-8374
▁जीवनशैली	-8375
▁व्यवसायिक	-8376
▁प्रतीक्षामा	-8377
alt	-8378
धनको	-8379
ेलले	-8380
्वाइ	-8381
▁अमी	-8382
▁नहि	-8383
▁हुदै	-8384
▁पिउनु	-8385
उनुपर्छ	-8386
▁किन्ने	-8387
▁पाँचौं	-8388
▁सौभाग्य	-8389
▁समुदायका	-8390
▁इस्राएलको	-8391
▁गर्नुहुन्थ्यो	-8392
AR	-8393
३०	-8394
ाम्	-8395
▁70	-8396
▁कब	-8397
▁३७	-8398
▁चाइ	-8399
▁बात	-8400
▁ट्रि	-8401
▁फायर	-8402
▁भाडा	-8403
▁ओबामा	-8404
▁भन्छौ	-8405
▁रेस्ट	-8406
▁उत्तरः	-8407
▁गर्दछौ	-8408
▁ट्रस्ट	-8409
▁निकाल्	-8410
▁यद्यपी	-8411
▁भाषाहरू	-8412
▁विद्युतीय	-8413
दीय	-8414
ब्य	-8415
लने	-8416
सूस	-8417
ुटी	-8418
▁जमी	-8419
▁सित	-8420
मार्फत	-8421
▁जोसँग	-8422
▁थोड़ी	-8423
▁सक्छन	-8424
▁प्रसार	-8425
▁लाइब्र	-8426
▁आनन्दित	-8427
▁पृष्ठको	-8428
▁यहाँसम्म	-8429
▁राजकुमार	-8430
▁राष्ट्रका	-8431
▁अन्तरक्रिया	-8432
▁झूठ	-8433
▁पछी	-8434
▁पदो	-8435
▁ममी	-8436
त्यसो	-8437
फार्म	-8438
▁चौथा	-8439
▁डेरा	-8440
▁निदा	-8441
▁पट्ट	-8442
▁मारे	-8443
▁सानै	-8444
▁२०००	-8445
साधारण	-8446
▁कार्ट	-8447
तपाईंले	-8448
▁दुबईमा	-8449
▁पठाएका	-8450
▁बैंकको	-8451
▁विश्वकै	-8452
हरूद्वारा	-8453
▁धुम्रपान	-8454
▁उपकरणहरूको	-8455
▁समस्याहरूको	-8456
थान	-8457
▁मई	-8458
पानी	-8459
फ्रे	-8460
▁कदा	-8461
▁तलब	-8462
दिएका	-8463
▁अन्न	-8464
▁द्वि	-8465
▁बाकी	-8466
▁व्हा	-8467
▁हाइड	-8468
समध्ये	-8469
▁गान्ध	-8470
▁गार्ड	-8471
▁घटाउन	-8472
▁सम्हा	-8473
तिमीलाई	-8474
▁खण्डमा	-8475
▁खेलकुद	-8476
▁बीबीसी	-8477
▁मागेको	-8478
▁सकिन्न	-8479
▁समयपछि	-8480
▁मद्दतको	-8481
▁सुरूवात	-8482
▁बेरोजगार	-8483
▁निम्नलिखित	-8484
▁ध्यानपूर्वक	-8485
वत	-8486
▁३४	-8487
▁४५	-8488
बाही	-8489
म्बा	-8490
र्सा	-8491
▁तरफ	-8492
Press	-8493
आफ्ना	-8494
▁(201	-8495
▁एसिड	-8496
▁सुखद	-8497
▁सुबह	-8498
▁हेरौँ	-8499
▁ह्याक	-8500
▁सुन्छु	-8501
▁article	-8502
▁देख्छौं	-8503
▁सदस्यको	-8504
▁स्थानको	-8505
▁अपेक्षित	-8506
▁देखाइएको	-8507
▁संस्थाको	-8508
▁कार्यक्रमहरू	-8509
गम	-8510
Bet	-8511
उन्	-8512
▁भूख	-8513
▁एमाले	-8514
▁चरणको	-8515
▁सम्झन	-8516
▁कोहीले	-8517
▁छोरीले	-8518
▁तापमान	-8519
▁ब्रिटे	-8520
▁राख्छु	-8521
▁हटाउने	-8522
▁प्रशिक्षक	-8523
▁मनोवैज्ञानिक	-8524
मल	-8525
ays	-8526
र्छ	-8527
ुबर	-8528
▁फू	-8529
सिंग	-8530
जस्ता	-8531
▁उठाउ	-8532
▁नतीजा	-8533
▁महशुस	-8534
प्रतिको	-8535
▁अवसरको	-8536
▁राख्यो	-8537
▁लेख्नु	-8538
▁विपरित	-8539
अर्कालाई	-8540
▁भन्नुस्	-8541
▁समुदायलाई	-8542
▁अनुसन्धानको	-8543
▁un	-8544
▁नपर	-8545
▁बाघ	-8546
▁यूट	-8547
▁१२०	-8548
▁फिरऔ	-8549
भिडियो	-8550
▁अगुवा	-8551
▁अपहरण	-8552
▁आवेदक	-8553
▁बनाउँ	-8554
▁हेर्छ	-8555
▁अर्काे	-8556
▁घटनाहरु	-8557
▁यिनीहरू	-8558
▁सम्बद्ध	-8559
कपा	-8560
▁-"	-8561
▁Sh	-8562
ब्या	-8563
लाले	-8564
▁अस्थ	-8565
▁समूद	-8566
▁खाँचो	-8567
▁गरिनु	-8568
▁नामले	-8569
▁नेशनल	-8570
▁फोनको	-8571
▁खुलासा	-8572
▁दक्षता	-8573
▁पदोन्न	-8574
▁क्रिप्ट	-8575
▁डोनाल्ड	-8576
▁देख्यौं	-8577
▁जिल्लामा	-8578
▁पुरुषहरु	-8579
▁बेल्जियम	-8580
▁सुझावहरू	-8581
▁स्पष्टीकरण	-8582
डाउन	-8583
स्टो	-8584
▁तार	-8585
▁बडो	-8586
देशमा	-8587
नुमान	-8588
र्सको	-8589
▁आदान	-8590
▁जर्ज	-8591
▁ठान्	-8592
▁विदा	-8593
▁जान्द	-8594
▁श्वास	-8595
▁टेबलमा	-8596
▁लाग्नु	-8597
▁लोग्ने	-8598
▁सम्मको	-8599
▁हिन्दु	-8600
▁इस्राएल	-8601
▁क्रोधित	-8602
▁अप्रत्या	-8603
▁आउनुभएको	-8604
ँहा	-8605
हाक	-8606
एउटा	-8607
प्टर	-8608
▁पढे	-8609
▁पिए	-8610
▁सीप	-8611
▁कतार	-8612
▁टापु	-8613
▁बचाइ	-8614
▁युके	-8615
▁सुधा	-8616
▁आउँछु	-8617
▁इन्डो	-8618
▁बिताए	-8619
▁खुलेको	-8620
▁भ्रष्ट	-8621
▁collect	-8622
▁कत्तिको	-8623
▁गर्नुभएन	-8624
▁साप्ताहिक	-8625
▁संस्कृतिको	-8626
डु	-8627
ect	-8628
दले	-8629
▁चरम	-8630
▁जर्	-8631
▁बोट	-8632
▁मजब	-8633
मार्क	-8634
अल्लाह	-8635
▁लगाउँ	-8636
▁विवेक	-8637
▁अपरेशन	-8638
▁नियमको	-8639
▁बैंकले	-8640
▁भेट्नु	-8641
▁कार्डहरू	-8642
▁जानुपर्छ	-8643
▁जिज्ञासा	-8644
▁त्योभन्दा	-8645
▁संस्करणमा	-8646
▁साथीहरुले	-8647
उठ	-8648
शू	-8649
ust	-8650
▁1.	-8651
epali	-8652
स्तान	-8653
▁भनौं	-8654
▁भेटि	-8655
▁तिहाई	-8656
▁स्कोर	-8657
▁दिँदैन	-8658
▁सिकाउन	-8659
▁परिचालन	-8660
▁जन्मिएको	-8661
▁बंगलादेश	-8662
पार्टमेन्ट	-8663
▁महिनासम्म	-8664
▁टेक्नोलोजीको	-8665
तल	-8666
भल	-8667
लाप	-8668
▁wh	-8669
सर्व	-8670
▁बेस	-8671
▁वफा	-8672
▁सवै	-8673
ासम्म	-8674
▁2020	-8675
▁जंगल	-8676
▁बनाई	-8677
राखेका	-8678
▁आएपछि	-8679
▁देशभर	-8680
▁लगायत	-8681
▁सुत्न	-8682
▁निवासी	-8683
▁कांग्रे	-8684
▁भित्रको	-8685
▁साइटहरु	-8686
▁सेवाहरु	-8687
▁महिनापछि	-8688
▁स्थानहरूमा	-8689
▁तपाईंहरूलाई	-8690
11	-8691
▁ऑ	-8692
:10	-8693
एकै	-8694
मोट	-8695
वाँ	-8696
ट्या	-8697
न्जेल	-8698
पुर्ण	-8699
▁जोडि	-8700
▁पासमा	-8701
▁मजदुर	-8702
▁लिनको	-8703
तपाईंको	-8704
▁ईन्जिन	-8705
▁बिन्ती	-8706
▁गुमाएको	-8707
▁WordPress	-8708
▁क्षतिपूर्ति	-8709
▁धर्मशास्त्र	-8710
▁नेदरल्याण्ड	-8711
▁स्वास्थ्यमा	-8712
:7	-8713
EA	-8714
:14	-8715
ताप	-8716
महि	-8717
ष्म	-8718
गोरि	-8719
जसले	-8720
नाका	-8721
▁अनी	-8722
▁मनि	-8723
▁हरू	-8724
▁भुला	-8725
▁इलाका	-8726
▁किसको	-8727
▁घटेको	-8728
▁मस्जि	-8729
▁छविहरू	-8730
▁बचाउनु	-8731
▁मामिला	-8732
▁अक्टुबर	-8733
▁तथ्यांक	-8734
▁युट्युब	-8735
▁अमेरिकालाई	-8736
▁देखिन्थ्यो	-8737
▁कर्मचारीहरु	-8738
▁प्लेटफर्ममा	-8739
▁ब्रह्माण्डको	-8740
ँदो	-8741
सेफ	-8742
रुत्	-8743
▁कैद	-8744
▁घनि	-8745
▁बजा	-8746
▁छँदै	-8747
▁पाना	-8748
▁पीसी	-8749
▁वक्त	-8750
▁सोधि	-8751
▁अशक्त	-8752
▁लगाएर	-8753
▁स्टेज	-8754
▁बचाउने	-8755
▁बन्नेछ	-8756
▁भेदभाव	-8757
▁मैत्री	-8758
▁व्यर्थ	-8759
▁हामीमा	-8760
▁हिन्दू	-8761
▁उत्तिकै	-8762
▁पेरिसमा	-8763
▁प्रोफेस	-8764
▁विश्वकप	-8765
▁त्यसमाथि	-8766
▁सुसमाचार	-8767
▁प्रशासनले	-8768
▁सर्वोत्तम	-8769
4)	-8770
डीए	-8771
पछी	-8772
वर्	-8773
लागी	-8774
▁शिव	-8775
▁सद्	-8776
ग्रेड	-8777
र्व्य	-8778
विहीन	-8779
स्ट्र	-8780
▁नाफा	-8781
▁नायक	-8782
▁२००६	-8783
▁झ्याल	-8784
▁फुर्स	-8785
▁कामलाई	-8786
▁सुरूमा	-8787
▁तथ्यलाई	-8788
▁बोल्छन्	-8789
▁साथीलाई	-8790
▁स्प्याम	-8791
▁जन्मिएका	-8792
▁गुणस्तरको	-8793
▁सफ्टवेयरको	-8794
▁अनुप्रयोगको	-8795
▁पाकिस्तानमा	-8796
oub	-8797
लिस	-8798
िन्स	-8799
▁हवा	-8800
▁Engl	-8801
▁टिभी	-8802
▁पुरू	-8803
न्द्रा	-8804
▁अभ्या	-8805
▁एनालि	-8806
▁टीमको	-8807
▁लगायो	-8808
▁वेबमा	-8809
▁शिकार	-8810
▁समक्ष	-8811
▁सम्मि	-8812
▁क्रमशः	-8813
▁खासगरी	-8814
▁पुग्नु	-8815
▁यन्त्र	-8816
▁हुनाले	-8817
▁नियमहरु	-8818
▁पाउनुहुन्छ	-8819
▁राख्नुपर्छ	-8820
▁सक्नुहुन्छः	-8821
▁__	-8822
▁lo	-8823
ings	-8824
डियन	-8825
▁बाच	-8826
▁शोक	-8827
सम्भव	-8828
▁आवास	-8829
▁उधार	-8830
▁ज्वा	-8831
▁नामा	-8832
▁उसैले	-8833
▁खेल्छ	-8834
▁ढुक्क	-8835
▁दिइन्	-8836
▁आयोगले	-8837
▁परिवेश	-8838
▁पिताको	-8839
▁लज्जित	-8840
▁सम्भवत	-8841
▁हारेको	-8842
▁ठाउँबाट	-8843
▁मानिसका	-8844
▁समाधानको	-8845
▁उत्तरदायी	-8846
▁चाहन्छिन्	-8847
▁मध्यस्थता	-8848
▁साथीहरूसँग	-8849
▁परियोजनाहरू	-8850
ठन	-8851
दूर	-8852
▁मं	-8853
▁रङ	-8854
▁सव	-8855
टरको	-8856
पादन	-8857
मेरी	-8858
हेलो	-8859
▁अटो	-8860
▁जाय	-8861
ेशनको	-8862
▁उचाइ	-8863
▁चेल्	-8864
▁बिहा	-8865
▁भनिन	-8866
▁मुनि	-8867
▁लाभा	-8868
▁वकील	-8869
▁सेवन	-8870
▁स्लट	-8871
ग्राफी	-8872
धिकारी	-8873
▁उठ्ने	-8874
▁कच्चा	-8875
▁ब्याक	-8876
▁रसायन	-8877
▁हराउन	-8878
▁गर्यौँ	-8879
▁टर्मिन	-8880
▁सिकेका	-8881
▁पार्कमा	-8882
▁रहन्छन्	-8883
▁राजालाई	-8884
▁लिंकहरू	-8885
▁मनपर्दैन	-8886
▁विवरणहरू	-8887
▁उहाँहरुको	-8888
▁जिन्दगीको	-8889
▁बुझ्दैनन्	-8890
▁उपयोगकर्ता	-8891
▁तिनीहरुलाई	-8892
EM	-8893
ुस	-8894
ण्ट	-8895
नाथ	-8896
ङ्कन	-8897
लाईन	-8898
▁अपा	-8899
▁नभु	-8900
र्भिक	-8901
▁2010	-8902
▁गुला	-8903
▁चुना	-8904
▁ड्रा	-8905
युक्ति	-8906
▁ममाथि	-8907
▁स्विच	-8908
▁राम्री	-8909
▁सम्पदा	-8910
▁हजारौँ	-8911
▁जनवरीमा	-8912
▁सन्तुलन	-8913
▁बर्षदेखि	-8914
▁अफ्रिकामा	-8915
▁ईन्जिनियर	-8916
▁गर्नेवाला	-8917
▁विकासकर्ता	-8918
▁अधिकारीहरूले	-8919
अगा	-8920
निन	-8921
टीको	-8922
▁अहँ	-8923
भरिका	-8924
▁उदार	-8925
▁क्रस	-8926
▁बायो	-8927
▁मतलव	-8928
▁सिके	-8929
▁सुनु	-8930
▁हत्य	-8931
▁घरेलू	-8932
▁द्वीप	-8933
▁गाडीको	-8934
▁मास्को	-8935
▁मीडिया	-8936
▁एकत्रित	-8937
▁खेल्छन्	-8938
▁चाहन्नँ	-8939
▁दक्षिणी	-8940
▁पाउनुभयो	-8941
▁मुद्दामा	-8942
▁सदस्यहरु	-8943
▁हुनुभएको	-8944
▁चलचित्रमा	-8945
▁परिवर्तनका	-8946
▁सेप्टेम्बरमा	-8947
वधि	-8948
ञ्जन	-8949
रीले	-8950
▁फर्	-8951
▁बेइ	-8952
शान्त	-8953
▁दिदै	-8954
▁बस्छ	-8955
▁लेबल	-8956
▁आउँदो	-8957
▁एयरला	-8958
▁बेस्ट	-8959
▁हकदार	-8960
▁हुँदो	-8961
▁पश्चात	-8962
▁बाहिरि	-8963
▁पारदर्श	-8964
▁संगीतको	-8965
▁त्यतिखेर	-8966
▁हुनसक्ने	-8967
▁फोटोग्राफ	-8968
▁महिनादेखि	-8969
▁जनसंख्याको	-8970
SA	-8971
ST	-8972
पै	-8973
लम्	-8974
्समा	-8975
▁काँ	-8976
▁कुट	-8977
▁पढा	-8978
▁मला	-8979
मानिस	-8980
▁क्यु	-8981
▁बेचि	-8982
▁खोज्छ	-8983
▁लेखको	-8984
▁अफिसमा	-8985
▁पराजित	-8986
▁जसमध्ये	-8987
▁हेर्नुस	-8988
जरल्याण्ड	-8989
▁डाक्टरको	-8990
▁सम्भाव्य	-8991
▁होस्टिंग	-8992
▁अनुपस्थित	-8993
▁हेरिरहेको	-8994
▁भन्नुपर्दा	-8995
अन	-8996
पल	-8997
कास	-8998
जूद	-8999
▁बिग	-9000
▁ईसाई	-9001
▁परेर	-9002
▁सटीक	-9003
▁हुनत	-9004
▁घरहरू	-9005
▁जरूरी	-9006
▁दौरान	-9007
▁चिनेको	-9008
▁कारबाही	-9009
▁अनुमोदित	-9010
▁ट्रम्पको	-9011
▁तपाईँहरु	-9012
▁संस्थापक	-9013
▁समाजवादी	-9014
▁परिमार्जन	-9015
▁श्रीमतीको	-9016
▁प्रमाणीकरण	-9017
▁हेर्नुहुन्छ	-9018
घु	-9019
▁€	-9020
बिन	-9021
▁Ad	-9022
न्सि	-9023
याको	-9024
रेखा	-9025
सम्प	-9026
▁196	-9027
▁अहो	-9028
▁ओपन	-9029
▁पात	-9030
▁लिं	-9031
▁कमाई	-9032
▁खुसि	-9033
▁मृतक	-9034
▁रङ्ग	-9035
अन्तर्	-9036
▁फास्ट	-9037
▁सातौं	-9038
▁कामहरु	-9039
▁वाक्या	-9040
▁शिक्षण	-9041
▁अन्तर्क	-9042
▁दुर्व्य	-9043
▁देख्छन्	-9044
▁सोध्छन्	-9045
▁स्टोरमा	-9046
▁उनीहरूमा	-9047
▁दिनहरुमा	-9048
▁पुरुषहरू	-9049
▁पुस्तकहरु	-9050
▁बुद्धिमानी	-9051
▁@	-9052
ber	-9053
ide	-9054
ows	-9055
एचओ	-9056
एनए	-9057
▁1,	-9058
▁33	-9059
▁पक	-9060
निंग	-9061
▁Don	-9062
▁रोम	-9063
▁हरि	-9064
▁हिं	-9065
नेछौँ	-9066
▁दर्द	-9067
▁पुजा	-9068
▁सहाय	-9069
▁एल्बम	-9070
▁नोबेल	-9071
▁फ्याँ	-9072
▁बकवास	-9073
▁महसूस	-9074
▁मेसिन	-9075
▁हातको	-9076
▁अभिलेख	-9077
▁डिजाईन	-9078
▁पठाउनु	-9079
▁पाहुना	-9080
▁मेस्सी	-9081
▁मौसममा	-9082
▁सन्तोष	-9083
▁आमाबुवा	-9084
▁क्याम्प	-9085
▁गर्दिनँ	-9086
▁योग्यता	-9087
▁निर्णयको	-9088
▁कागजातहरू	-9089
▁श्रीमतीलाई	-9090
pp	-9091
age	-9092
▁sp	-9093
कथित	-9094
स्का	-9095
▁ईयू	-9096
▁विन	-9097
इँदैन	-9098
कारको	-9099
▁2011	-9100
▁ब्यू	-9101
▁मंगल	-9102
श्चियन	-9103
▁अग्नि	-9104
▁ट्रेड	-9105
▁पढ्दा	-9106
▁परिषद्	-9107
▁बैंकमा	-9108
▁आमाबुबा	-9109
▁प्रक्षे	-9110
▁पार्टीका	-9111
▁वाक्यांश	-9112
▁शहरहरूमा	-9113
▁प्रयोजनका	-9114
▁अफगानिस्तान	-9115
ight	-9116
घाटन	-9117
▁दाई	-9118
▁उठ्छ	-9119
नात्मक	-9120
▁अभियो	-9121
▁कश्मी	-9122
▁नजरमा	-9123
▁पुरूष	-9124
▁लड्ने	-9125
▁सशक्त	-9126
वैधानिक	-9127
▁आइपुगे	-9128
▁मभन्दा	-9129
▁सेटिंग	-9130
▁अदालतको	-9131
▁शीर्षमा	-9132
▁हत्यारा	-9133
▁अनुच्छेद	-9134
▁भगवानसँग	-9135
▁परिवारबाट	-9136
▁नोभेम्बरमा	-9137
▁प्लेटफार्म	-9138
▁अन्तर्क्रिया	-9139
▁अन्तराष्ट्रिय	-9140
▁सावधानीपूर्वक	-9141
▁अनुप्रयोगहरूको	-9142
बेर	-9143
▁Wh	-9144
▁यम	-9145
▁नाक	-9146
▁मनम	-9147
▁हिट	-9148
▁अर्ध	-9149
▁छक्क	-9150
▁ठीकै	-9151
▁सुखी	-9152
▁हालत	-9153
▁बन्दी	-9154
▁स्टेट	-9155
अमेरिका	-9156
▁अग्रिम	-9157
▁एक्सचे	-9158
▁कुमारी	-9159
▁गुमाउन	-9160
▁ग्रहमा	-9161
▁पागलपन	-9162
▁भागहरु	-9163
▁प्रशोधन	-9164
▁बताउँदै	-9165
▁अधिग्रहण	-9166
▁बताउनुभयो	-9167
▁सदस्यहरूको	-9168
▁विश्वविद्यालयमा	-9169
99	-9170
रन	-9171
१२	-9172
डिङ	-9173
लोक	-9174
सेस	-9175
▁43	-9176
▁ओछ	-9177
धारा	-9178
▁500	-9179
▁खोई	-9180
▁पढि	-9181
▁भजन	-9182
▁year	-9183
▁अच्छ	-9184
▁चिना	-9185
▁तहमा	-9186
▁सचिव	-9187
नुभएका	-9188
▁कतिले	-9189
▁ट्रया	-9190
▁नगर्न	-9191
▁बाँया	-9192
▁हालका	-9193
तिमीहरू	-9194
▁उत्तरा	-9195
▁एकचोटि	-9196
▁छोडेको	-9197
▁दाऊदले	-9198
▁बुझाउन	-9199
▁भाइहरू	-9200
▁विषयको	-9201
▁सत्यता	-9202
▁भाग्यवस	-9203
▁विश्वले	-9204
▁सँगसँगै	-9205
▁सजिलैसँग	-9206
▁संविधानको	-9207
▁उद्देश्यले	-9208
▁व्यवसायलाई	-9209
ud	-9210
ock	-9211
डब्	-9212
वमा	-9213
क्ष्	-9214
श्मा	-9215
▁गाउ	-9216
▁बढ़	-9217
स्टार	-9218
▁post	-9219
▁बिही	-9220
▁रहेर	-9221
▁गिरावट	-9222
▁चीनबाट	-9223
▁छुट्टि	-9224
▁लाग्दछ	-9225
▁ल्यायो	-9226
▁साथीले	-9227
न्दर्भिक	-9228
▁राज्यका	-9229
▁आपतकालीन	-9230
▁ईश्वरलाई	-9231
▁घटनाक्रम	-9232
▁हामीसँगै	-9233
▁आवश्यकताको	-9234
ss	-9235
ors	-9236
टिभ	-9237
सेट	-9238
▁आओ	-9239
ट्सए	-9240
मसँग	-9241
▁झनै	-9242
▁लेब	-9243
▁काफी	-9244
▁झूटो	-9245
▁फोरम	-9246
▁भुले	-9247
▁आभारी	-9248
▁घुम्न	-9249
▁पर्वत	-9250
▁फरिश्	-9251
▁भेटिए	-9252
▁सुम्प	-9253
▁उद्धरण	-9254
▁चित्रण	-9255
▁दूतावा	-9256
▁संकल्प	-9257
▁सकिएको	-9258
▁अक्सिजन	-9259
▁गइरहेका	-9260
▁ड्राइभि	-9261
▁राख्छौं	-9262
▁सहकर्मी	-9263
▁सुलेमान	-9264
▁अनुमानित	-9265
▁अप्ठ्यारो	-9266
▁मोटरसाइकल	-9267
▁बालबालिकाको	-9268
av	-9269
ank	-9270
इको	-9271
ओएस	-9272
भाग	-9273
▁34	-9274
oubt	-9275
वर्ग	-9276
▁अश्	-9277
▁इञ्	-9278
▁चिन	-9279
▁भाउ	-9280
▁साई	-9281
हम्मद	-9282
▁Miss	-9283
▁कारा	-9284
▁दिएन	-9285
▁महास	-9286
शालामा	-9287
▁ग्रुप	-9288
▁मजबूत	-9289
▁चिन्ने	-9290
▁हातबाट	-9291
▁आमन्त्र	-9292
▁तिम्लाई	-9293
▁माओवादी	-9294
▁युक्रेन	-9295
▁समितिले	-9296
▁सरकारका	-9297
▁केसहरूमा	-9298
▁गरीरहेको	-9299
▁निर्माणमा	-9300
▁नेतृत्वमा	-9301
▁चन्द्रमामा	-9302
);	-9303
5)	-9304
ंद	-9305
फ्र	-9306
▁नर	-9307
ंदैन	-9308
तिनी	-9309
▁इको	-9310
▁खाइ	-9311
▁झैँ	-9312
▁..."	-9313
▁आइन्	-9314
▁मिलि	-9315
▁घोषित	-9316
▁दशकौं	-9317
▁प्यान	-9318
▁महोदय	-9319
▁मारिए	-9320
▁म्याड	-9321
▁विद्व	-9322
▁सङ्कट	-9323
▁असंख्य	-9324
▁गर्दथे	-9325
▁शिपिंग	-9326
▁तपाईँका	-9327
▁ल्याटिन	-9328
▁तपाइँसँग	-9329
▁प्रभावको	-9330
▁भगवान्ले	-9331
▁योजनाहरू	-9332
▁अधिकारीले	-9333
▁विद्यालयको	-9334
%)	-9335
उछ	-9336
act	-9337
जरी	-9338
नियल	-9339
▁Sem	-9340
▁इजि	-9341
▁जरा	-9342
▁अल्ट	-9343
▁आपरा	-9344
▁जम्म	-9345
▁निधन	-9346
▁१९९०	-9347
▁आपत्ति	-9348
▁होइनौं	-9349
▁एल्गोरि	-9350
▁नेताहरू	-9351
▁प्रकार्य	-9352
▁फलस्वरूप	-9353
▁क्षेत्रबाट	-9354
च्	-9355
बुल	-9356
सीय	-9357
roid	-9358
गामी	-9359
जीको	-9360
साथी	-9361
▁फोर	-9362
▁बेश	-9363
नीलाई	-9364
▁खत्म	-9365
▁पैदल	-9366
▁भेटे	-9367
त्ताको	-9368
▁मोमिन	-9369
▁यहोवा	-9370
▁ल्याइ	-9371
▁सुनें	-9372
▁हितमा	-9373
▁अस्थिर	-9374
▁कारणको	-9375
▁पुरानै	-9376
▁फाइनलमा	-9377
▁मार्क्स	-9378
▁याकूबले	-9379
▁यूट्यूब	-9380
▁क्षमतामा	-9381
▁दस्तावेज	-9382
राष्ट्रपति	-9383
▁संस्करणको	-9384
▁विशेषज्ञहरु	-9385
टले	-9386
▁झि	-9387
▁विष	-9388
▁शिर	-9389
▁चाही	-9390
▁झुठो	-9391
▁बुढी	-9392
▁विवा	-9393
भूमिमा	-9394
▁doubt	-9395
▁असमान	-9396
▁घट्यो	-9397
▁दशकको	-9398
▁दिएकी	-9399
▁पर्नु	-9400
▁आइडिया	-9401
▁माग्ने	-9402
▁आपराधिक	-9403
▁परिक्षण	-9404
▁लेख्छन्	-9405
▁चाहन्थेँ	-9406
▁तथ्याङ्क	-9407
▁पाउनेछन्	-9408
▁भनिरहेका	-9409
▁स्वर्गको	-9410
▁एक्सचेन्ज	-9411
▁चाखलाग्दो	-9412
▁बनाउनुहोस्	-9413
▁अप्रत्याशित	-9414
ंत	-9415
रिस	-9416
ीया	-9417
xBet	-9418
डियम	-9419
ण्डै	-9420
थिका	-9421
यत्त	-9422
वरको	-9423
ीतमा	-9424
▁कोण	-9425
▁भया	-9426
देशिक	-9427
र्सले	-9428
▁खोला	-9429
▁गाउन	-9430
▁छाती	-9431
▁जिते	-9432
▁संजा	-9433
यात्रा	-9434
▁सोच्छ	-9435
▁विकिपी	-9436
▁लाग्नेछ	-9437
▁विपक्षी	-9438
▁विरोधमा	-9439
▁अध्ययनको	-9440
▁प्रतिदिन	-9441
▁वामपन्थी	-9442
▁शान्तिको	-9443
▁भावनात्मक	-9444
▁डिसेम्बरमा	-9445
▁निष्कर्षमा	-9446
▁प्रोग्रामिंग	-9447
TM	-9448
वो	-9449
बंध	-9450
सिय	-9451
▁or	-9452
▁आया	-9453
▁ठाउ	-9454
क्सले	-9455
रातमा	-9456
वलोकन	-9457
▁निगम	-9458
▁सिधा	-9459
▁कन्या	-9460
▁चार्ट	-9461
▁मसँगै	-9462
▁रमाउन	-9463
▁रोएको	-9464
▁सान्त	-9465
भित्रको	-9466
▁समाजका	-9467
▁स्तम्भ	-9468
▁देउवाले	-9469
▁विधिहरू	-9470
▁नियुक्ति	-9471
▁प्रक्षेपण	-9472
▁गर्नेहरूलाई	-9473
▁दृष्टिकोणबाट	-9474
▁x	-9475
ice	-9476
गोल	-9477
मिट	-9478
▁जय	-9479
▁लू	-9480
किलो	-9481
मुखी	-9482
यमित	-9483
▁कूट	-9484
▁मरु	-9485
ेशनमा	-9486
▁घरका	-9487
▁त्रा	-9488
▁हेरे	-9489
स्टाइन	-9490
▁चाँडो	-9491
▁फ्रेम	-9492
▁भरपर्	-9493
▁सक्छः	-9494
▁तिर्ने	-9495
▁दिइनेछ	-9496
▁बदलामा	-9497
▁बित्यो	-9498
▁भागहरू	-9499
▁सकेनौं	-9500
▁स्ट्या	-9501
▁चाहान्छ	-9502
▁हाइड्रो	-9503
▁अर्कासँग	-9504
▁जर्मनीको	-9505
▁पूर्वाधार	-9506
▁बेरोजगारी	-9507
▁गतिविधिहरु	-9508
▁सम्बन्धलाई	-9509
▁विद्यार्थीहरूले	-9510
ंको	-9511
खेल	-9512
ल्डर	-9513
▁रिक	-9514
▁रिज	-9515
▁रोए	-9516
अगाडि	-9517
न्वित	-9518
▁अचेल	-9519
▁अपील	-9520
▁कृति	-9521
▁पढें	-9522
▁मञ्च	-9523
▁साढे	-9524
▁नदीको	-9525
▁पाउडर	-9526
▁बोल्छ	-9527
▁रहेछु	-9528
वाणिज्य	-9529
▁Semalt	-9530
▁नहुँदा	-9531
▁ब्राउज	-9532
▁मण्डली	-9533
▁कारवाही	-9534
▁ब्रिटेन	-9535
▁मलेसिया	-9536
▁मिनेटको	-9537
▁ग्राहकले	-9538
▁बाहिरबाट	-9539
▁स्वायत्त	-9540
▁आन्दोलनको	-9541
▁इन्जिनियर	-9542
▁हुनुभन्दा	-9543
▁अपेक्षाकृत	-9544
▁पाकिस्तानी	-9545
▁सम्झनुहोस्	-9546
▁साथीहरुलाई	-9547
▁दिशानिर्देश	-9548
ैमा	-9549
▁',	-9550
▁इम	-9551
▁रन	-9552
न्छे	-9553
▁मोर	-9554
▁वार	-9555
दथ्यो	-9556
फेक्ट	-9557
▁अतीत	-9558
▁क्यो	-9559
▁सोसल	-9560
illion	-9561
▁अल्फा	-9562
▁पछाडी	-9563
डिरहेको	-9564
▁उपग्रह	-9565
▁खानाको	-9566
▁भन्दछु	-9567
▁विगतको	-9568
▁सम्झनु	-9569
▁खोज्छन्	-9570
▁योजनामा	-9571
▁संसारकै	-9572
▁टेक्निकल	-9573
▁तिनीहरुको	-9574
▁तुलनात्मक	-9575
▁सान्दर्भिक	-9576
▁रेस्टुरेन्ट	-9577
रज	-9578
षी	-9579
नें	-9580
पेश	-9581
लता	-9582
▁अड्	-9583
▁घरा	-9584
▁भरे	-9585
र्मोन	-9586
▁उसकै	-9587
▁गौरव	-9588
▁वाशि	-9589
▁विलि	-9590
▁सकिए	-9591
▁कोर्ट	-9592
▁मरियम	-9593
▁महंगा	-9594
▁यससँग	-9595
▁रुपले	-9596
उनुभएको	-9597
डिरहेका	-9598
नेछैनन्	-9599
▁क्लाउड	-9600
▁धरतीमा	-9601
▁पुजारी	-9602
▁लेखेकी	-9603
▁उनीमाथि	-9604
▁पक्षलाई	-9605
▁सूर्यको	-9606
▁भिडियोको	-9607
▁सम्मिलित	-9608
▁प्रदर्शनी	-9609
▁अत्यावश्यक	-9610
झे	-9611
घात	-9612
झैँ	-9613
न्म	-9614
राइ	-9615
लान	-9616
स्न	-9617
ेटी	-9618
वेशन	-9619
ैयाँ	-9620
▁300	-9621
▁ओर्	-9622
न्सको	-9623
▁घायल	-9624
▁नर्क	-9625
▁मामा	-9626
▁रुची	-9627
▁स्टी	-9628
मात्रै	-9629
स्ट्री	-9630
▁पाइने	-9631
▁अधिकृत	-9632
▁भाडामा	-9633
▁वेबसाई	-9634
▁बाहिरको	-9635
▁सत्तामा	-9636
▁दिइरहेको	-9637
▁लक्षणहरू	-9638
▁प्रविष्टि	-9639
▁पूर्वानुमान	-9640
फूल	-9641
ौना	-9642
▁खू	-9643
▁धि	-9644
प्रो	-9645
▁नबि	-9646
आमाले	-9647
क्रिय	-9648
▁गएकी	-9649
▁बढाइ	-9650
ध्यक्ष	-9651
▁नेकपा	-9652
▁पढेका	-9653
▁नपरोस्	-9654
▁फाउन्ड	-9655
▁तपाईंमा	-9656
▁लन्डनमा	-9657
▁विपत्ति	-9658
▁कोरियाको	-9659
▁परिणामको	-9660
▁प्रश्नमा	-9661
▁सुन्नुभएको	-9662
िट	-9663
▁डच	-9664
ङ्गो	-9665
▁...।	-9666
▁खारे	-9667
▁छाड्	-9668
▁जादु	-9669
▁जिउन	-9670
▁हिरा	-9671
▁चल्ने	-9672
▁जानेछ	-9673
▁प्रहर	-9674
▁लिङ्क	-9675
▁शीघ्र	-9676
▁अज्ञान	-9677
▁ग्रहको	-9678
▁मनाउने	-9679
▁राजदूत	-9680
▁स्मारक	-9681
▁ह्वाइट	-9682
▁लाग्छन्	-9683
▁विद्वान	-9684
▁समाधानहरू	-9685
▁स्क्रिप्ट	-9686
▁साथीहरूलाई	-9687
ः४	-9688
हँ	-9689
निङ	-9690
लिए	-9691
हको	-9692
▁EU	-9693
▁पट	-9694
कोही	-9695
क्ती	-9696
शैया	-9697
▁मिन	-9698
▁रोड	-9699
▁अगले	-9700
▁अनौं	-9701
▁आजका	-9702
▁करीब	-9703
▁डिस्	-9704
▁नम्र	-9705
▁सफाई	-9706
▁पाएकी	-9707
▁सोचाइ	-9708
▁स्पर्	-9709
▁आकारको	-9710
▁त्यहीं	-9711
▁देख्दै	-9712
▁दैनिकी	-9713
▁बावजूद	-9714
▁उद्घाटन	-9715
▁कारणहरु	-9716
▁तथाकथित	-9717
▁नेताहरु	-9718
▁पछिल्ला	-9719
▁यरूशलेम	-9720
▁रहस्यमय	-9721
▁लेखिएका	-9722
▁स्रोतको	-9723
▁अभियानमा	-9724
▁बनाउँछन्	-9725
▁महिलासँग	-9726
▁मामिलामा	-9727
▁विस्तारै	-9728
▁विज्ञानको	-9729
▁व्यक्तिमा	-9730
▁स्वर्गबाट	-9731
cl	-9732
गरि	-9733
बको	-9734
वली	-9735
सेज	-9736
▁NE	-9737
▁गै	-9738
▁लस	-9739
यमको	-9740
सेको	-9741
▁आरो	-9742
.....	-9743
पहिले	-9744
▁उदास	-9745
▁ग्रे	-9746
▁एकाएक	-9747
▁एक्का	-9748
▁नहोला	-9749
▁परिसर	-9750
▁बाँच्	-9751
▁बोलाइ	-9752
▁युनिभ	-9753
▁अनुदान	-9754
▁किनारा	-9755
▁किनेको	-9756
▁तपाईमा	-9757
▁प्याले	-9758
▁वास्ता	-9759
▁सुनाउन	-9760
▁हुर्का	-9761
उदाहरणका	-9762
▁अचम्मित	-9763
▁कुकीहरू	-9764
▁डिजाइनर	-9765
▁धर्तीमा	-9766
▁पक्षहरू	-9767
▁ल्याएका	-9768
▁बसिरहेको	-9769
▁अधिकारहरू	-9770
▁जन्मदिनको	-9771
▁नेताहरूले	-9772
▁अल्पसंख्यक	-9773
▁क्रिश्चियन	-9774
▁तिमीहरुलाई	-9775
▁विकिपीडिया	-9776
▁सम्पत्तिको	-9777
▁सर्वसाधारण	-9778
▁कर्मचारीहरू	-9779
ne	-9780
se	-9781
धो	-9782
:17	-9783
खला	-9784
्कन	-9785
▁आक	-9786
▁शृ	-9787
यामा	-9788
▁वेद	-9789
▁उचाई	-9790
▁खुले	-9791
▁पावल	-9792
▁बूढो	-9793
▁रोको	-9794
▁नौकरी	-9795
▁असक्षम	-9796
▁आमासँग	-9797
▁जवाफमा	-9798
▁जायेगा	-9799
▁डराएका	-9800
▁महत्वा	-9801
▁इन्डोने	-9802
▁ठाउँहरू	-9803
▁बाँच्नु	-9804
▁बिरुद्ध	-9805
▁विषयलाई	-9806
▁स्क्रीन	-9807
▁अध्ययनमा	-9808
▁कार्यकाल	-9809
▁देशहरूले	-9810
▁क्यारियरको	-9811
▁तपाईंहरूले	-9812
▁प्रतिष्ठित	-9813
▁प्रतियोगितामा	-9814
▁विद्यार्थीहरु	-9815
परम	-9816
लगा	-9817
ेलर	-9818
न्दै	-9819
हारा	-9820
ैंचा	-9821
▁घेर	-9822
पत्ता	-9823
▁नक्क	-9824
▁बेबी	-9825
▁हटाइ	-9826
▁हार्	-9827
त्यक्ष	-9828
रहेछन्	-9829
ेकेदार	-9830
▁घमण्ड	-9831
▁जन्मे	-9832
▁पतिको	-9833
▁बलात्	-9834
▁भेटेर	-9835
▁मनमनै	-9836
▁सामने	-9837
▁सुनेँ	-9838
▁आराधना	-9839
▁उठाउने	-9840
▁चीनलाई	-9841
▁ठाउँको	-9842
▁दिनुस्	-9843
▁निस्कि	-9844
▁पाएनन्	-9845
▁बताएकी	-9846
▁मौसमको	-9847
▁लम्बाई	-9848
▁संकटको	-9849
▁समयलाई	-9850
▁स्पेनी	-9851
▁दुवैजना	-9852
▁बाहिरका	-9853
▁यिनीहरु	-9854
▁सक्थ्यो	-9855
▁सदस्यले	-9856
▁इस्लामिक	-9857
▁देखिँदैन	-9858
▁लिनुपर्छ	-9859
▁हुनेवाला	-9860
▁व्यापारमा	-9861
▁हार्डवेयर	-9862
▁प्रयोगकर्तालाई	-9863
▁Am	-9864
▁गू	-9865
able	-9866
चिलो	-9867
टकीय	-9868
नुभू	-9869
बर्ट	-9870
▁टाढ	-9871
▁निभ	-9872
▁भरी	-9873
▁मेक	-9874
▁सुत	-9875
मिरेट	-9876
▁उतना	-9877
क्रामक	-9878
▁झण्डै	-9879
▁मस्को	-9880
रहन्छन्	-9881
▁अनौंठो	-9882
▁डराउँछ	-9883
▁देखायो	-9884
▁प्रीमि	-9885
▁बिषयमा	-9886
▁आँखाबाट	-9887
▁ऊर्जाको	-9888
▁गर्नबाट	-9889
▁मालिकको	-9890
▁पुलिसलाई	-9891
▁जान्दैनन्	-9892
▁नेटवर्कको	-9893
▁बाँचिरहेका	-9894
▁व्यवसायहरू	-9895
महा	-9896
सास	-9897
▁-'	-9898
▁99	-9899
ated	-9900
चिन्	-9901
ब्बर	-9902
रहित	-9903
स्दै	-9904
▁ऋतु	-9905
▁डेढ	-9906
▁तौल	-9907
▁सजग	-9908
शुद्ध	-9909
▁काला	-9910
▁शोषण	-9911
दास्पद	-9912
▁परिषद	-9913
्ग्रेजी	-9914
▁जस्तैः	-9915
▁जितेका	-9916
▁दिवसको	-9917
▁निक्कै	-9918
▁गर्नेछौ	-9919
▁डेलिभरी	-9920
▁येशूलाई	-9921
▁सिकाउने	-9922
oy	-9923
:13	-9924
="4	-9925
ian	-9926
देउ	-9927
▁al	-9928
▁झर	-9929
▁वच	-9930
bout	-9931
नुको	-9932
पट्ट	-9933
वद्ध	-9934
स्तर	-9935
▁नगद	-9936
ल्याक	-9937
▁हँसा	-9938
▁अच्छी	-9939
▁ग्रीक	-9940
▁थालेँ	-9941
▁शामिल	-9942
▁सार्न	-9943
▁सोचमा	-9944
▁हास्य	-9945
▁दिनलाई	-9946
▁हालतमा	-9947
▁उहाँहरू	-9948
▁तपाइँका	-9949
▁ब्यापार	-9950
▁राख्नको	-9951
▁आक्रमणको	-9952
▁संयन्त्र	-9953
▁हामीकहाँ	-9954
▁अक्टोबरमा	-9955
▁सामग्रीहरू	-9956
▁दुर्व्यवहार	-9957
▁प्रतिक्षामा	-9958
OS	-9959
ox	-9960
पुछ	-9961
फाई	-9962
शिप	-9963
▁गल	-9964
त्तै	-9965
ब्रू	-9966
▁पछु	-9967
नालाई	-9968
▁with	-9969
▁आइपु	-9970
▁छैनः	-9971
▁सिमा	-9972
▁होली	-9973
▁डेटिङ	-9974
▁त्यती	-9975
▁सूत्र	-9976
▁दाऊदको	-9977
▁पाइएको	-9978
▁फोटोमा	-9979
▁बाथरूम	-9980
▁लेख्छु	-9981
▁सराहना	-9982
▁शास्त्र	-9983
▁अविश्वास	-9984
▁प्रयासको	-9985
▁मार्केटि	-9986
▁समुद्रमा	-9987
▁लाइब्रेरी	-9988
▁विशेषज्ञता	-9989
12	-9990
:9	-9991
११	-9992
▁रक	-9993
न्धन	-9994
सनमा	-9995
▁अमर	-9996
▁दुध	-9997
▁रुख	-9998
▁वाइ	-9999
▁अरेब	-10000
▁अस्व	-10001
▁कसरि	-10002
▁दबाव	-10003
▁बहुत	-10004
▁बिति	-10005
▁म्यु	-10006
▁नियमन	-10007
▁पढाउन	-10008
▁फेर्न	-10009
▁खान्छु	-10010
▁डेटाको	-10011
▁तिम्ले	-10012
▁निस्कन	-10013
▁सम्झेर	-10014
▁आउनेछन्	-10015
▁उनीसँगै	-10016
▁जोडिएका	-10017
▁फाइलहरू	-10018
▁भ्रमणको	-10019
▁समावेशी	-10020
▁सिकाएको	-10021
▁सुधारको	-10022
▁राजमार्ग	-10023
▁आमाबाबुले	-10024
▁घटनाहरूको	-10025
▁शब्दहरुमा	-10026
▁स्वीकार्य	-10027
▁महिलाहरुले	-10028
▁प्लेटफर्मको	-10029
शक	-10030
सै	-10031
ईडी	-10032
खान	-10033
लीस	-10034
▁39	-10035
▁फी	-10036
बिना	-10037
सतमा	-10038
▁लगि	-10039
उनुस्	-10040
पेक्ष	-10041
रह्यो	-10042
▁टाइप	-10043
▁डेमो	-10044
▁राजी	-10045
राम्रो	-10046
▁उल्टो	-10047
▁चीनका	-10048
▁प्लान	-10049
्रेलियन	-10050
▁आफैँले	-10051
▁उपन्या	-10052
▁मतदाता	-10053
▁लाग्ला	-10054
▁समाजले	-10055
▁भरपर्दो	-10056
▁शक्तिमा	-10057
▁हिंसाको	-10058
▁निर्णयमा	-10059
▁मित्रहरु	-10060
▁यिनीहरूले	-10061
▁क्षेत्रलाई	-10062
▁लोकप्रियता	-10063
▁विवादास्पद	-10064
ER	-10065
मस	-10066
लॉ	-10067
ेस्	-10068
गरेट	-10069
रहेँ	-10070
सामा	-10071
▁में	-10072
▁हाथ	-10073
बीचमा	-10074
▁आउला	-10075
▁टिका	-10076
▁बसें	-10077
▁भावी	-10078
▁श्रा	-10079
दृष्टि	-10080
प्रदान	-10081
स्वर्ग	-10082
▁आसपास	-10083
▁उठाएर	-10084
▁उनीले	-10085
▁ग्रेड	-10086
▁आगलागी	-10087
▁क्लबले	-10088
▁बिलियन	-10089
▁महानगर	-10090
▁सबैसँग	-10091
▁सरोकार	-10092
▁एसियाली	-10093
▁प्रेमले	-10094
▁फिल्मले	-10095
▁स्क्रिन	-10096
▁देख्नुभयो	-10097
▁पाउनुहोस्	-10098
▁तिनीहरूमध्ये	-10099
▁प्रक्रियाहरू	-10100
AN	-10101
ED	-10102
II	-10103
LC	-10104
केर	-10105
लाल	-10106
लिङ	-10107
▁42	-10108
▁सघ	-10109
जहाँ	-10110
▁2006	-10111
▁छाडे	-10112
▁नाइट	-10113
▁बेच्	-10114
▁स्पा	-10115
▁दुखाइ	-10116
▁पछिको	-10117
▁मधुमे	-10118
▁सक्दो	-10119
स्मरणीय	-10120
▁उठाउनु	-10121
▁तरकारी	-10122
▁प्रभात	-10123
▁मिलेको	-10124
▁लेखहरू	-10125
▁अनियमित	-10126
▁चिन्छन्	-10127
▁जानिन्छ	-10128
▁डेस्कटप	-10129
▁वक्तव्य	-10130
▁भनिरहेको	-10131
▁विस्तारित	-10132
▁साथीहरुसँग	-10133
▁मान्छेहरुले	-10134
▁स्वास्थ्यका	-10135
आत	-10136
ंदा	-10137
ठीक	-10138
शमा	-10139
▁an	-10140
▁ex	-10141
▁छत	-10142
▁त्	-10143
▁म्	-10144
फिया	-10145
▁उठे	-10146
▁कथन	-10147
▁नछो	-10148
▁भनु	-10149
▁भिड	-10150
थोलिक	-10151
ब्दिक	-10152
▁पुगि	-10153
▁बस्थ	-10154
▁यूके	-10155
ल्लाहु	-10156
▁जागरू	-10157
▁जातीय	-10158
▁त्यहा	-10159
▁दिइने	-10160
▁पढ्छु	-10161
▁भावुक	-10162
▁अलविदा	-10163
▁मिश्रण	-10164
▁किताबको	-10165
▁क्लासिक	-10166
▁विभागले	-10167
▁खेलाडीको	-10168
▁लकडाउनको	-10169
▁त्रुटिहरू	-10170
▁नदिनुहोस्	-10171
▁पहिलेदेखि	-10172
▁संवैधानिक	-10173
▁अनुसन्धानले	-10174
▁खेलाडीहरूको	-10175
7)	-10176
तँ	-10177
ave	-10178
हाउ	-10179
पूर्	-10180
बक्स	-10181
▁194	-10182
▁अहि	-10183
▁नसु	-10184
▁बल्	-10185
▁मइँ	-10186
▁वास	-10187
▁ह्य	-10188
प्राय	-10189
▁अक्ष	-10190
▁एकले	-10191
▁र्या	-10192
▁हाले	-10193
▁होगा	-10194
▁अफगान	-10195
▁ट्याग	-10196
▁फरिसी	-10197
▁कठिनाई	-10198
▁कथाहरु	-10199
▁कलेजमा	-10200
▁क्लबका	-10201
▁जादूगर	-10202
▁निर्णा	-10203
▁नेताले	-10204
▁याताया	-10205
▁रिसर्च	-10206
▁समाहित	-10207
शास्त्री	-10208
▁यसभन्दा	-10209
▁सिंगापुर	-10210
▁सन्देशहरू	-10211
pl	-10212
िय	-10213
फिक	-10214
▁ch	-10215
▁रख	-10216
ङ्का	-10217
▁खुब	-10218
▁जिम	-10219
▁धार	-10220
▁यकी	-10221
▁हङक	-10222
स्पति	-10223
▁पठाए	-10224
▁मिसन	-10225
indows	-10226
▁ओलीले	-10227
▁कारको	-10228
▁थियोः	-10229
▁फोहोर	-10230
▁मतभेद	-10231
▁चीजहरु	-10232
▁जंगलमा	-10233
▁दोब्बर	-10234
▁नीतिको	-10235
▁सन्देह	-10236
▁हृदयको	-10237
▁किताबमा	-10238
▁गठबन्धन	-10239
▁ग्रीष्म	-10240
▁फोटोहरु	-10241
▁भ्याक्स	-10242
▁समितिको	-10243
▁सान्त्व	-10244
▁चलचित्रको	-10245
▁चुनौतीहरू	-10246
▁नेताहरुले	-10247
▁वर्षहरुमा	-10248
▁स्वामित्वमा	-10249
▁प्रक्रियालाई	-10250
▁प्रधानमन्त्रीले	-10251
]]	-10252
लम	-10253
:16	-10254
rom	-10255
ओहो	-10256
कति	-10257
तुर	-10258
▁2.	-10259
विका	-10260
सकेँ	-10261
▁दाउ	-10262
▁मिड	-10263
▁इसाई	-10264
▁एकको	-10265
▁लाइफ	-10266
वृद्धि	-10267
▁डिस्क	-10268
▁मनपरा	-10269
▁लचिलो	-10270
▁सुस्त	-10271
अमेरिकी	-10272
▁गीतहरू	-10273
▁पर्छन्	-10274
▁बोलेका	-10275
▁आफैँलाई	-10276
▁इजरायली	-10277
▁खान्छन्	-10278
▁ब्राजिल	-10279
▁महासागर	-10280
▁युवाहरु	-10281
▁योभन्दा	-10282
▁शाब्दिक	-10283
▁संगठनले	-10284
▁सोच्छन्	-10285
▁हामीबाट	-10286
▁अभियानको	-10287
▁इन्टरफेस	-10288
▁पढ्नुहोस	-10289
▁संख्याको	-10290
▁स्वभाविक	-10291
▁निशानीहरू	-10292
so	-10293
:20	-10294
ial	-10295
छैन	-10296
तीन	-10297
ितु	-10298
ौला	-10299
्ये	-10300
▁अठ	-10301
▁शत	-10302
घरमा	-10303
रामा	-10304
▁छुन	-10305
▁सान	-10306
ल्यौं	-10307
▁इनाम	-10308
▁दशैं	-10309
▁भलाई	-10310
▁मसित	-10311
▁महरा	-10312
▁बत्ती	-10313
▁रिलीज	-10314
कर्ताको	-10315
▁एलर्जी	-10316
▁तिर्नु	-10317
▁बाबुको	-10318
▁भएदेखि	-10319
▁स्कूटर	-10320
▁Android	-10321
▁उपकरणमा	-10322
▁पुगेपछि	-10323
▁हाँस्दै	-10324
▁उनिहरुले	-10325
▁गर्नेछौँ	-10326
▁अधिकांशले	-10327
▁अस्पतालको	-10328
▁मुद्दाहरू	-10329
▁रोमान्टिक	-10330
▁आत्मनिर्भर	-10331
आप	-10332
:26	-10333
उछु	-10334
न्ता	-10335
र्थक	-10336
▁आँट	-10337
▁पित	-10338
▁लिई	-10339
▁हड्	-10340
▁२०६	-10341
र्दिक	-10342
समयमा	-10343
▁2007	-10344
▁उसकी	-10345
▁जाऔं	-10346
▁लैजान	-10347
▁अनुपात	-10348
▁थिएनौं	-10349
▁स्वीका	-10350
परमप्रभु	-10351
▁खरीददार	-10352
▁जनाइएको	-10353
▁पर्वतमा	-10354
▁संस्कार	-10355
▁प्रतिवेद	-10356
▁प्रोफेसर	-10357
▁बिक्रीमा	-10358
▁अर्थपूर्ण	-10359
2)	-10360
ok	-10361
per	-10362
ंले	-10363
कुन	-10364
रहन	-10365
ेंट	-10366
्गा	-10367
▁at	-10368
▁de	-10369
डीपी	-10370
ारात	-10371
▁Com	-10372
▁तमा	-10373
▁तीस	-10374
▁नशा	-10375
▁रोल	-10376
स्कृत	-10377
▁उड्न	-10378
▁एकाइ	-10379
▁चुरो	-10380
▁यूएस	-10381
▁कृष्ण	-10382
▁गर्नू	-10383
▁छाड्न	-10384
▁पुगेँ	-10385
▁खोजेका	-10386
▁गराएको	-10387
▁पार्नु	-10388
▁विनियम	-10389
▁आत्माको	-10390
▁टेलिफोन	-10391
▁बिहीबार	-10392
▁विद्युत	-10393
▁उत्पादित	-10394
▁निद्रामा	-10395
▁बिक्रीको	-10396
▁भन्नुपर्छ	-10397
▁तपाईंहरुको	-10398
▁देख्नुभएको	-10399
▁शान्तिपूर्ण	-10400
ंै	-10401
▁j	-10402
▁>>	-10403
काले	-10404
तारी	-10405
न्टे	-10406
▁पसे	-10407
▁विघ	-10408
XNUMX	-10409
द्वार	-10410
र्थ्य	-10411
▁कहिँ	-10412
▁नामक	-10413
▁सुहा	-10414
▁इसहाक	-10415
▁संसद्	-10416
▁समयले	-10417
▁आउनुस्	-10418
▁इजिप्ट	-10419
▁बुझ्छु	-10420
▁भेटियो	-10421
▁किसिमका	-10422
▁जीवनबाट	-10423
▁त्यसैमा	-10424
▁मारिएका	-10425
▁नगर्नुस्	-10426
▁निर्णायक	-10427
▁प्राध्या	-10428
▁भूमिकामा	-10429
▁गरिसकेपछि	-10430
▁ब्रान्डको	-10431
▁विश्वासमा	-10432
▁दुर्घटनामा	-10433
▁प्रणालीहरू	-10434
▁अनुप्रयोगले	-10435
▁पुनर्स्थापना	-10436
17	-10437
ः३	-10438
शत	-10439
ech	-10440
ग्ध	-10441
चको	-10442
ेकि	-10443
▁ठो	-10444
कृया	-10445
क्को	-10446
डहरू	-10447
नियर	-10448
न्डै	-10449
म्मी	-10450
यकको	-10451
यसले	-10452
▁ऋणी	-10453
▁चढा	-10454
▁परो	-10455
दैनथे	-10456
सोसिए	-10457
▁उतार	-10458
▁खुल्	-10459
▁तपाँ	-10460
▁मसंग	-10461
▁लामा	-10462
▁शिवि	-10463
▁आरम्भ	-10464
▁कन्फि	-10465
▁केसमा	-10466
▁एसोसिए	-10467
▁संज्ञा	-10468
द्यार्थी	-10469
▁अपग्रेड	-10470
▁गर्दैनौ	-10471
▁नतिजाको	-10472
▁नम्बरमा	-10473
▁फैलिएको	-10474
▁लगानीको	-10475
ल्याण्डको	-10476
▁कन्ट्रोल	-10477
▁कोरियाले	-10478
▁भन्नेछन्	-10479
▁निष्क्रिय	-10480
▁सामान्यतः	-10481
▁अविस्मरणीय	-10482
</	-10483
अँ	-10484
राक	-10485
िलो	-10486
▁("	-10487
▁We	-10488
यन्स	-10489
रिंग	-10490
▁असं	-10491
▁त्व	-10492
ञ्चित	-10493
दैनौँ	-10494
प्रेम	-10495
▁केसी	-10496
▁नबुझ	-10497
▁नौलो	-10498
▁पढाई	-10499
▁आगोमा	-10500
▁खारेज	-10501
▁ग्रेट	-10502
▁जरुरत	-10503
▁श्रवण	-10504
▁सालको	-10505
▁बनायौं	-10506
▁कतिपयले	-10507
▁दिनेछौं	-10508
▁बनाईएको	-10509
▁यसैकारण	-10510
▁हार्दिक	-10511
▁तालिकामा	-10512
▁प्रतिकूल	-10513
▁बच्चाहरुलाई	-10514
uck	-10515
क्छ	-10516
ग्स	-10517
ण्य	-10518
परी	-10519
साम	-10520
▁७५	-10521
▁अब्	-10522
▁चिर	-10523
▁पूज	-10524
▁एनआर	-10525
▁पद्ध	-10526
▁बसमा	-10527
र्शनिक	-10528
▁जोर्ड	-10529
▁तत्का	-10530
▁निहित	-10531
▁संयोग	-10532
▁आयोगको	-10533
▁खुद्रा	-10534
▁बगैंचा	-10535
▁सक्नेछ	-10536
▁अधिनियम	-10537
▁अल्ट्रा	-10538
▁किनारमा	-10539
▁खाताहरू	-10540
▁भाइरसको	-10541
▁रोकिएको	-10542
▁सकिरहेको	-10543
▁सुन्नुभयो	-10544
▁एनालिटिक्स	-10545
▁निर्देशनहरू	-10546
60	-10547
az	-10548
उत्	-10549
▁ad	-10550
▁४८	-10551
र्टर	-10552
हरेक	-10553
▁ठूल	-10554
▁फौज	-10555
कारले	-10556
फिक्स	-10557
▁केबल	-10558
▁छिपा	-10559
▁डराए	-10560
▁पचास	-10561
चेस्टर	-10562
▁आफुले	-10563
▁विभेद	-10564
▁सदाको	-10565
▁सोचेर	-10566
▁सौर्य	-10567
▁आउटपुट	-10568
▁तपार्इ	-10569
▁दिनभरि	-10570
▁नवीनता	-10571
▁विचलित	-10572
▁विरासत	-10573
▁संसदीय	-10574
▁उच्चारण	-10575
▁मानिसमा	-10576
▁यूरोपीय	-10577
▁हटाइएको	-10578
▁अविवाहित	-10579
▁मनोरञ्जन	-10580
▁शिक्षकले	-10581
▁हप्तापछि	-10582
▁सान्त्वना	-10583
▁नियन्त्रित	-10584
80	-10585
खै	-10586
ink	-10587
▁गफ	-10588
च्ची	-10589
जाना	-10590
▁(1)	-10591
▁Aut	-10592
▁उहा	-10593
▁डुब	-10594
▁ना॰	-10595
▁मिल	-10596
▁सुस	-10597
किएको	-10598
्र्यो	-10599
▁क्रू	-10600
▁रूचि	-10601
▁रोके	-10602
▁सकूँ	-10603
▁सर्प	-10604
्याउने	-10605
▁गीतको	-10606
▁मुल्य	-10607
▁शिविर	-10608
▁हुनका	-10609
▁अधिकतर	-10610
▁उसैलाई	-10611
▁यहूदाका	-10612
▁हामीहरू	-10613
▁लिनुहुन्छ	-10614
▁शब्दहरूको	-10615
▁उत्प्रेरित	-10616
▁एयरपोर्टमा	-10617
▁अर्थशास्त्र	-10618
▁पृष्ठभूमिमा	-10619
▁वैज्ञानिकहरूले	-10620
काय	-10621
नौं	-10622
वले	-10623
▁,"	-10624
बाजी	-10625
मूसा	-10626
▁Mic	-10627
▁आभा	-10628
▁चित	-10629
वास्त	-10630
▁गइन्	-10631
▁ज्यू	-10632
▁झूटा	-10633
▁डालो	-10634
▁तिथि	-10635
▁मांस	-10636
▁सर्क	-10637
▁उपदेश	-10638
▁झन्डै	-10639
▁भनियो	-10640
▁मानौँ	-10641
▁असीमित	-10642
▁जहाजमा	-10643
▁जीवन्त	-10644
▁दुःखको	-10645
▁सङ्केत	-10646
▁सोधपुछ	-10647
▁कार्डको	-10648
▁गर्नाले	-10649
▁ठेकेदार	-10650
▁हामीमाथि	-10651
▁आमन्त्रित	-10652
▁कार्यक्षम	-10653
▁गर्नुहुने	-10654
▁प्रतिरक्षा	-10655
▁मृत्युदण्ड	-10656
▁महिलाहरुलाई	-10657
▁वास्तविकतामा	-10658
14	-10659
9)	-10660
:22	-10661
र्ब	-10662
ल्थ	-10663
हका	-10664
ह्न	-10665
गतान	-10666
दीमा	-10667
न्सन	-10668
▁उड्	-10669
क्कार	-10670
फोनको	-10671
भगवान	-10672
र्द्ध	-10673
▁आईटी	-10674
▁बढाउ	-10675
▁सिधै	-10676
स्ट्रो	-10677
▁इत्या	-10678
▁जिउने	-10679
▁बस्तु	-10680
▁भयभीत	-10681
▁सम्रा	-10682
▁घनिष्ठ	-10683
▁पारेका	-10684
▁पुकारा	-10685
▁बावजुद	-10686
▁सोध्छु	-10687
▁स्वरमा	-10688
▁आश्वस्त	-10689
▁पुग्छन्	-10690
▁बुबालाई	-10691
▁मुलुकका	-10692
▁समझदारी	-10693
▁स्कूलको	-10694
मन्त्रीको	-10695
▁वर्गीकृत	-10696
▁गुणस्तरीय	-10697
▁साथीहरूले	-10698
▁सदस्यहरूले	-10699
ie	-10700
ww	-10701
झो	-10702
bet	-10703
चकि	-10704
▁ढो	-10705
बादी	-10706
लिटी	-10707
ष्णु	-10708
▁ऐना	-10709
▁गयौ	-10710
▁जेट	-10711
▁इराक	-10712
▁फ्रा	-10713
▁भरमा	-10714
▁भुइँ	-10715
▁मिली	-10716
▁वर्ड	-10717
त्रीको	-10718
▁एलईडी	-10719
▁खुलेर	-10720
▁गरीबी	-10721
▁जितने	-10722
▁उठाएको	-10723
▁ज्वाला	-10724
▁डराएको	-10725
▁पुरातन	-10726
▁प्रदाय	-10727
▁फ्ल्या	-10728
▁यसैबीच	-10729
▁सबैतिर	-10730
▁सुत्ने	-10731
▁अरेबिया	-10732
▁तपाईहरू	-10733
▁ब्ल्याक	-10734
▁चाहन्थें	-10735
▁हुन्छिन्	-10736
▁एक्सप्रेस	-10737
▁कम्पनीसँग	-10738
▁निराशाजनक	-10739
▁रिपोर्टले	-10740
▁वातावरणको	-10741
▁विज्ञप्ति	-10742
▁सुरुवातमा	-10743
▁द्विपक्षीय	-10744
ES	-10745
ail	-10746
ons	-10747
▁टन	-10748
,...	-10749
जुरी	-10750
धन्य	-10751
बारी	-10752
▁are	-10753
▁खेर	-10754
▁पला	-10755
विशेष	-10756
▁आपसी	-10757
▁आयाम	-10758
▁चिने	-10759
▁फ्लू	-10760
▁बुला	-10761
▁लाइभ	-10762
▁साथि	-10763
▁सिजन	-10764
▁आत्ति	-10765
▁डराउँ	-10766
▁भवनमा	-10767
▁स्विस	-10768
▁इफेक्ट	-10769
▁उल्लङ्	-10770
▁गीतहरु	-10771
▁ल्याएर	-10772
▁शैलीमा	-10773
▁इन्टरने	-10774
▁तपाईंकै	-10775
▁निस्कने	-10776
▁मनाइन्छ	-10777
▁रुपैयाँ	-10778
▁लिनुभयो	-10779
▁वर्षीया	-10780
▁डिजाइनको	-10781
▁भगवान्को	-10782
▁सामर्थ्य	-10783
▁हेरविचार	-10784
▁कारणहरूको	-10785
▁साइटहरूको	-10786
▁प्रदर्शनको	-10787
िस	-10788
▁अक	-10789
प्ने	-10790
्वार	-10791
▁बृह	-10792
बहिनी	-10793
संसार	-10794
▁किरण	-10795
▁खाएँ	-10796
▁गोठा	-10797
▁चिनी	-10798
▁परिक	-10799
▁बेहो	-10800
र्सिटी	-10801
▁कहिलै	-10802
▁कोलम्	-10803
▁तत्पर	-10804
▁दुर्ग	-10805
▁मोडमा	-10806
▁सहरको	-10807
▁आत्मिक	-10808
▁इञ्जिन	-10809
▁कोशिका	-10810
▁चिन्नु	-10811
▁पर्खाल	-10812
▁पार्दै	-10813
▁बनाइयो	-10814
▁बिनाको	-10815
▁वर्गको	-10816
▁वाशिंग	-10817
▁कक्षाको	-10818
▁कम्तीमा	-10819
▁घरभित्र	-10820
▁राख्नेछ	-10821
▁रातारात	-10822
▁समाजवाद	-10823
▁सहानुभू	-10824
▁सेक्सको	-10825
▁जाँदैछन्	-10826
▁दार्शनिक	-10827
▁बित्तिकै	-10828
▁संस्थाले	-10829
▁तत्वदर्शी	-10830
▁रणनीतिहरू	-10831
▁अन्तर्वार्तामा	-10832
़ा	-10833
ash	-10834
▁75	-10835
▁मध	-10836
क्रि	-10837
▁रजि	-10838
▁सभी	-10839
कालिक	-10840
ताबाट	-10841
पहिलो	-10842
यित्व	-10843
वृत्त	-10844
ष्कृत	-10845
▁आशिष	-10846
▁इकाई	-10847
▁घेरा	-10848
▁छुटा	-10849
▁धोखा	-10850
▁भुल्	-10851
▁रुको	-10852
▁हाहा	-10853
सर्वदा	-10854
▁मकहाँ	-10855
▁मान्न	-10856
▁आखिरमा	-10857
▁गर्थें	-10858
▁टोलीले	-10859
▁ट्वीटर	-10860
▁निशानी	-10861
▁न्यानो	-10862
▁संसदमा	-10863
▁हिंड्न	-10864
▁Windows	-10865
▁नजिकबाट	-10866
▁पुनरुत्	-10867
▁फाईलहरू	-10868
▁ब्राण्ड	-10869
▁ब्रिटिस	-10870
▁भन्छन्ः	-10871
▁मार्चमा	-10872
▁नागरिकले	-10873
▁पदोन्नति	-10874
▁पुरुषलाई	-10875
▁भागहरूमा	-10876
▁विशेषगरी	-10877
▁क्याथोलिक	-10878
▁समस्याबाट	-10879
▁विश्वविद्यालयको	-10880
ुप	-10881
प्न	-10882
बाँ	-10883
हुन	-10884
ब्रि	-10885
▁एको	-10886
▁झुठ	-10887
▁भुल	-10888
▁विध	-10889
द्रिक	-10890
▁तुम्	-10891
▁नराख	-10892
▁ब्रे	-10893
▁थाँहा	-10894
▁ब्लगर	-10895
▁भन्या	-10896
▁साहसी	-10897
▁छात्रा	-10898
▁दिएनन्	-10899
▁देख्यौ	-10900
▁महासंघ	-10901
▁माथिका	-10902
▁सभापति	-10903
▁स्वरुप	-10904
▁तत्कालै	-10905
▁फर्काउन	-10906
▁बेपत्ता	-10907
▁मनपर्दछ	-10908
▁विचारको	-10909
▁नवीकरणीय	-10910
▁राज्यलाई	-10911
▁विकल्पको	-10912
▁विचारहरु	-10913
▁सरकारसँग	-10914
▁ह्यान्डल	-10915
▁पाउँदैनन्	-10916
▁पाउनुपर्छ	-10917
▁हेर्नुभयो	-10918
▁च्याम्पियन	-10919
▁निर्वाचनमा	-10920
▁बच्चाहरुको	-10921
AC	-10922
PR	-10923
TC	-10924
uk	-10925
3">	-10926
नान	-10927
यको	-10928
साँ	-10929
▁Sp	-10930
▁अघ	-10931
यिका	-10932
वन्ध	-10933
साको	-10934
ैंले	-10935
▁आर्	-10936
▁उपे	-10937
▁तला	-10938
▁फेल	-10939
▁भुट	-10940
▁रहो	-10941
▁सजी	-10942
निएको	-10943
▁नुहा	-10944
▁पाल्	-10945
▁पोशा	-10946
▁यकिन	-10947
▁सम्ब	-10948
▁अवकाश	-10949
▁आफैमा	-10950
▁कानमा	-10951
▁गरेमा	-10952
▁तारिख	-10953
▁बताएँ	-10954
▁लेखेर	-10955
▁औषधिको	-10956
▁गराउँछ	-10957
▁पानीले	-10958
▁पार्टन	-10959
▁रात्रि	-10960
▁उपचारका	-10961
▁गर्थिन्	-10962
▁त्यसैको	-10963
▁पछाडिको	-10964
▁बनाउनेछ	-10965
▁बिताउने	-10966
▁सरकारमा	-10967
ल्यान्डको	-10968
▁ईमानवाला	-10969
▁सिरियाली	-10970
▁चाहान्छौं	-10971
▁तिमीहरुको	-10972
▁अधिकारीहरू	-10973
▁पत्रकारिता	-10974
▁सुन्नुहुन्छ	-10975
▁अष्ट्रेलियाको	-10976
25	-10977
io	-10978
ue	-10979
ठू	-10980
वक	-10981
२२	-10982
ach	-10983
मोन	-10984
▁ar	-10985
ical	-10986
राले	-10987
▁कंग	-10988
▁पतन	-10989
▁अनमो	-10990
▁चकले	-10991
▁जिवन	-10992
▁टैटू	-10993
▁सल्ल	-10994
▁सुल्	-10995
▁years	-10996
▁मज्जा	-10997
▁नसकेको	-10998
▁निकाले	-10999
▁पाउनेछ	-11000
▁हालैका	-11001
▁बुझ्नको	-11002
▁भन्दैमा	-11003
▁मांसपेश	-11004
▁सहयोगमा	-11005
▁पराउँछन्	-11006
▁प्रदेशमा	-11007
▁निर्णयहरू	-11008
▁खोज्नुहोस्	-11009
▁प्रशिक्षित	-11010
19	-11011
▁ष	-11012
फान	-11013
२००	-11014
▁,'	-11015
▁गे	-11016
▁रम	-11017
▁सप	-11018
आईएस	-11019
कसले	-11020
ग्लै	-11021
▁व्र	-11022
वर्ती	-11023
ेसनको	-11024
्नुस्	-11025
▁आँशु	-11026
▁पोकर	-11027
▁बिगत	-11028
▁युएस	-11029
▁लोगो	-11030
▁होना	-11031
▁कुरान	-11032
▁क्लास	-11033
▁गरोस्	-11034
▁चल्यो	-11035
▁दिदैन	-11036
▁धर्मी	-11037
▁रंगीन	-11038
▁हिँड्	-11039
▁खेलौना	-11040
▁निन्दा	-11041
▁लाग्दो	-11042
▁वितरित	-11043
▁हुन्छः	-11044
▁खोलिएको	-11045
▁तत्वहरू	-11046
▁संसारले	-11047
▁पश्चाताप	-11048
▁समुद्रको	-11049
▁संक्रमणको	-11050
▁बच्चाहरुले	-11051
▁व्यवस्थाको	-11052
▁अनुसन्धानमा	-11053
▁कम्प्युटरको	-11054
▁चिन्नुहुन्छ	-11055
▁प्रभावकारिता	-11056
गट	-11057
कोड	-11058
पेट	-11059
▁Bl	-11060
▁छर	-11061
▁तृ	-11062
▁मः	-11063
▁लक	-11064
क्की	-11065
ङ्गी	-11066
जहाज	-11067
पत्य	-11068
ेटिभ	-11069
▁pro	-11070
▁अभी	-11071
▁चमक	-11072
▁जुट	-11073
▁पुछ	-11074
▁रिच	-11075
▁होइ	-11076
▁उसँग	-11077
▁गराए	-11078
▁झुका	-11079
▁पाएन	-11080
▁यकीन	-11081
▁लेजर	-11082
▁हकमा	-11083
▁अपितु	-11084
▁इस्ला	-11085
▁अभिन्न	-11086
▁कामबाट	-11087
▁चर्चमा	-11088
▁डुङ्गा	-11089
▁ढुवानी	-11090
▁नेताको	-11091
▁सूचीको	-11092
▁जान्दछौ	-11093
▁राख्दैन	-11094
▁उपलब्धता	-11095
▁मूल्यहरू	-11096
▁सामुन्ने	-11097
▁अन्धकारमा	-11098
▁मृत्युबाट	-11099
▁रिपोर्टमा	-11100
▁व्यवहारमा	-11101
▁लगाउनुहोस्	-11102
▁लोकतन्त्रको	-11103
AT	-11104
अरु	-11105
टिङ	-11106
rypt	-11107
जीवी	-11108
रियल	-11109
लूका	-11110
▁आदम	-11111
▁औषध	-11112
▁लोभ	-11113
▁२०४	-11114
फोर्ड	-11115
▁Tags	-11116
▁असहज	-11117
▁उत्र	-11118
▁पढेँ	-11119
▁बुझा	-11120
▁रोमी	-11121
▁सीबी	-11122
▁अफ्री	-11123
▁जोड्न	-11124
▁दर्जा	-11125
▁नडराऊ	-11126
▁बस्दा	-11127
▁लिस्ट	-11128
▁सिकेँ	-11129
▁किशोरी	-11130
▁गरिदिए	-11131
▁घटनाले	-11132
▁पिताले	-11133
▁भुगतान	-11134
▁मुम्बई	-11135
▁सङ्कलन	-11136
▁सहकारी	-11137
▁अस्पष्ट	-11138
▁गर्नसक्	-11139
▁बनाउनका	-11140
▁बुद्धिम	-11141
▁यतिबेला	-11142
▁सकिन्छः	-11143
▁अन्यजाति	-11144
▁इमान्दार	-11145
▁तत्कालीन	-11146
▁फाइदाजनक	-11147
▁रेडियोमा	-11148
▁सुसज्जित	-11149
▁स्रोतबाट	-11150
▁हुनुहुने	-11151
▁उहाँहरूले	-11152
▁प्रणालीले	-11153
▁महिलाहरूले	-11154
▁ग्राहकहरूले	-11155
▁बुझ्नुहुन्छ	-11156
▁मानिसहरूसँग	-11157
▁अर्थतन्त्रको	-11158
▁आवश्यकताहरूको	-11159
24	-11160
ld	-11161
ite	-11162
पत्	-11163
भाल	-11164
▁[.	-11165
▁pl	-11166
ट्ठी	-11167
ियों	-11168
▁कुछ	-11169
▁थाई	-11170
▁बेह	-11171
▁भंग	-11172
पृष्ठ	-11173
सोर्ट	-11174
▁झोला	-11175
▁पितृ	-11176
▁बैठो	-11177
▁लिया	-11178
▁२००५	-11179
उहाँले	-11180
▁अवतरण	-11181
▁खिच्न	-11182
▁तरवार	-11183
▁तिहार	-11184
▁धक्का	-11185
▁बुझेर	-11186
▁सिस्ट	-11187
▁हेलिक	-11188
मार्केट	-11189
▁अय्यूब	-11190
▁आउनेछु	-11191
▁जोगाउन	-11192
▁लिनक्स	-11193
▁सङ्गीत	-11194
▁स्पर्श	-11195
स्यास्पद	-11196
▁ढाँचामा	-11197
▁दिमागको	-11198
▁धेरैपटक	-11199
▁क्लिनिकल	-11200
▁ट्रेडिंग	-11201
▁सम्झनामा	-11202
▁संस्थाहरू	-11203
▁जोखिमपूर्ण	-11204
▁पारदर्शिता	-11205
२०१	-11206
▁be	-11207
▁उत	-11208
डरको	-11209
न्धि	-11210
▁अले	-11211
जीवित	-11212
निक्स	-11213
्छिन्	-11214
▁अँगा	-11215
▁एड्स	-11216
▁कुन्	-11217
▁क्यू	-11218
▁जियो	-11219
▁थिएः	-11220
▁भोली	-11221
▁मिलन	-11222
▁२००१	-11223
▁उम्मी	-11224
▁एलिया	-11225
▁खोलेर	-11226
▁जिसको	-11227
▁भेटें	-11228
▁मुर्ख	-11229
▁निवेदन	-11230
▁बुधबार	-11231
▁भेटेका	-11232
▁मोदीले	-11233
▁आम्दानी	-11234
▁कारागार	-11235
▁धिक्कार	-11236
▁म्यानमा	-11237
▁उल्लेखित	-11238
▁देखाउँदै	-11239
▁न्यायालय	-11240
▁पोर्चुगल	-11241
▁एकअर्काको	-11242
▁गर्नैपर्छ	-11243
▁नेतृत्वको	-11244
▁भनिदिनुस्	-11245
▁वर्षभित्र	-11246
▁व्यक्तिका	-11247
▁स्थायित्व	-11248
▁अप्रत्यक्ष	-11249
▁ईन्जिनियरि	-11250
▁मूल्याङ्कन	-11251
▁प्रतिभाशाली	-11252
ts	-11253
गेट	-11254
टाम	-11255
दाइ	-11256
िनी	-11257
ound	-11258
जीले	-11259
ण्डी	-11260
भाषा	-11261
र्चा	-11262
सनले	-11263
▁मिथ	-11264
▁राई	-11265
थ्यौँ	-11266
▁जाती	-11267
▁भोकै	-11268
▁मागे	-11269
▁सवार	-11270
▁साउथ	-11271
उँछिन्	-11272
ल्पनिक	-11273
▁जिसने	-11274
▁मुद्र	-11275
▁श्रोत	-11276
▁अयोग्य	-11277
▁घटाउने	-11278
▁जित्यो	-11279
▁नामहरू	-11280
▁बताउने	-11281
▁बुवाले	-11282
▁भाइलाई	-11283
अन्तर्गत	-11284
▁दाजुभाइ	-11285
▁दूतावास	-11286
▁परिक्षा	-11287
▁प्रियजन	-11288
▁अर्कोलाई	-11289
▁तिमीमाथि	-11290
▁पुस्तकले	-11291
▁प्रकाशको	-11292
▁सामानहरू	-11293
▁प्रस्तुति	-11294
-3	-11295
yl	-11296
▁·	-11297
="5	-11298
app	-11299
ass	-11300
oun	-11301
टका	-11302
हिम	-11303
क्वा	-11304
टीमा	-11305
पीएस	-11306
मुनि	-11307
▁रैछ	-11308
▁३ः१	-11309
अर्को	-11310
डेनले	-11311
▁पोलि	-11312
▁भलाइ	-11313
▁मिठो	-11314
▁वाला	-11315
▁समझा	-11316
▁१९८०	-11317
क्ताको	-11318
▁बोलाए	-11319
▁महाधि	-11320
प्रतिशत	-11321
▁प्रस्ट	-11322
▁सुनियो	-11323
▁आइसकेको	-11324
▁इमानदार	-11325
▁दर्जनौं	-11326
▁प्रोसेस	-11327
▁निकाल्ने	-11328
▁प्रयोगका	-11329
▁मार्केटर	-11330
▁विद्रोही	-11331
▁संरक्षित	-11332
▁स्थितिको	-11333
▁अनौपचारिक	-11334
▁सक्नुहुने	-11335
▁सेकेन्डमा	-11336
▁हप्तासम्म	-11337
▁मस्तिष्कमा	-11338
▁महिलाहरूको	-11339
▁मार्गनिर्देश	-11340
▁अस्ट्रेलियामा	-11341
▁प्रयोगकर्ताहरु	-11342
जय	-11343
नू	-11344
ram	-11345
डका	-11346
ड़ो	-11347
लीय	-11348
ेले	-11349
▁अध	-11350
▁मल	-11351
▁९५	-11352
▁WIC	-11353
▁कलम	-11354
▁काय	-11355
ड़िया	-11356
▁डेटि	-11357
▁पदमा	-11358
▁फिचर	-11359
▁बालब	-11360
▁मांग	-11361
▁यसोः	-11362
▁होशि	-11363
स्तरीय	-11364
▁अन्धो	-11365
▁गरिनँ	-11366
▁चेहरा	-11367
▁तिहाइ	-11368
▁फलफूल	-11369
ग्राफिक	-11370
▁उम्मीद	-11371
▁चर्चको	-11372
▁दयावान	-11373
▁धर्ममा	-11374
▁पाउन्ड	-11375
▁पुग्दा	-11376
▁संकटमा	-11377
▁सोधेका	-11378
▁कन्फिगर	-11379
▁किसिमले	-11380
▁दिनुहोस	-11381
▁वास्तुक	-11382
▁वैदेशिक	-11383
▁घरपरिवार	-11384
▁चाहिँदैन	-11385
▁मद्दतगार	-11386
▁मिडियाले	-11387
▁घण्टासम्म	-11388
▁नियमहरूको	-11389
▁परीक्षामा	-11390
▁बाल्यकालमा	-11391
▁महिलाहरुको	-11392
▁हास्यास्पद	-11393
▁अवस्थाहरूमा	-11394
SE	-11395
ign	-11396
ङले	-11397
नरी	-11398
कुलै	-11399
दैनन	-11400
ेलको	-11401
▁अवश	-11402
▁असु	-11403
▁आगम	-11404
▁काठ	-11405
▁थाम	-11406
पुरमा	-11407
िक्री	-11408
▁अकाउ	-11409
▁ऊसँग	-11410
▁गुफा	-11411
▁झूठो	-11412
▁ड्रप	-11413
▁मजबु	-11414
▁महाद	-11415
▁शहरी	-11416
▁स्तु	-11417
▁स्पो	-11418
▁हिन्	-11419
▁अण्डा	-11420
▁इनपुट	-11421
▁उजागर	-11422
▁कथाको	-11423
▁महीना	-11424
▁सिकाइ	-11425
▁लाभहरू	-11426
▁हिँड्न	-11427
▁अन्यत्र	-11428
▁पक्षबाट	-11429
▁पाइँदैन	-11430
▁भर्खरको	-11431
▁भारतलाई	-11432
▁भैरहेको	-11433
▁एकान्तमा	-11434
▁जीवनकालमा	-11435
▁पुर्याएको	-11436
▁वेबसाइटले	-11437
▁हुनसक्छन्	-11438
▁अधिकारीहरु	-11439
")	-11440
बस	-11441
हक	-11442
किम	-11443
खोज	-11444
गाह	-11445
▁झै	-11446
▁डग	-11447
▁मम	-11448
ज्जत	-11449
्युट	-11450
▁छुँ	-11451
▁फुल	-11452
ताहरु	-11453
बायाँ	-11454
हाल्छ	-11455
▁कमाइ	-11456
▁काका	-11457
▁तुला	-11458
▁लगाई	-11459
▁अलावा	-11460
▁गुमाए	-11461
▁चर्को	-11462
▁दिनमै	-11463
▁संघले	-11464
▁स्टाइ	-11465
▁होइनौ	-11466
▁उहाँमा	-11467
▁गुणहरू	-11468
▁जातिको	-11469
▁टाइम्स	-11470
▁ध्वस्त	-11471
▁भाग्ने	-11472
▁मस्जिद	-11473
▁माउन्ट	-11474
▁योद्धा	-11475
▁राखियो	-11476
▁डब्ल्यू	-11477
▁सपनाहरू	-11478
▁अनुभवबाट	-11479
▁काल्पनिक	-11480
▁जाँदैछौं	-11481
▁फाइदाहरू	-11482
▁सृष्टिको	-11483
▁कोलम्बिया	-11484
▁देखिरहेको	-11485
▁संसारभरका	-11486
▁पठाउनुहोस्	-11487
▁पालनकर्ताको	-11488
▁बालबालिकालाई	-11489
▁सर्वशक्तिमान	-11490
ंछ	-11491
जू	-11492
ics	-11493
man	-11494
use	-11495
णाम	-11496
पाद	-11497
पीए	-11498
▁,,	-11499
▁46	-11500
▁५२	-11501
xbet	-11502
काउन	-11503
जहरू	-11504
मानव	-11505
▁खोल	-11506
▁जिब	-11507
▁जेठ	-11508
▁मनै	-11509
▁हुई	-11510
स्मिक	-11511
▁2005	-11512
▁आँधी	-11513
▁खाजा	-11514
▁बाइब	-11515
▁विषा	-11516
▁२००२	-11517
▁पूज्य	-11518
▁म्याच	-11519
▁राखौं	-11520
▁सकोस्	-11521
▁क्याले	-11522
▁चीनसँग	-11523
▁ट्याब्	-11524
▁पैसाले	-11525
▁बिरालो	-11526
▁मान्छु	-11527
▁लिइन्छ	-11528
▁वफादार	-11529
▁बनाउँछु	-11530
▁बिश्वास	-11531
▁मार्टिन	-11532
▁रोक्नको	-11533
▁वैधानिक	-11534
▁शक्तिले	-11535
▁शुरुआती	-11536
▁शैतानले	-11537
▁हामीसंग	-11538
▁अस्वीकृत	-11539
▁आकांक्षा	-11540
▁जनावरहरू	-11541
▁दिल्लीमा	-11542
▁विश्लेषक	-11543
▁दिनुहुनेछ	-11544
▁पृथ्वीलाई	-11545
▁तिमीहरूमध्ये	-11546
▁मार्केटिंगको	-11547
▁सक्नुहुन्थ्यो	-11548
3)	-11549
="0	-11550
led	-11551
पिट	-11552
फरक	-11553
वती	-11554
हीम	-11555
▁LG	-11556
▁ag	-11557
▁लख	-11558
▁शं	-11559
▁४२	-11560
इनन्	-11561
टर्स	-11562
न्दु	-11563
ामुख	-11564
▁per	-11565
▁उडा	-11566
▁एप्	-11567
▁फला	-11568
▁बिन	-11569
▁भलो	-11570
▁भोर	-11571
लिन्छ	-11572
वाहिक	-11573
▁ट्यू	-11574
▁थोडा	-11575
▁नगरे	-11576
▁हेरी	-11577
न्टाइन	-11578
▁प्रोड	-11579
▁बेलाय	-11580
▁रिमोट	-11581
▁सम्झा	-11582
मध्येका	-11583
▁अनलाईन	-11584
▁आरक्षण	-11585
▁केहीले	-11586
▁गरौँला	-11587
▁नाउँमा	-11588
▁भविश्य	-11589
▁हर्षित	-11590
▁एप्पलले	-11591
▁क्षतिको	-11592
▁गर्दछौँ	-11593
▁थाल्छन्	-11594
▁मोशालाई	-11595
▁उत्तरदाय	-11596
▁भित्रबाट	-11597
▁आउनुहुन्छ	-11598
▁डाक्टरसँग	-11599
▁विस्थापित	-11600
▁सक्नुपर्छ	-11601
▁अमेरिकाबाट	-11602
▁वर्षौंदेखि	-11603
लौ	-11604
डले	-11605
ताल	-11606
्वल	-11607
▁en	-11608
▁नत	-11609
▁षड	-11610
बुबा	-11611
रलाई	-11612
र्धन	-11613
स्की	-11614
स्यो	-11615
▁कसो	-11616
▁ताल	-11617
▁नजी	-11618
▁वकि	-11619
ईश्वर	-11620
▁उज्ज	-11621
▁एन्ज	-11622
▁घुमि	-11623
▁ठूलै	-11624
▁राखी	-11625
नेस्को	-11626
▁गिलास	-11627
▁चाँहि	-11628
▁प्राइ	-11629
▁भन्नै	-11630
▁म्यान	-11631
▁यशैया	-11632
त्यसैले	-11633
हरुमाथि	-11634
▁ग्रन्थ	-11635
▁ग्रस्त	-11636
▁नामबाट	-11637
तपाईंलाई	-11638
▁अहिलेका	-11639
▁त्यसदिन	-11640
▁भन्नेछु	-11641
▁विषयहरू	-11642
▁सेकेण्ड	-11643
▁पुनरुत्थान	-11644
▁विज्ञापनहरू	-11645
▁परिणामस्वरूप	-11646
35	-11647
ax	-11648
ओं	-11649
:15	-11650
:28	-11651
माइ	-11652
▁गौ	-11653
▁सग	-11654
हेर्	-11655
▁ओसा	-11656
▁कही	-11657
▁गुड	-11658
▁जुआ	-11659
▁डेल	-11660
▁नबो	-11661
▁पिर	-11662
उँछौं	-11663
चार्ज	-11664
शीलता	-11665
स्लाई	-11666
▁बूढा	-11667
▁वेला	-11668
▁शल्य	-11669
▁साँस	-11670
▁सारे	-11671
▁२००४	-11672
▁कामले	-11673
कांक्षी	-11674
▁अपरेटर	-11675
▁अमूल्य	-11676
▁मुस्का	-11677
▁सिक्का	-11678
▁हुनुहु	-11679
▁पश्चिमा	-11680
▁मान्छन्	-11681
▁अल्लाहका	-11682
▁मानवजाति	-11683
▁रहनुपर्छ	-11684
▁चलचित्रहरू	-11685
▁क्षतिग्रस्त	-11686
▁परिस्थितिहरूमा	-11687
18	-11688
67	-11689
ph	-11690
तब	-11691
नौ	-11692
ike	-11693
lin	-11694
ont	-11695
जेन	-11696
टाई	-11697
▁Ar	-11698
▁पप	-11699
▁४९	-11700
दीको	-11701
सियत	-11702
▁घाँ	-11703
▁मुक	-11704
▁होई	-11705
कसैले	-11706
बन्दी	-11707
▁2009	-11708
▁आचरण	-11709
▁उनमा	-11710
▁चिता	-11711
▁तिनि	-11712
▁निभा	-11713
▁पन्छ	-11714
लमानको	-11715
▁अग्लो	-11716
▁चालीस	-11717
▁बुझें	-11718
▁शहरका	-11719
▁सक्यो	-11720
▁उहाँकै	-11721
▁एकान्त	-11722
▁गरेनौं	-11723
▁गाउँले	-11724
▁चेल्सी	-11725
▁दिनअघि	-11726
▁नबिर्स	-11727
▁लुकेको	-11728
▁सिक्दछ	-11729
▁हेरेका	-11730
▁हैसियत	-11731
▁भन्दछन्	-11732
▁सुन्दरी	-11733
विरुद्धको	-11734
▁आतंकवादी	-11735
▁ईन्टरनेट	-11736
▁मुद्दाको	-11737
▁शोधकर्ता	-11738
▁विशेषताहरू	-11739
▁गरिरहनुभएको	-11740
▁छात्रवृत्ति	-11741
▁विमानस्थलमा	-11742
▁गतिविधिहरूको	-11743
▁प्रजातान्त्रिक	-11744
ug	-11745
ork	-11746
ंजी	-11747
▁उम	-11748
▁एट	-11749
▁गड	-11750
▁शर	-11751
जिकल	-11752
जिया	-11753
▁आखा	-11754
▁गजल	-11755
▁घाउ	-11756
▁नर्	-11757
▁पठन	-11758
▁पदक	-11759
▁मसी	-11760
▁पाएर	-11761
▁बड़ा	-11762
▁मर्छ	-11763
▁१९६०	-11764
▁अन्धा	-11765
▁उठेको	-11766
▁गएपछि	-11767
▁डेमोक	-11768
▁ढिलाइ	-11769
▁तल्लो	-11770
▁बिचमा	-11771
▁भत्ता	-11772
▁रोकिए	-11773
▁सर्कि	-11774
▁हेरेँ	-11775
▁भन्योः	-11776
▁मायालु	-11777
▁शरीरले	-11778
▁सिक्दै	-11779
▁हुनबाट	-11780
▁हुनेछः	-11781
▁अचम्ममा	-11782
▁टर्मिनल	-11783
▁निलम्बन	-11784
▁जानुभएको	-11785
▁राज्यहरू	-11786
▁खेलिरहेको	-11787
▁पार्टीलाई	-11788
▁युट्युबमा	-11789
▁अनुपस्थिति	-11790
▁प्रविधिहरू	-11791
▁बुझ्नुपर्छ	-11792
▁आवश्यकतालाई	-11793
▁व्यक्तिहरूसँग	-11794
39	-11795
oh	-11796
ँन	-11797
हल	-11798
oll	-11799
▁49	-11800
▁bl	-11801
उन्ड	-11802
जानी	-11803
नुअल	-11804
हजुर	-11805
▁अका	-11806
▁आलु	-11807
▁उति	-11808
▁नहर	-11809
▁उठाए	-11810
▁खायो	-11811
▁गर्ल	-11812
▁गूगल	-11813
▁बेशक	-11814
▁लेवी	-11815
▁स्ने	-11816
▁क्रिस	-11817
▁चौथाई	-11818
▁पत्थर	-11819
▁बाँचि	-11820
▁भेटेँ	-11821
▁रुसले	-11822
मध्येको	-11823
▁अंग्रे	-11824
▁टोलीको	-11825
▁नाटकीय	-11826
▁बुझ्दै	-11827
▁एजेन्डा	-11828
▁चाहन्छन	-11829
▁जुनसुकै	-11830
▁क्रिप्टो	-11831
▁त्यसबारे	-11832
▁दिइरहेका	-11833
▁बालबच्चा	-11834
▁भइहाल्यो	-11835
▁भेट्टाउन	-11836
▁मन्दिरको	-11837
▁ल्याइएको	-11838
▁उदाहरणहरू	-11839
▁उनीहरूमध्ये	-11840
▁उत्तरदायित्व	-11841
▁गम्भीरतापूर्वक	-11842
▁स्वास्थ्यकर्मी	-11843
//	-11844
ews	-11845
iqu	-11846
कों	-11847
ेबल	-11848
renc	-11849
▁अफर	-11850
▁आनु	-11851
▁नसक	-11852
▁मुस	-11853
▁मैन	-11854
▁लीग	-11855
▁वडा	-11856
▁सचि	-11857
पुरुष	-11858
फोनमा	-11859
रहेकै	-11860
▁2021	-11861
▁औंला	-11862
▁खाएर	-11863
▁जानै	-11864
▁पेपर	-11865
▁पोर्	-11866
▁बसेँ	-11867
▁भोले	-11868
▁रिया	-11869
▁सानी	-11870
▁अनमोल	-11871
▁कदापि	-11872
▁खजाना	-11873
▁गरेनि	-11874
▁दिव्य	-11875
▁प्रबं	-11876
▁लाखौँ	-11877
▁हेल्थ	-11878
▁चारवटा	-11879
▁मधुमेह	-11880
▁हिब्रू	-11881
▁अवरुद्ध	-11882
▁ईश्वरका	-11883
▁छोराहरु	-11884
▁तिब्बती	-11885
▁देवताको	-11886
▁विभागको	-11887
▁वैवाहिक	-11888
▁समकालीन	-11889
▁सूचनाको	-11890
▁हामीबीच	-11891
▁अध्ययनका	-11892
▁उल्लिखित	-11893
▁गरिदिन्छ	-11894
▁युक्रेनी	-11895
▁शिक्षकको	-11896
▁संसारबाट	-11897
▁समर्थनको	-11898
▁कम्पनीबाट	-11899
▁ग्राफिक्स	-11900
▁देखिरहेका	-11901
▁बनाउनुभयो	-11902
▁साइटहरूमा	-11903
▁सुपरस्टार	-11904
▁टिप्पणीहरू	-11905
▁पहुँचयोग्य	-11906
▁मेक्सिकोमा	-11907
)?	-11908
15	-11909
पट	-11910
ure	-11911
सेन	-11912
ेशा	-11913
▁3.	-11914
▁झन	-11915
नुभए	-11916
बायो	-11917
▁sub	-11918
▁उहि	-11919
▁एनि	-11920
▁मंच	-11921
▁रुम	-11922
▁ससु	-11923
▁सौर	-11924
▁हस्	-11925
▁चाचा	-11926
▁प्वा	-11927
▁रोमन	-11928
िन्दगी	-11929
▁आईओएस	-11930
▁खराबी	-11931
▁नदिने	-11932
▁रहँदा	-11933
▁रुसको	-11934
▁लड्दै	-11935
क्षेपमा	-11936
ोस्टेरो	-11937
▁निस्के	-11938
▁मरेपछि	-11939
▁म्याने	-11940
▁लागतको	-11941
▁स्वदेश	-11942
▁अर्कोमा	-11943
▁पत्नीको	-11944
▁पार्नेछ	-11945
▁मुख्यतः	-11946
▁जागरूकता	-11947
▁प्याकेजि	-11948
▁मानिससँग	-11949
▁लिइरहेका	-11950
▁बस्नुपर्छ	-11951
▁यातायातको	-11952
▁सहानुभूति	-11953
▁कार्यहरूको	-11954
▁देवताहरूको	-11955
▁परियोजनाहरु	-11956
▁विश्वसनीयता	-11957
▁अनुसन्धानकर्ता	-11958
,5	-11959
22	-11960
ON	-11961
rat	-11962
हाय	-11963
ेतन	-11964
▁De	-11965
▁ओर	-11966
▁हू	-11967
ocur	-11968
टेक्	-11969
▁छाउ	-11970
▁जिउ	-11971
▁नाइ	-11972
▁माघ	-11973
▁सज्	-11974
किनकि	-11975
ञ्जेल	-11976
दिनन्	-11977
संदेह	-11978
स्टेट	-11979
▁जोड्	-11980
▁ठुला	-11981
▁तलको	-11982
▁भयौँ	-11983
▁भाँच	-11984
▁मरेर	-11985
▁सच्च	-11986
▁कितने	-11987
▁परवाह	-11988
▁पारेर	-11989
▁भन्दछ	-11990
▁भुटान	-11991
▁विघटन	-11992
डब्ल्यू	-11993
▁छाड्ने	-11994
▁जुत्ता	-11995
▁जेलबाट	-11996
▁देखिएन	-11997
▁देखिनँ	-11998
▁बर्लिन	-11999
ryptocur	-12000
▁निशुल्क	-12001
▁पाएकोमा	-12002
▁पोस्टमा	-12003
▁भैसकेको	-12004
▁वर्षाको	-12005
▁विचित्र	-12006
▁विवादमा	-12007
▁सकेकोमा	-12008
▁समूहहरू	-12009
▁अपरेटिंग	-12010
▁तपाईंबाट	-12011
▁भनेजस्तै	-12012
▁व्हाट्सए	-12013
▁शंकास्पद	-12014
▁देखाउँछन्	-12015
▁समस्यालाई	-12016
▁क्यानाडामा	-12017
▁अपार्टमेन्ट	-12018
▁प्रतिवेदनमा	-12019
▁प्रार्थनाको	-12020
थन	-12021
ime	-12022
पाठ	-12023
वाट	-12024
ोने	-12025
ँदैछ	-12026
र्तन	-12027
र्था	-12028
शनमा	-12029
▁नज़	-12030
▁सका	-12031
▁खनिज	-12032
▁जिन्	-12033
▁नलाग	-12034
▁मीठो	-12035
सम्ममा	-12036
▁कलाको	-12037
▁बजेको	-12038
▁बहाना	-12039
▁लिनेछ	-12040
▁सावित	-12041
▁सिकाउ	-12042
▁हितको	-12043
▁अस्त्र	-12044
▁किनमेल	-12045
▁जटिलता	-12046
▁बेग्लै	-12047
▁मुख्या	-12048
▁विरामी	-12049
▁सार्थक	-12050
▁अस्वस्थ	-12051
▁आकस्मिक	-12052
▁चुनावको	-12053
▁महासचिव	-12054
▁समूहलाई	-12055
▁हजुरआमा	-12056
▁हार्मोन	-12057
▁हुन्छौँ	-12058
▁मूल्यहरु	-12059
▁यथार्थमा	-12060
▁विदेशबाट	-12061
▁शिक्षामा	-12062
▁सकिरहेका	-12063
▁खेलिरहेका	-12064
▁सम्मेलनको	-12065
▁मस्तिष्कको	-12066
▁उपभोक्ताहरू	-12067
-"	-12068
अफ	-12069
डल	-12070
▁😉	-12071
:19	-12072
:25	-12073
ame	-12074
ree	-12075
वाय	-12076
सहि	-12077
▁अट	-12078
▁उड़	-12079
▁खेत	-12080
▁जात	-12081
▁भाँ	-12082
▁शेष	-12083
▁साग	-12084
पर्या	-12085
रहोस्	-12086
▁कट्ट	-12087
▁गन्ध	-12088
▁डिफे	-12089
▁लिभर	-12090
▁संयो	-12091
क्षकको	-12092
प्रत्य	-12093
सिस्को	-12094
▁उजुरी	-12095
▁करुणा	-12096
▁त्रास	-12097
▁निदान	-12098
▁नेत्र	-12099
▁फ्रेश	-12100
▁रहेछौ	-12101
ication	-12102
▁कारहरू	-12103
▁क्षणको	-12104
▁खाद्या	-12105
▁जोड्ने	-12106
▁तिमीमा	-12107
▁दुबैले	-12108
▁फ्लोरि	-12109
▁यतिखेर	-12110
▁लम्बाइ	-12111
▁लैजाने	-12112
▁सेनामा	-12113
▁इन्डिया	-12114
▁जान्नको	-12115
▁तालिबान	-12116
▁पछ्याउन	-12117
▁भेटिन्छ	-12118
▁महोत्सव	-12119
▁आशिर्वाद	-12120
▁इमानदारी	-12121
▁किताबहरु	-12122
▁प्रतिद्व	-12123
▁मार्गहरू	-12124
▁अफ्रिकाको	-12125
▁सकिन्थ्यो	-12126
▁स्टार्टअप	-12127
▁अस्पतालबाट	-12128
▁नेदरल्यान्ड	-12129
▁फेब्रुअरीमा	-12130
-4	-12131
16	-12132
AS	-12133
ace	-12134
अलग	-12135
किए	-12136
तिन	-12137
र्ई	-12138
विड	-12139
▁एथ	-12140
नेपा	-12141
स्ने	-12142
ोजिम	-12143
▁केक	-12144
▁रवि	-12145
▁वंश	-12146
▁वका	-12147
▁शाऊ	-12148
▁सुग	-12149
रूपले	-12150
स्करण	-12151
▁छिरे	-12152
▁जङ्ग	-12153
▁ड्रग	-12154
▁ढिला	-12155
▁त्यै	-12156
▁पाइप	-12157
▁पापा	-12158
▁लेना	-12159
▁वर्क	-12160
▁सबका	-12161
स्वरुप	-12162
▁Micro	-12163
▁आक्रो	-12164
▁आलोचक	-12165
▁खुराक	-12166
▁चाहती	-12167
▁मैंले	-12168
▁रंगको	-12169
▁इरानको	-12170
▁उनीबाट	-12171
▁नसक्नु	-12172
▁बाहिरै	-12173
▁मारिया	-12174
▁लेखनमा	-12175
▁स्विट्	-12176
▁हृदयले	-12177
▁इत्यादि	-12178
▁मिश्रित	-12179
▁म्यासेज	-12180
▁लण्डनमा	-12181
▁उपयोगिता	-12182
▁काठमाडौँ	-12183
▁निन्द्रा	-12184
▁मानवताको	-12185
▁खेलाडीहरु	-12186
▁नागरिकहरू	-12187
▁प्रयासहरू	-12188
▁उपकरणहरूमा	-12189
▁परमेश्वरसित	-12190
▁सदस्यहरूलाई	-12191
▁प्रतिशतभन्दा	-12192
▁प्रयोगशालामा	-12193
88	-12194
शय	-12195
सह	-12196
:21	-12197
ond	-12198
टिस	-12199
थिए	-12200
धीन	-12201
सुन	-12202
▁तव	-12203
▁४३	-12204
▁४७	-12205
ंगिक	-12206
चकिच	-12207
डाको	-12208
सकें	-12209
सामु	-12210
▁एली	-12211
▁जाल	-12212
▁जुध	-12213
▁बेक	-12214
▁यतै	-12215
▁सिर	-12216
▁हमा	-12217
भिज्ञ	-12218
भेन्ट	-12219
▁गयौं	-12220
▁जर्न	-12221
▁ठाने	-12222
▁नपर्	-12223
▁नेभि	-12224
▁नोकर	-12225
▁प्रौ	-12226
▁बनका	-12227
▁बौरि	-12228
▁मारा	-12229
▁सूचक	-12230
▁गतिको	-12231
▁थालें	-12232
▁फिल्ड	-12233
▁सिटमा	-12234
▁सुन्छ	-12235
▁आइतवार	-12236
▁आइपुग्	-12237
▁कमाण्ड	-12238
▁गराउनु	-12239
▁जन्मिए	-12240
▁तबसम्म	-12241
▁देखेकी	-12242
▁नसकिने	-12243
▁बचाउँछ	-12244
▁बस्छौं	-12245
▁भ्रमित	-12246
▁अनुपालन	-12247
▁इच्छाको	-12248
▁कारकहरू	-12249
▁जानेछन्	-12250
▁बाँचेको	-12251
▁बेलायती	-12252
▁मुलुकले	-12253
▁रूपरेखा	-12254
▁सम्झिएँ	-12255
▁स्पेनको	-12256
▁पत्नीलाई	-12257
▁फिलिपिन्	-12258
▁यूरोपीयन	-12259
▁छोराछोरीलाई	-12260
PS	-12261
है	-12262
ase	-12263
ज़ा	-12264
▁as	-12265
▁कू	-12266
▁४६	-12267
▁५५	-12268
ence	-12269
ट्टे	-12270
प्शन	-12271
भारत	-12272
▁अँध	-12273
▁आजी	-12274
▁चुक	-12275
▁बाब	-12276
▁रुन	-12277
▁शरि	-12278
▁संक	-12279
लिस्ट	-12280
लूतका	-12281
▁Read	-12282
▁एवम्	-12283
▁गरेः	-12284
▁दसैं	-12285
प्रकार	-12286
▁आश्रय	-12287
▁एफडीए	-12288
▁फाइबर	-12289
▁बर्षे	-12290
▁मुहार	-12291
▁लज्जा	-12292
▁वक्ता	-12293
▁हरायो	-12294
▁अन्तरा	-12295
▁चिन्तन	-12296
▁तपाईकै	-12297
▁पुकारे	-12298
▁रातलाई	-12299
▁सकिनन्	-12300
▁स्क्रै	-12301
▁हुनुमा	-12302
▁अपराधको	-12303
▁ग्राफिक	-12304
▁ज्ञानमा	-12305
▁यूरोपमा	-12306
▁राखिन्छ	-12307
राष्ट्रीय	-12308
▁दिनभित्र	-12309
▁निर्णयले	-12310
▁बलात्कृत	-12311
▁बस्नेछन्	-12312
▁समायोजित	-12313
▁स्टेडियम	-12314
▁गरिन्थ्यो	-12315
▁जानुपर्ने	-12316
▁विरुद्धको	-12317
▁सुरक्षामा	-12318
▁छोड्नुहोस्	-12319
ryptocurrenc	-12320
▁मुद्दाहरूको	-12321
▁♪	-12322
eah	-12323
org	-12324
कम्	-12325
ब्ध	-12326
ंगको	-12327
एमएस	-12328
खुरा	-12329
▁150	-12330
▁OEM	-12331
▁आयौ	-12332
▁उदय	-12333
▁गाँ	-12334
▁थाइ	-12335
▁बोध	-12336
▁लौट	-12337
▁सरी	-12338
क्सान	-12339
न्सिल	-12340
▁अभूत	-12341
▁आईएस	-12342
▁एफसी	-12343
▁केको	-12344
▁जेने	-12345
▁टावर	-12346
▁नपुग	-12347
▁नौसे	-12348
▁मोटो	-12349
▁हमने	-12350
न्थिन्	-12351
र्मिया	-12352
▁अघिको	-12353
▁अर्पण	-12354
▁देखेन	-12355
▁निवेश	-12356
▁प्रसं	-12357
▁मानेर	-12358
▁रक्षक	-12359
▁वेस्ट	-12360
▁समात्	-12361
▁एकपल्ट	-12362
▁क्षिति	-12363
▁गर्वको	-12364
▁गान्धी	-12365
▁चुनावी	-12366
▁छुट्या	-12367
▁जाँदैन	-12368
▁विलियम	-12369
▁हिन्दी	-12370
▁जनयुद्ध	-12371
▁द्वितीय	-12372
▁नराम्रा	-12373
▁पाँचवटा	-12374
▁प्रभुले	-12375
▁भन्नुको	-12376
▁सत्कर्म	-12377
▁गर्नेछैन	-12378
▁पृथ्वीका	-12379
▁भावनाहरू	-12380
▁मुख्यालय	-12381
▁शत्रुहरू	-12382
▁हुँदैछन्	-12383
▁कहिलेसम्म	-12384
▁मृत्युपछि	-12385
▁म्याड्रिड	-12386
▁शब्दहरूमा	-12387
▁एकअर्कासँग	-12388
▁छोराछोरीको	-12389
▁प्रणालीलाई	-12390
▁पाकिस्तानले	-12391
▁राष्ट्रपतिलाई	-12392
cc	-12393
्द	-12394
ark	-12395
ier	-12396
ततै	-12397
विन	-12398
ेमा	-12399
ेसु	-12400
▁""	-12401
भोलि	-12402
यद्य	-12403
हरुः	-12404
हेको	-12405
्सको	-12406
▁किस	-12407
▁गित	-12408
▁तुर	-12409
▁बगि	-12410
▁यती	-12411
▁रहा	-12412
▁वाच	-12413
म्यान	-12414
▁आईसी	-12415
▁आवरण	-12416
▁तटमा	-12417
▁रुवा	-12418
▁लगेर	-12419
▁सदुप	-12420
शान्ति	-12421
▁उभिएर	-12422
▁चुरोट	-12423
▁बस्यो	-12424
▁वकालत	-12425
▁स्पिन	-12426
▁आश्रित	-12427
▁कुनामा	-12428
▁केन्या	-12429
▁क्वारे	-12430
▁खाताको	-12431
▁ढुङ्गा	-12432
▁थिइनन्	-12433
▁दाज्यू	-12434
▁दोहोरो	-12435
▁लुकाउन	-12436
▁शरीरका	-12437
पर्याप्त	-12438
▁चित्रमा	-12439
▁दशकदेखि	-12440
▁निस्किए	-12441
▁फर्किएर	-12442
▁बनाइन्छ	-12443
▁रिसोर्ट	-12444
▁हामीसित	-12445
सक्नुभएको	-12446
▁आउँदैछन्	-12447
▁सुरुवाती	-12448
▁अभूतपूर्व	-12449
▁संक्षेपमा	-12450
▁अर्थतन्त्रमा	-12451
▁टेस्टोस्टेरो	-12452
▁प्रतिक्रियाको	-12453
फन	-12454
शुभ	-12455
साब	-12456
्नै	-12457
▁47	-12458
▁tr	-12459
olog	-12460
सत्य	-12461
ुट्ट	-12462
▁गम्	-12463
▁हँु	-12464
▁किने	-12465
▁बदले	-12466
▁१९७०	-12467
पार्टी	-12468
रात्मक	-12469
हरुसंग	-12470
▁आर्मी	-12471
▁ईच्छा	-12472
▁खोजेर	-12473
▁चाहता	-12474
▁डिप्र	-12475
▁नरकमा	-12476
▁बन्छु	-12477
▁मजबुत	-12478
▁रुममा	-12479
▁वसन्त	-12480
▁विकार	-12481
▁अवतरित	-12482
▁दण्डित	-12483
▁नीतिमा	-12484
▁बन्दुक	-12485
▁विश्वक	-12486
▁हातहरू	-12487
▁हारेका	-12488
▁अनभिज्ञ	-12489
▁चारैतिर	-12490
▁चित्रित	-12491
▁डराउँछु	-12492
▁देखिदैन	-12493
▁रक्तचाप	-12494
▁संरक्षक	-12495
▁कूटनीतिक	-12496
▁गल्तीहरू	-12497
▁त्यसैगरी	-12498
▁असन्तुष्ट	-12499
▁एयरलाइन्स	-12500
▁गतिविधिमा	-12501
▁भ्याक्सिन	-12502
▁महिनाहरूमा	-12503
▁सार्वभौमिक	-12504
▁भन्नुहुन्थ्यो	-12505
.)	-12506
CO	-12507
DM	-12508
जै	-12509
खिक	-12510
लील	-12511
सरी	-12512
▁4.	-12513
▁बृ	-12514
क्लो	-12515
पर्क	-12516
यसको	-12517
वालय	-12518
सिना	-12519
▁गधा	-12520
▁घुम	-12521
▁नरम	-12522
र्किक	-12523
▁उसमा	-12524
▁चिठी	-12525
▁पाटो	-12526
▁मुना	-12527
▁मेका	-12528
▁मेस्	-12529
▁समया	-12530
पश्चात	-12531
्रान्त	-12532
▁अनुपम	-12533
▁किसने	-12534
▁खुल्छ	-12535
▁जससँग	-12536
▁तेलको	-12537
▁पुटिन	-12538
▁पुर्न	-12539
▁रोक्छ	-12540
▁निकालि	-12541
▁फैलाउन	-12542
▁सेवानि	-12543
▁आरक्षित	-12544
▁जतिबेला	-12545
▁जापानले	-12546
▁तोकिएको	-12547
▁नोक्सान	-12548
▁भ्रमणमा	-12549
▁वेबसाईट	-12550
▁शिविरमा	-12551
▁सपनाहरु	-12552
▁खेलहरूको	-12553
▁पश्चात्ता	-12554
▁परियोजनामा	-12555
▁महत्वपुर्ण	-12556
▁संस्कृतिमा	-12557
▁सिक्नुहोस्	-12558
▁नियन्त्रणको	-12559
RL	-12560
ॉन	-12561
हिन	-12562
▁लभ	-12563
...'	-12564
णीमा	-12565
न्हा	-12566
मीले	-12567
विना	-12568
▁बेव	-12569
▁मोह	-12570
▁रेफ	-12571
र्डले	-12572
▁2004	-12573
▁अपमा	-12574
▁एचआई	-12575
▁पिडा	-12576
▁बिगा	-12577
▁भनौँ	-12578
▁भर्न	-12579
▁होनी	-12580
र्ष्या	-12581
▁दिन्न	-12582
▁नजिकि	-12583
▁प्रजन	-12584
▁बचाउँ	-12585
▁भुलेर	-12586
▁मम्मी	-12587
▁रगतको	-12588
▁रहेनछ	-12589
▁लण्डन	-12590
▁सैतान	-12591
▁अनुचित	-12592
▁उद्धृत	-12593
▁कमेन्ट	-12594
▁चाहाना	-12595
▁जताततै	-12596
▁जिउँदै	-12597
▁टोलीमा	-12598
▁धर्मका	-12599
▁नपाएको	-12600
▁प्रिमि	-12601
▁रहँदैन	-12602
▁सभ्यता	-12603
▁गर्दैछौ	-12604
▁परिप्रे	-12605
▁भित्रमा	-12606
▁युद्धका	-12607
▁वनस्पति	-12608
▁समाप्ति	-12609
▁अनुसारको	-12610
▁उत्तेजित	-12611
▁संगठनहरू	-12612
▁सहायताको	-12613
▁स्टेशनमा	-12614
▁स्वयंलाई	-12615
▁इस्राएलमा	-12616
▁पत्रिकामा	-12617
▁प्रकृतिमा	-12618
▁प्रतिवद्ध	-12619
▁प्रस्तुती	-12620
▁बोल्दैनन्	-12621
▁साधारणतया	-12622
▁परिवर्तनले	-12623
▁संस्करणहरू	-12624
▁सुपरमार्केट	-12625
te	-12626
दौ	-12627
ere	-12628
ire	-12629
ठाक	-12630
पाइ	-12631
ोमा	-12632
▁FS	-12633
▁he	-12634
▁दम	-12635
▁धम	-12636
▁रच	-12637
केले	-12638
जन्य	-12639
टनको	-12640
पिटल	-12641
पिता	-12642
र्ति	-12643
लुवा	-12644
▁अहं	-12645
▁ओगट	-12646
▁पिउ	-12647
▁होऊ	-12648
दिग्ध	-12649
▁उपरो	-12650
▁ग्रि	-12651
▁जादै	-12652
▁बदल्	-12653
▁बोक्	-12654
▁हाल्	-12655
पूर्वी	-12656
यद्यपि	-12657
संस्था	-12658
स्परिक	-12659
▁अकल्प	-12660
▁अपरेट	-12661
▁अलैहि	-12662
▁उनैले	-12663
▁खालका	-12664
▁पतिले	-12665
▁बुढेस	-12666
▁सदाका	-12667
▁सुदूर	-12668
▁ईतिहास	-12669
▁उठाएका	-12670
▁किन्नु	-12671
▁ठाँउमा	-12672
▁धेरैका	-12673
▁नजिकका	-12674
▁बिजनेस	-12675
▁महाराज	-12676
▁मान्दै	-12677
▁रसूलको	-12678
▁रोगबाट	-12679
▁चेलाहरू	-12680
▁जिम्मेद	-12681
▁बाबुआमा	-12682
▁अनलाइनमा	-12683
▁उल्लङ्घन	-12684
▁छुट्टीको	-12685
▁बताउँछौं	-12686
▁विपक्षमा	-12687
▁सदस्यलाई	-12688
▁समुन्द्र	-12689
▁सम्बन्धि	-12690
▁आदानप्रदान	-12691
▁कर्मचारीको	-12692
▁सफ्टवेयरले	-12693
▁कार्यक्षमता	-12694
▁परमेश्वरबाट	-12695
▁परिस्थितिको	-12696
▁बुद्धिमत्ता	-12697
▁वेबसाइटहरूमा	-12698
tr	-12699
200	-12700
row	-12701
आफू	-12702
गर्	-12703
श्न	-12704
▁Pl	-12705
नडरा	-12706
पोषण	-12707
ल्सन	-12708
सनको	-12709
▁(2)	-12710
▁बनी	-12711
त्वको	-12712
वर्तन	-12713
▁2000	-12714
▁अपिल	-12715
▁गाँउ	-12716
▁ड्रो	-12717
क्रममा	-12718
स्थलको	-12719
▁उपत्य	-12720
▁खेलने	-12721
▁चश्मा	-12722
▁चिहान	-12723
▁जंगली	-12724
▁डेबिट	-12725
▁बाँचे	-12726
पथ्र्यो	-12727
▁इच्छित	-12728
▁कमाउने	-12729
▁काट्ने	-12730
▁गोठालो	-12731
▁नपाउने	-12732
▁वृद्धा	-12733
▁शब्दले	-12734
▁England	-12735
▁ज्योतिष	-12736
▁पुलिसको	-12737
▁प्रबंधन	-12738
▁भाग्यमा	-12739
▁फिल्महरू	-12740
▁वार्षिको	-12741
▁संस्थागत	-12742
▁हतियारको	-12743
▁प्रचण्डले	-12744
▁विषयहरूमा	-12745
▁स्वादिष्ट	-12746
▁उहाँहरूलाई	-12747
▁हेर्नुपर्छ	-12748
▁चुनौतीहरूको	-12749
▁परिवर्तनहरूको	-12750
5%	-12751
IT	-12752
for	-12753
inn	-12754
बान	-12755
्रल	-12756
▁र्	-12757
▁४४	-12758
ions	-12759
बाबा	-12760
र्पण	-12761
सीका	-12762
▁---	-12763
▁निम	-12764
▁किरा	-12765
▁बारी	-12766
▁ब्लू	-12767
▁मतदा	-12768
▁मल्ट	-12769
▁महाम	-12770
▁म्यू	-12771
▁रहित	-12772
भाइहरू	-12773
सरकारी	-12774
ेजस्तो	-12775
▁किनार	-12776
▁कोइला	-12777
▁खाएका	-12778
▁बर्खा	-12779
▁भवनको	-12780
▁भुल्न	-12781
▁संकाय	-12782
▁अल्जाइ	-12783
▁उठ्नेछ	-12784
▁एकैछिन	-12785
▁कान्छो	-12786
▁खरीदको	-12787
▁गेमिंग	-12788
▁छोड्दै	-12789
▁पुस्ति	-12790
▁बताइदि	-12791
▁बितेको	-12792
▁भ्रममा	-12793
▁मानवको	-12794
▁मिलाउन	-12795
▁मोड्यु	-12796
▁लेखनको	-12797
▁सम्पति	-12798
▁सेवाका	-12799
▁उर्जाको	-12800
▁तपाईसंग	-12801
▁प्रत्या	-12802
▁बिताएका	-12803
▁लाइनहरू	-12804
▁स्पोर्ट	-12805
▁अत्याचार	-12806
▁कृतज्ञता	-12807
▁देवताहरू	-12808
▁वस्तुहरु	-12809
▁समाधानका	-12810
▁त्यसैकारण	-12811
▁कांग्रेसले	-12812
▁प्रत्येकको	-12813
▁महिलाहरूलाई	-12814
शे	-12815
und	-12816
ँमा	-12817
ंटी	-12818
▁sh	-12819
वाली	-12820
▁अभा	-12821
▁आँग	-12822
▁फिन	-12823
पछिको	-12824
ेश्रो	-12825
▁आठौं	-12826
▁उजाड	-12827
▁जनरल	-12828
▁टीका	-12829
▁थापा	-12830
▁हेतु	-12831
▁आशंका	-12832
▁जस्ले	-12833
▁पुर्व	-12834
▁पूंजी	-12835
▁बुँदा	-12836
▁बुझिन	-12837
▁मेक्स	-12838
▁शासित	-12839
▁संघका	-12840
▁अभिमान	-12841
▁आकारमा	-12842
▁इरानले	-12843
▁ट्रयाक	-12844
▁तपाइको	-12845
▁तिम्री	-12846
▁प्रकरण	-12847
▁भोग्नु	-12848
▁मोशाको	-12849
▁अकाउन्ट	-12850
▁कानूनले	-12851
▁नजिकैको	-12852
▁यस्तोमा	-12853
▁सम्झाउन	-12854
▁अधिकारका	-12855
▁पत्रकारि	-12856
▁प्रबन्धन	-12857
▁बर्षसम्म	-12858
▁रणनीतिको	-12859
▁तिनीहरूमा	-12860
▁परराष्ट्र	-12861
▁व्यवसायका	-12862
▁बनाउनुभएको	-12863
▁सम्भावनाको	-12864
▁परमेश्वरसँग	-12865
▁पूजाहारीहरू	-12866
mm	-12867
दैं	-12868
भेट	-12869
लोन	-12870
सनल	-12871
▁Up	-12872
▁[[	-12873
▁उल	-12874
▁तप	-12875
त्वा	-12876
▁अडि	-12877
▁आंक	-12878
▁आधु	-12879
▁चेन	-12880
▁बहन	-12881
▁लक्	-12882
▁वीर	-12883
न्मुख	-12884
▁1995	-12885
▁आतुर	-12886
▁छोडी	-12887
▁जबरज	-12888
▁डिभि	-12889
▁थकान	-12890
मान्छे	-12891
▁आकृति	-12892
▁पर्दै	-12893
▁सिकार	-12894
नानुसार	-12895
▁गुगलमा	-12896
▁मिश्री	-12897
▁रातभरि	-12898
▁रोक्नु	-12899
▁स्विका	-12900
▁अधिपत्य	-12901
▁गरेकोमा	-12902
▁गुमाउनु	-12903
▁तार्किक	-12904
▁नीतिहरू	-12905
▁भाग्यको	-12906
▁मिल्नेछ	-12907
▁सदुपयोग	-12908
▁हेर्नको	-12909
▁अप्रिलमा	-12910
▁इतिहासले	-12911
▁इलेक्ट्र	-12912
▁चरणहरूमा	-12913
▁पहिचानको	-12914
▁विद्युत्	-12915
▁आश्चर्यको	-12916
▁कुराहरूको	-12917
▁गरिरहेछन्	-12918
▁प्रकृतिले	-12919
▁प्रशासनको	-12920
▁सन्तानलाई	-12921
▁प्रत्येकले	-12922
▁बच्चाहरूले	-12923
▁बिद्यार्थी	-12924
▁मनोविज्ञान	-12925
▁शल्यक्रिया	-12926
▁हुनुहुन्छः	-12927
▁पुस्तकालयमा	-12928
▁राख्नुपर्दछ	-12929
▁विकल्पहरूको	-12930
▁उत्पादनहरूमा	-12931
▁प्रधानमन्त्रीको	-12932
6)	-12933
ood	-12934
फेर	-12935
वेल	-12936
साव	-12937
उँछौ	-12938
गुणव	-12939
न्नत	-12940
▁800	-12941
▁आँफ	-12942
▁उतै	-12943
▁टेल	-12944
▁डोज	-12945
▁पेर	-12946
▁हरे	-12947
▁अडान	-12948
▁अबेर	-12949
▁आफनो	-12950
▁चाहो	-12951
▁नछोड	-12952
▁नाका	-12953
▁लगती	-12954
▁सकेँ	-12955
▁सेल्	-12956
▁हरित	-12957
▁पुँजी	-12958
▁बनायौ	-12959
▁भन्छः	-12960
▁भाइको	-12961
▁कनेक्ट	-12962
▁जानुस्	-12963
▁लेखकले	-12964
▁होटलको	-12965
▁क्लबलाई	-12966
▁नम्बरको	-12967
▁पारिएको	-12968
▁बैंकहरू	-12969
▁ब्यान्ड	-12970
▁भन्दैछु	-12971
▁मंगलवार	-12972
▁स्वयंले	-12973
▁पुरुषसँग	-12974
▁शक्तिलाई	-12975
▁संलग्नता	-12976
▁उहाँहरूको	-12977
▁क्षमतालाई	-12978
▁विज्ञानले	-12979
▁कर्मचारीले	-12980
▁क्यान्सरको	-12981
▁प्रस्तावको	-12982
▁प्राध्यापक	-12983
▁मन्त्रालयको	-12984
▁प्राथमिकतामा	-12985
▁कार्यान्वयनमा	-12986
ईं	-12987
व्	-12988
▁†	-12989
TML	-12990
एला	-12991
बरा	-12992
▁७६	-12993
छोरा	-12994
टामा	-12995
स्टन	-12996
▁LLC	-12997
▁चाम	-12998
▁चिप	-12999
▁धान	-13000
▁यिन	-13001
▁साध	-13002
▁हंग	-13003
रहँदा	-13004
▁Auto	-13005
▁Hong	-13006
▁असोज	-13007
▁गहना	-13008
▁भियत	-13009
▁मस्त	-13010
▁संचा	-13011
▁सकौं	-13012
▁२००३	-13013
इस्राए	-13014
यात्री	-13015
रहन्छु	-13016
ल्युमि	-13017
▁कसैका	-13018
▁कैयौं	-13019
▁गर्छा	-13020
▁गाड़ी	-13021
▁चकलेट	-13022
▁तैंले	-13023
▁मर्या	-13024
▁रगतमा	-13025
प्राप्त	-13026
▁अर्जुन	-13027
▁एकाग्र	-13028
▁औंल्या	-13029
▁खोज्दा	-13030
▁चल्दैन	-13031
▁तपाइले	-13032
▁पुनर्ज	-13033
▁पूर्ति	-13034
▁बताउनु	-13035
▁बोल्यो	-13036
▁भन्दैन	-13037
▁विलम्ब	-13038
▁सोचेकी	-13039
▁स्वास्	-13040
▁उपरोक्त	-13041
▁गुमाएका	-13042
▁प्रवासी	-13043
▁मानिएको	-13044
▁मोडेलको	-13045
▁युवतीले	-13046
▁सतर्कता	-13047
▁सिकाउनु	-13048
▁आरामदायक	-13049
▁योजनाहरु	-13050
▁संस्थामा	-13051
▁दिनुपर्ने	-13052
▁बस्नुहोस्	-13053
▁रिपोर्टका	-13054
▁लाभान्वित	-13055
▁शिक्षकहरू	-13056
▁सोचिरहेका	-13057
▁दुर्घटनाको	-13058
▁रोक्नुहोस्	-13059
▁उनीहरुमध्ये	-13060
▁कर्मचारीलाई	-13061
▁निम्नानुसार	-13062
▁बार्सिलोनामा	-13063
1,	-13064
37	-13065
::	-13066
we	-13067
orn	-13068
उँन	-13069
टेक	-13070
मिक	-13071
ुले	-13072
▁3:	-13073
▁41	-13074
▁77	-13075
▁गी	-13076
कियो	-13077
द्दी	-13078
परको	-13079
पुरा	-13080
▁195	-13081
▁जरि	-13082
▁बदन	-13083
▁बरू	-13084
▁रैं	-13085
कर्षण	-13086
च्छिक	-13087
न्समा	-13088
लेन्स	-13089
हप्ता	-13090
▁इष्ट	-13091
▁दादा	-13092
▁परमा	-13093
▁यूनि	-13094
▁समुह	-13095
▁सर्च	-13096
▁साउन	-13097
▁सार्	-13098
कहरूले	-13099
लाग्दा	-13100
स्टर्ड	-13101
▁झण्डा	-13102
▁ट्विट	-13103
▁नदीमा	-13104
▁पायौं	-13105
▁लग्यो	-13106
▁शङ्का	-13107
▁सिकें	-13108
▁हरिया	-13109
नुपर्ला	-13110
हामीसँग	-13111
▁जाँदैछ	-13112
▁जिउँदो	-13113
▁ड्रग्स	-13114
▁तेश्रो	-13115
▁बढ्नेछ	-13116
▁मिस्टर	-13117
▁सभामुख	-13118
▁स्ट्रा	-13119
▁हेर्यो	-13120
सम्पत्ति	-13121
▁आदेशहरू	-13122
▁आधुनिकी	-13123
▁क्लिनिक	-13124
▁देखेपछि	-13125
▁पर्थ्यो	-13126
▁प्लान्ट	-13127
▁भारतबाट	-13128
▁मालिकले	-13129
▁युरोपका	-13130
▁लिन्छौं	-13131
▁सुनेपछि	-13132
▁स्वयंसे	-13133
▁हाइलाइट	-13134
▁होशियार	-13135
▁प्रोटोकल	-13136
▁उम्मीदवार	-13137
▁पारस्परिक	-13138
▁प्रकारहरू	-13139
▁संसाधनहरू	-13140
▁उम्मेद्वार	-13141
▁प्रोजेक्टको	-13142
▁युनिभर्सिटी	-13143
▁कम्पनीहरूलाई	-13144
▁गर्भावस्थाको	-13145
▁त्यसबेलादेखि	-13146
-8	-13147
2,	-13148
औष	-13149
DPR	-13150
आईए	-13151
गृह	-13152
भिर	-13153
ामि	-13154
▁कफ	-13155
▁खी	-13156
▁घन	-13157
▁टू	-13158
▁पॉ	-13159
कसरी	-13160
केका	-13161
जलाई	-13162
ठ्ठी	-13163
धारी	-13164
न्जन	-13165
न्डि	-13166
विगत	-13167
▁छैट	-13168
▁पिट	-13169
▁लगी	-13170
▁वान	-13171
▁हूं	-13172
▁५००	-13173
न्ध्र	-13174
पुस्त	-13175
▁उड्ड	-13176
▁दरमा	-13177
▁पारी	-13178
▁बढेर	-13179
▁बाइड	-13180
▁बाचा	-13181
▁बोतल	-13182
▁मीटर	-13183
▁रेजि	-13184
किनभने	-13185
च्चिकै	-13186
▁असहमत	-13187
▁चाहन्	-13188
▁जीवनी	-13189
▁बेकार	-13190
▁भएकोछ	-13191
▁यसैको	-13192
▁सुर्य	-13193
ख्तियार	-13194
पश्चात्	-13195
▁Nepali	-13196
▁कर्मको	-13197
▁खेलहरु	-13198
▁चलाउनु	-13199
▁जमिनमा	-13200
▁जीडीपी	-13201
▁ताइवान	-13202
▁परदेशी	-13203
▁पाउँछु	-13204
▁प्रचलन	-13205
▁सुत्नु	-13206
प्रत्येक	-13207
▁नक्सामा	-13208
▁पाउँछौं	-13209
▁फर्किने	-13210
▁मध्येको	-13211
▁शर्तहरु	-13212
▁संगीतमा	-13213
▁सचिवालय	-13214
▁सट्टामा	-13215
▁सर्वज्ञ	-13216
▁सेवकहरू	-13217
▁स्पेनिस	-13218
▁उत्पादको	-13219
▁उनीहरुमा	-13220
▁गरिदिएको	-13221
▁घण्टापछि	-13222
▁छुट्टीमा	-13223
▁ल्याउँदछ	-13224
▁विकासलाई	-13225
▁उनीहरूबाट	-13226
▁साथीहरूको	-13227
▁सोचिरहेको	-13228
▁गुणवत्ताको	-13229
▁तपाईँहरुले	-13230
▁प्रदर्शनमा	-13231
▁प्रारम्भमा	-13232
▁देखाउनुहोस्	-13233
▁सम्भावनाहरू	-13234
▁फ्रान्सिस्को	-13235
▁सिद्धान्तहरू	-13236
▁कर्मचारीहरूको	-13237
-5	-13238
2"	-13239
95	-13240
IP	-13241
ुख	-13242
१३	-13243
शान	-13244
▁PS	-13245
इनेछ	-13246
दिनै	-13247
माको	-13248
यरको	-13249
रिटी	-13250
हाउस	-13251
▁आति	-13252
▁एपी	-13253
▁कवर	-13254
▁ज्व	-13255
▁पौड	-13256
▁सरस	-13257
▁२०५	-13258
फायती	-13259
वासको	-13260
सोनिक	-13261
्रेता	-13262
▁Kong	-13263
▁कैसी	-13264
▁तलाई	-13265
▁थालि	-13266
▁दलका	-13267
▁नसोच	-13268
▁ब्ले	-13269
▁भिन्	-13270
▁युएई	-13271
▁रूले	-13272
▁वन्य	-13273
▁सन्ध	-13274
▁सर्ट	-13275
उनीहरु	-13276
हाल्छु	-13277
हाल्यो	-13278
▁पहाडी	-13279
▁पहिरन	-13280
▁पाइला	-13281
▁हाँसे	-13282
▁अभिव्य	-13283
▁आयतहरू	-13284
▁उदेश्य	-13285
▁जान्छौ	-13286
▁नायिका	-13287
▁रात्री	-13288
▁सबैजसो	-13289
▁सातवटा	-13290
ङ्गलादेश	-13291
▁उडानहरू	-13292
▁गुमाउने	-13293
▁दिनेछन्	-13294
▁सङ्घर्ष	-13295
स्वास्थ्य	-13296
▁अकल्पनीय	-13297
▁ट्विटरले	-13298
▁बिरामीको	-13299
▁भित्र्या	-13300
▁वाशिंगटन	-13301
▁अभिभावकको	-13302
▁ख्रीष्टले	-13303
▁नागरिकहरु	-13304
▁फ्रान्सले	-13305
▁युक्रेनमा	-13306
▁राष्ट्रले	-13307
▁सामग्रीमा	-13308
▁हप्तादेखि	-13309
▁सोच्नुभएको	-13310
AA	-13311
MS	-13312
na	-13313
ps	-13314
जम	-13315
▁{	-13316
तेर	-13317
▁२ः	-13318
कलाई	-13319
गरमा	-13320
परिष	-13321
स्पर	-13322
▁घुस	-13323
▁पोज	-13324
नीकरण	-13325
▁अगला	-13326
▁दलको	-13327
▁दौडि	-13328
▁निलो	-13329
▁बसाई	-13330
▁भोग्	-13331
▁सियो	-13332
▁एन्टी	-13333
▁रहँदै	-13334
▁लगाएँ	-13335
▁लागिः	-13336
▁ससुरा	-13337
▁सिकाए	-13338
सम्पादन	-13339
▁चालकले	-13340
▁डेलिभर	-13341
▁पत्रुस	-13342
▁पोर्नो	-13343
▁भवनहरू	-13344
▁भेट्छु	-13345
▁माग्नु	-13346
▁यसैगरी	-13347
▁सर्किट	-13348
द्योगिकी	-13349
▁अझैसम्म	-13350
▁अनुबन्ध	-13351
▁किफायती	-13352
▁चर्चामा	-13353
▁जुलाईमा	-13354
▁तिमीसित	-13355
▁बजेसम्म	-13356
▁समाजलाई	-13357
▁साथीसँग	-13358
▁देखिन्थे	-13359
▁मित्रहरू	-13360
▁लिइरहेको	-13361
▁समारोहमा	-13362
▁सोध्नुभयो	-13363
▁कोरोनाभाइर	-13364
▁तपाईंहरूको	-13365
▁पश्चात्ताप	-13366
▁विशेषताहरु	-13367
▁कार्यक्रमले	-13368
▁खेलाडीहरूले	-13369
▁प्रोजेक्टमा	-13370
▁राष्ट्रियता	-13371
▁नबिर्सनुहोस्	-13372
▁व्यवस्थापनको	-13373
34	-13374
NA	-13375
ठे	-13376
ins	-13377
पीड	-13378
फुट	-13379
▁६५	-13380
edit	-13381
खाले	-13382
डीमा	-13383
पन्न	-13384
फाइन	-13385
मिका	-13386
लेटर	-13387
वेला	-13388
शनको	-13389
▁min	-13390
▁एर्	-13391
▁किम	-13392
▁थपि	-13393
▁सिल	-13394
▁हजु	-13395
क्ष्म	-13396
लिएका	-13397
्नुको	-13398
▁1997	-13399
▁1998	-13400
▁Your	-13401
▁over	-13402
▁एकाउ	-13403
▁केपी	-13404
▁चालु	-13405
▁जमीन	-13406
▁तारे	-13407
▁दशौं	-13408
▁नचाह	-13409
▁प्रब	-13410
▁सेलि	-13411
ल्डिंग	-13412
▁अभिनव	-13413
▁इज्जत	-13414
▁दियौं	-13415
▁पुगेन	-13416
▁पेटमा	-13417
▁भनिने	-13418
▁मिसिन	-13419
▁सडकको	-13420
▁सुन्य	-13421
सामान्य	-13422
▁आजदेखि	-13423
▁उभिएको	-13424
▁छानबिन	-13425
▁बदलियो	-13426
▁आइरहेका	-13427
▁आक्रामक	-13428
▁न्यायिक	-13429
▁पूर्वमा	-13430
▁पेट्रोल	-13431
▁फिरऊनले	-13432
▁मौद्रिक	-13433
▁सत्ताको	-13434
निर्धारित	-13435
▁अनुभवहरू	-13436
▁उद्योगले	-13437
▁ज़िन्दगी	-13438
▁डिजाइनमा	-13439
▁मुक्तिको	-13440
▁वृद्धिको	-13441
▁उनिहरुलाई	-13442
▁एल्गोरिथ्	-13443
▁कहिलेकाही	-13444
▁देख्दैनन्	-13445
▁परीक्षाको	-13446
▁प्रतिशतको	-13447
▁मिनेटसम्म	-13448
▁सन्तानहरू	-13449
▁हजारभन्दा	-13450
▁हुनेछैनन्	-13451
▁हेलिकप्टर	-13452
▁पुनर्जीवित	-13453
▁बनाउनुपर्छ	-13454
▁सुन्दरताको	-13455
▁cryptocurrenc	-13456
▁अफगानिस्तानको	-13457
▁प्रतिस्पर्धाको	-13458
69	-13459
ंज	-13460
भन	-13461
यण	-13462
गले	-13463
निर	-13464
सिन	-13465
▁am	-13466
▁le	-13467
▁कं	-13468
▁नक	-13469
ents	-13470
क्टि	-13471
बियन	-13472
यरले	-13473
रचना	-13474
ऱ्यो	-13475
▁एड्	-13476
▁कोर	-13477
▁खस्	-13478
▁दिउ	-13479
▁निक	-13480
▁बरफ	-13481
▁मधे	-13482
▁राइ	-13483
▁सिम	-13484
केन्द	-13485
नासाथ	-13486
▁असार	-13487
▁इसको	-13488
▁दुष्	-13489
▁भेटी	-13490
▁विता	-13491
▁हराए	-13492
▁जीन्द	-13493
▁नरकको	-13494
▁पक्षी	-13495
▁फिलिम	-13496
▁बुझेँ	-13497
▁रसियन	-13498
▁सज्जन	-13499
▁आईप्या	-13500
▁कोरियन	-13501
▁पत्रमा	-13502
▁बिर्सि	-13503
▁मायाको	-13504
▁राउन्ड	-13505
▁स्तुति	-13506
▁एल्युमि	-13507
▁गणराज्य	-13508
▁प्रकाशक	-13509
▁बिताएको	-13510
▁बुझाउने	-13511
▁भेटिएको	-13512
▁सुनाइन्	-13513
▁स्क्यान	-13514
▁ट्वीटरमा	-13515
▁फेसबुकका	-13516
▁माध्यमिक	-13517
▁वर्गीकरण	-13518
▁स्थानबाट	-13519
▁अल्लाहलाई	-13520
▁बहुसंख्यक	-13521
▁रुचाउँछन्	-13522
▁वाणिज्यिक	-13523
▁शतप्रतिशत	-13524
▁समाचारहरू	-13525
▁सम्झिन्छु	-13526
▁परमप्रभुलाई	-13527
▁परिप्रेक्ष्य	-13528
1"	-13529
SL	-13530
ey	-13531
चल	-13532
तुम	-13533
बाल	-13534
वटी	-13535
ुका	-13536
▁IS	-13537
orld	-13538
डीले	-13539
मपान	-13540
यारी	-13541
राजा	-13542
र्यौ	-13543
शब्द	-13544
ेलमा	-13545
▁गुट	-13546
▁गुम	-13547
▁सला	-13548
▁१९३	-13549
प्लेट	-13550
माणिक	-13551
लगायत	-13552
▁from	-13553
▁कथित	-13554
▁काले	-13555
▁क्रा	-13556
▁गायन	-13557
▁छँदा	-13558
▁थ्री	-13559
▁दियौ	-13560
▁बताई	-13561
▁भट्ट	-13562
▁भनुँ	-13563
▁लुइस	-13564
पियन्स	-13565
प्रकाश	-13566
▁आशामा	-13567
▁कमिटी	-13568
▁छायाँ	-13569
▁डीएनए	-13570
▁ताइवा	-13571
▁मेकअप	-13572
▁सम्झी	-13573
▁अनुभूत	-13574
▁गाउँका	-13575
▁जीवितै	-13576
▁ठीकठाक	-13577
▁तीनजना	-13578
▁नपर्ने	-13579
▁परिवर्	-13580
▁प्रोसे	-13581
▁बिरुवा	-13582
▁बोलाएँ	-13583
▁मारेको	-13584
▁अल्बर्ट	-13585
▁ओबामाले	-13586
▁कम्पोने	-13587
▁काउन्टर	-13588
▁डेटाबेस	-13589
▁ताराहरू	-13590
▁दायरामा	-13591
▁पितालाई	-13592
▁बैंकिंग	-13593
▁बोर्डले	-13594
▁भगवानका	-13595
▁मन्त्रि	-13596
▁महिलामा	-13597
▁मास्कको	-13598
▁वर्षभरि	-13599
▁वर्षहरू	-13600
▁सहयोगका	-13601
▁सिंहासन	-13602
▁आज्ञाहरू	-13603
▁क्रमबद्ध	-13604
▁खेलाडीले	-13605
▁गर्दैछौँ	-13606
▁संगीतकार	-13607
▁खाद्यान्न	-13608
▁ट्रान्सफर	-13609
▁प्रगतिशील	-13610
▁विज्ञानमा	-13611
▁संरक्षणको	-13612
▁क्यारेक्टर	-13613
▁निम्त्याउन	-13614
▁स्वास्थ्यलाई	-13615
१५	-13616
ick	-13617
ँगी	-13618
पनी	-13619
पोज	-13620
्ला	-13621
उठाइ	-13622
उसले	-13623
न्जा	-13624
बीले	-13625
सियल	-13626
▁कोच	-13627
▁जिस	-13628
▁दीप	-13629
▁लास	-13630
▁हाय	-13631
तान्त	-13632
ाउनमा	-13633
▁इन्द	-13634
▁केके	-13635
▁चलाउ	-13636
▁जीवा	-13637
▁पढाउ	-13638
▁सकें	-13639
▁१०००	-13640
▁ओछ्या	-13641
▁गोल्ड	-13642
▁चाहीँ	-13643
▁चाहेर	-13644
▁जानको	-13645
▁दुश्म	-13646
▁बनेकी	-13647
▁बन्दर	-13648
▁मनलाई	-13649
▁रेकर्	-13650
▁संघमा	-13651
▁स्पाम	-13652
▁अनुबंध	-13653
▁अनेकौं	-13654
▁अश्लील	-13655
▁इस्तान	-13656
▁गायिका	-13657
▁तथ्यको	-13658
▁फुर्सद	-13659
▁बुहारी	-13660
▁भेट्दा	-13661
▁लाइनको	-13662
▁विक्री	-13663
▁सक्थें	-13664
▁सम्झाइ	-13665
▁सुनेकी	-13666
▁आतंकवाद	-13667
▁गराइएको	-13668
▁पहुँचको	-13669
▁फिल्डमा	-13670
▁विमानमा	-13671
▁जबरजस्ती	-13672
▁निःसंदेह	-13673
▁निर्भरता	-13674
▁पुर्यायो	-13675
▁प्रशान्त	-13676
▁बौरिउठाइ	-13677
▁सम्मानको	-13678
▁अल्लाहसित	-13679
▁चाहँदैनौं	-13680
▁नेताहरूको	-13681
▁बर्षहरूमा	-13682
▁ब्रिटेनमा	-13683
▁मृत्युलाई	-13684
▁परीक्षणहरू	-13685
▁प्रमाणिकरण	-13686
▁फोटोग्राफी	-13687
▁राज्यहरूमा	-13688
▁हेर्नुहोला	-13689
▁न्यूयोर्कमा	-13690
▁वेबसाइटहरूको	-13691
▁व्यक्तिहरुले	-13692
▁टेस्टोस्टेरोन	-13693
CE	-13694
ru	-13695
१७	-13696
2">	-13697
:23	-13698
गाई	-13699
डाइ	-13700
यति	-13701
राब	-13702
▁No	-13703
▁शट	-13704
soft	-13705
विद्	-13706
▁छूट	-13707
▁बीउ	-13708
निएका	-13709
▁love	-13710
▁ऐश्व	-13711
▁पुष्	-13712
▁बाले	-13713
▁समयः	-13714
▁समलि	-13715
▁स्वे	-13716
▁हङकङ	-13717
......	-13718
प्रभाव	-13719
▁आबद्ध	-13720
▁उपनाम	-13721
▁गरुन्	-13722
▁गेमिङ	-13723
▁छोड़ो	-13724
▁तोड्न	-13725
▁थिईन्	-13726
▁दौडान	-13727
▁धुवाँ	-13728
▁प्रेष	-13729
▁भेटमा	-13730
▁आफैंको	-13731
▁उनीसंग	-13732
▁खेल्छु	-13733
▁गाउँको	-13734
▁चेष्टा	-13735
▁जीवनले	-13736
▁पढाउने	-13737
▁वञ्चित	-13738
▁शहरहरु	-13739
▁शुरुवा	-13740
▁सम्झेँ	-13741
▁साइटले	-13742
▁एक्कासी	-13743
▁जापानका	-13744
▁तथ्यहरू	-13745
▁प्रभुमा	-13746
▁मुहम्मद	-13747
▁युवाहरू	-13748
▁स्रोतले	-13749
▁स्वीडेन	-13750
▁अख्तियार	-13751
▁आउँदैनन्	-13752
▁इजरायलमा	-13753
▁निद्राको	-13754
▁मेक्सिकन	-13755
▁म्यानुअल	-13756
▁युनेस्को	-13757
▁युवतीलाई	-13758
▁सन्तुलित	-13759
▁सम्झाउने	-13760
▁आमाबाबुको	-13761
▁बाध्यकारी	-13762
▁मन्त्रीले	-13763
▁सेकेन्डको	-13764
▁कहिलेकाहिँ	-13765
▁गर्नुहुँदैन	-13766
▁ग्राहकहरुलाई	-13767
1)	-13768
ंभ	-13769
ath	-13770
जिर	-13771
डाई	-13772
धमा	-13773
पेर	-13774
सिङ	-13775
ितो	-13776
▁Is	-13777
▁so	-13778
▁गन	-13779
▁सफ	-13780
▁४१	-13781
्दैन	-13782
▁आइट	-13783
▁कूल	-13784
▁ख़ु	-13785
▁टाँ	-13786
▁बया	-13787
▁बेन	-13788
▁यात	-13789
▁वेश	-13790
देवता	-13791
पुत्र	-13792
महिला	-13793
ित्या	-13794
▁1990	-13795
▁अपार	-13796
▁इन्ड	-13797
▁करूँ	-13798
▁गरुँ	-13799
▁गाडि	-13800
▁घड़ी	-13801
▁जिता	-13802
▁तात्	-13803
▁देती	-13804
▁बड़ी	-13805
▁मूसा	-13806
▁यसपा	-13807
▁रिसे	-13808
प्रधान	-13809
▁इरानी	-13810
▁चेहरे	-13811
▁त्यता	-13812
▁पोशाक	-13813
▁प्याक	-13814
▁लागेँ	-13815
▁ल्याऊ	-13816
▁सुल्झ	-13817
▁अपनाउन	-13818
▁उड्डयन	-13819
▁कृपाले	-13820
▁खर्चको	-13821
▁गम्भिर	-13822
▁जागिरे	-13823
▁थालिन्	-13824
▁दुबैको	-13825
▁पंक्ति	-13826
▁पतिलाई	-13827
▁परिमाण	-13828
▁फार्मा	-13829
▁फूलहरू	-13830
▁बोलाउन	-13831
▁रहनेछु	-13832
▁विनम्र	-13833
▁हरेकले	-13834
▁कतिसम्म	-13835
▁घटनालाई	-13836
▁चाहेनन्	-13837
▁छोरीहरू	-13838
▁प्रिन्ट	-13839
▁बोल्दैन	-13840
▁मोरक्को	-13841
▁विच्छेद	-13842
▁विश्लेष	-13843
▁सुधार्न	-13844
▁स्कुलको	-13845
▁देखाउँछु	-13846
▁पुस्तकका	-13847
▁समर्थनमा	-13848
▁आन्दोलनमा	-13849
▁क्षेत्रले	-13850
▁तालिबानले	-13851
▁बिताउँछन्	-13852
▁मध्यपूर्व	-13853
▁वास्तुकला	-13854
▁स्थापनाको	-13855
▁इच्छाशक्ति	-13856
▁पूर्णरुपमा	-13857
▁श्रीमतीसँग	-13858
af	-13859
ai	-13860
लः	-13861
खबर	-13862
कानू	-13863
त्ते	-13864
न्यु	-13865
पर्य	-13866
रोधा	-13867
वाना	-13868
शारा	-13869
ृतमा	-13870
ैलाई	-13871
▁गडब	-13872
▁बगा	-13873
▁लघु	-13874
▁साफ	-13875
कार्ड	-13876
त्तरी	-13877
न्सले	-13878
स्पेस	-13879
▁HTML	-13880
▁अहाँ	-13881
▁कमसे	-13882
▁कयौं	-13883
▁छ्यौ	-13884
▁जुटा	-13885
▁डिलि	-13886
▁धुलो	-13887
▁वाइन	-13888
▁सोझो	-13889
क्साइड	-13890
स्तरको	-13891
▁अनुसू	-13892
▁खण्डन	-13893
▁जम्मू	-13894
▁पोर्न	-13895
▁बस्थे	-13896
▁मारेर	-13897
▁शपिंग	-13898
▁हेनरी	-13899
▁होलान	-13900
त्यसपछि	-13901
धन्यवाद	-13902
▁कैसीनो	-13903
▁खोज्छु	-13904
▁छोडेका	-13905
▁तिरेको	-13906
▁नक्कली	-13907
▁बाबुले	-13908
▁संसदको	-13909
हरुमध्ये	-13910
▁अपनाउने	-13911
▁एशियामा	-13912
▁कानूनमा	-13913
▁गर्नलाई	-13914
▁त्यत्ति	-13915
▁भइहाल्छ	-13916
▁मुस्किल	-13917
▁सत्यलाई	-13918
▁सलमानले	-13919
▁सुन्छन्	-13920
▁आइपुगेका	-13921
▁खुट्टामा	-13922
▁प्रगतिको	-13923
▁मनोरन्जन	-13924
▁संघर्षको	-13925
▁सङ्क्रमण	-13926
▁समाचारको	-13927
▁स्वस्थ्य	-13928
▁निर्णयलाई	-13929
▁प्रामाणिक	-13930
▁मरुभूमिमा	-13931
▁सुन्दैनन्	-13932
▁कार्यकालमा	-13933
▁महिनाभित्र	-13934
▁लेख्नुहोस्	-13935
▁सम्भाव्यता	-13936
▁प्रश्नहरुको	-13937
▁ग्राहकहरूसँग	-13938
/7	-13939
HO	-13940
ः७	-13941
१८	-13942
1">	-13943
als	-13944
ats	-13945
ett	-13946
अझै	-13947
वटै	-13948
▁2,	-13949
रणको	-13950
रोले	-13951
श्यक	-13952
साइड	-13953
ेटिक	-13954
्सले	-13955
▁USB	-13956
▁खुद	-13957
▁टाई	-13958
▁डेट	-13959
▁तरल	-13960
▁धीर	-13961
▁निव	-13962
▁रेट	-13963
▁शब्	-13964
कस्तो	-13965
जन्तु	-13966
तपाइँ	-13967
विरोध	-13968
ाउँदा	-13969
▁1999	-13970
▁छिटै	-13971
▁दुरी	-13972
▁नजीक	-13973
▁नबना	-13974
▁माँग	-13975
▁२०२२	-13976
Nepali	-13977
उँदछन्	-13978
णात्मक	-13979
हरूमाझ	-13980
▁अरबमा	-13981
▁आउँथे	-13982
▁काखमा	-13983
▁दाँया	-13984
▁प्रमो	-13985
▁प्रयो	-13986
▁भइसके	-13987
▁भागेर	-13988
▁मेराे	-13989
▁मौखिक	-13990
▁म्याद	-13991
▁राखेँ	-13992
▁सोध्छ	-13993
▁हिमाल	-13994
▁अद्भूत	-13995
▁आवासीय	-13996
▁कलेजको	-13997
▁गुडिया	-13998
▁ड्राइव	-13999
▁देशभरि	-14000
▁भुल्ने	-14001
▁लागतमा	-14002
▁सुगन्ध	-14003
▁सेवाले	-14004
▁ईर्ष्या	-14005
▁कुराबाट	-14006
▁फाइदाको	-14007
▁फिल्मका	-14008
▁बाइबलले	-14009
▁बुझ्दैन	-14010
▁भाग्यवश	-14011
▁संदिग्ध	-14012
▁सूचीबाट	-14013
▁हिँड्ने	-14014
▁उमेरदेखि	-14015
▁नेपाललाई	-14016
▁प्रश्नले	-14017
▁सञ्जालमा	-14018
▁अधिकारलाई	-14019
▁अभिव्यक्त	-14020
▁प्रदूषणको	-14021
▁सदासर्वदा	-14022
▁सेवाहरूमा	-14023
▁चन्द्रमाको	-14024
▁दुनियाँलाई	-14025
▁अधिपत्यशाली	-14026
▁इन्डोनेसिया	-14027
▁व्यक्तिहरुको	-14028
▁व्यक्तिहरुलाई	-14029
36	-14030
क़	-14031
▁ि	-14032
:00	-14033
ron	-14034
क्य	-14035
ेसी	-14036
▁CB	-14037
▁me	-14038
▁अड	-14039
▁नई	-14040
ates	-14041
onth	-14042
बुवा	-14043
संगत	-14044
▁Law	-14045
▁अहम	-14046
▁जाँ	-14047
▁परै	-14048
▁लाम	-14049
▁हँस	-14050
बच्चा	-14051
▁कममा	-14052
▁केटो	-14053
▁कोर्	-14054
▁डोमे	-14055
▁ड्या	-14056
▁थिईन	-14057
▁दिनै	-14058
▁पाइन	-14059
▁यहां	-14060
▁वाणी	-14061
वस्थित	-14062
ूर्नाम	-14063
▁iniqu	-14064
▁अक्षम	-14065
▁ईन्धन	-14066
▁ग्याल	-14067
▁पाइयो	-14068
▁प्रोफ	-14069
▁बित्छ	-14070
▁बुझ्छ	-14071
▁बोकेर	-14072
▁भूगोल	-14073
▁मर्छु	-14074
▁मर्यो	-14075
▁रुँदै	-14076
▁रूसमा	-14077
▁लिँदै	-14078
▁सेटअप	-14079
▁हैनन्	-14080
▁अभियोग	-14081
▁दिलाउन	-14082
▁नोकिया	-14083
▁प्यानल	-14084
▁बढाउँछ	-14085
▁मिलेगा	-14086
▁स्टेसन	-14087
▁आत्माले	-14088
▁निकालेर	-14089
▁स्टेजमा	-14090
▁नमूनाहरू	-14091
▁लक्ष्यको	-14092
▁सरकारबाट	-14093
▁अस्ट्रिया	-14094
▁एम्स्टर्ड	-14095
▁घोषणापत्र	-14096
▁जन्मदिनमा	-14097
▁निर्देशिका	-14098
▁बनाउनुहुन्छ	-14099
▁बोल्नुहुन्छ	-14100
▁प्रतिस्पर्धामा	-14101
-20	-14102
ets	-14103
fer	-14104
कथा	-14105
डिओ	-14106
फ्त	-14107
मिस	-14108
▁00	-14109
▁On	-14110
▁गृ	-14111
एलको	-14112
ठाउँ	-14113
नानी	-14114
याले	-14115
▁Pro	-14116
▁छस्	-14117
▁तरु	-14118
▁नाघ	-14119
▁मरी	-14120
▁रेस	-14121
▁वाई	-14122
ंपरिक	-14123
तेदार	-14124
र्फत्	-14125
वेदना	-14126
▁days	-14127
▁like	-14128
▁आईडी	-14129
▁आनुव	-14130
▁कृषक	-14131
▁फेसन	-14132
▁बिर्	-14133
▁व्रत	-14134
▁स्टप	-14135
उनेछन्	-14136
जेक्शन	-14137
ताबद्ध	-14138
स्तीमा	-14139
्नुभयो	-14140
▁उद्या	-14141
▁जिउनु	-14142
▁फोटोश	-14143
▁मौनता	-14144
▁रुसमा	-14145
▁साकार	-14146
▁एकैसाथ	-14147
▁जित्नु	-14148
▁पाउनको	-14149
▁प्रोटी	-14150
▁बित्दै	-14151
▁बुवाको	-14152
▁मिथ्या	-14153
▁युकेमा	-14154
▁युवाको	-14155
▁लाग्दा	-14156
▁सम्राट	-14157
▁ह्याकर	-14158
उनुहुनेछ	-14159
▁कलात्मक	-14160
▁टूर्नाम	-14161
▁ठान्छन्	-14162
▁देखाएका	-14163
▁पठाउँदै	-14164
▁पत्नीले	-14165
▁पाउँदैन	-14166
▁बुबाआमा	-14167
▁माटोबाट	-14168
▁याकूबका	-14169
▁सर्वत्र	-14170
▁साइटलाई	-14171
▁खेलहरूमा	-14172
▁चुनौतीको	-14173
▁जीवनसाथी	-14174
▁नम्बरहरू	-14175
▁विचारलाई	-14176
▁विनियमित	-14177
▁सेटिंग्स	-14178
▁अवस्थाबाट	-14179
▁आज्ञाकारी	-14180
▁उपाध्यक्ष	-14181
▁परिवर्तित	-14182
▁मार्केटिङ	-14183
▁सञ्चालनमा	-14184
▁अनिश्चितता	-14185
▁उपस्थितिमा	-14186
▁फरिसीहरूका	-14187
▁बाल्यकालको	-14188
▁मर्नेछैनन्	-14189
▁क्षेत्रहरूको	-14190
▁पुनर्स्थापित	-14191
▁बौरिउठाइमाथि	-14192
▁अष्ट्रेलियाली	-14193
SI	-14194
ei	-14195
own	-14196
इडो	-14197
कवि	-14198
जुक	-14199
ल्म	-14200
▁(4	-14201
▁2:	-14202
▁हड	-14203
खण्ड	-14204
चोटी	-14205
तिले	-14206
नियो	-14207
रोमी	-14208
र्थे	-14209
ल्यौ	-14210
▁250	-14211
▁Pay	-14212
▁अली	-14213
▁दाग	-14214
▁साट	-14215
टरहरू	-14216
हानमा	-14217
▁comp	-14218
▁अव्य	-14219
▁ख्या	-14220
▁नेटव	-14221
▁पाऊँ	-14222
▁पोस्	-14223
▁बंगा	-14224
▁भेटा	-14225
▁मेहर	-14226
▁१९९५	-14227
▁ither	-14228
▁अफिसर	-14229
▁उस्ले	-14230
▁किंगड	-14231
▁घरहरु	-14232
▁चिह्न	-14233
▁पछुता	-14234
▁पुण्य	-14235
▁भत्का	-14236
▁मर्दै	-14237
▁मिल्न	-14238
▁राक्ष	-14239
सङ्ख्या	-14240
▁कोणबाट	-14241
▁दृष्टा	-14242
▁प्यारे	-14243
▁बढाएको	-14244
▁बाबजुद	-14245
▁ब्राउन	-14246
▁माग्दै	-14247
▁रिचर्ड	-14248
▁रोकेको	-14249
▁सिकायो	-14250
▁सिध्या	-14251
▁अघिसम्म	-14252
▁इन्स्टि	-14253
▁क्लबहरू	-14254
▁लैजान्छ	-14255
▁विवादित	-14256
▁इजरायलको	-14257
▁उत्तेजना	-14258
▁एकताबद्ध	-14259
▁कलाकारको	-14260
▁जर्मनीले	-14261
▁दुनियामा	-14262
▁परिष्कृत	-14263
▁मुम्बईमा	-14264
▁रहिरहन्छ	-14265
▁विकासशील	-14266
▁अवस्थालाई	-14267
▁आश्चर्यमा	-14268
▁यरूशलेममा	-14269
▁व्यवहारिक	-14270
▁संस्थाहरु	-14271
▁स्क्रिनमा	-14272
▁आगन्तुकहरू	-14273
▁उत्पादनलाई	-14274
▁अर्जेन्टिना	-14275
▁तिमीहरूकहाँ	-14276
▁अधिकारीहरुले	-14277
▁राष्ट्रसंघको	-14278
MO	-14279
PN	-14280
to	-14281
ंकर	-14282
अन्	-14283
खना	-14284
दछौ	-14285
प्य	-14286
बोध	-14287
रुम	-14288
▁55	-14289
▁नच	-14290
ड्रो	-14291
तीले	-14292
बासी	-14293
लागे	-14294
ूर्त	-14295
▁एरि	-14296
▁कपा	-14297
▁काे	-14298
▁नैं	-14299
▁नोक	-14300
▁वाल	-14301
▁हिम	-14302
▁३००	-14303
जीकरण	-14304
पट्टि	-14305
लाहरू	-14306
वासमा	-14307
सूचना	-14308
हाेस्	-14309
▁आर्क	-14310
▁उपनि	-14311
▁एक्ल	-14312
▁चलाइ	-14313
▁जेनर	-14314
▁पढ्छ	-14315
▁पृथक	-14316
▁माक्	-14317
▁सुनी	-14318
▁सोधी	-14319
▁हिटल	-14320
चिकित्	-14321
▁उधारो	-14322
▁जवानी	-14323
▁जोडेर	-14324
▁देखाई	-14325
▁नर्वे	-14326
▁फर्के	-14327
▁बिरोध	-14328
▁श्रेय	-14329
▁सजीलो	-14330
▁सट्टे	-14331
▁साक्ष	-14332
▁आउटडोर	-14333
▁आकाशको	-14334
▁खाँदैन	-14335
▁देखिन्	-14336
▁पार्यो	-14337
▁बुझ्नै	-14338
▁बैठकले	-14339
▁मुटुको	-14340
▁रिटर्न	-14341
▁लगत्तै	-14342
▁शैलीको	-14343
▁सोच्थे	-14344
▁सोच्यो	-14345
▁ह्वावे	-14346
▁दिनदिनै	-14347
▁दृश्यमा	-14348
▁पारंपरिक	-14349
▁पुरस्कृत	-14350
▁प्रसारित	-14351
▁भूमिकाको	-14352
▁रहनुहोला	-14353
▁लेख्दैछु	-14354
▁Microsoft	-14355
▁खेलाडीलाई	-14356
▁डेमोक्रेट	-14357
▁मनुष्यलाई	-14358
▁पुर्खाहरूले	-14359
▁क्षेत्रहरुमा	-14360
▁अर्थव्यवस्थाको	-14361
":	-14362
BT	-14363
yn	-14364
२१	-14365
▁°	-14366
ism	-14367
औषध	-14368
जका	-14369
णित	-14370
पिए	-14371
शको	-14372
▁ठग	-14373
▁नफ	-14374
▁लई	-14375
▁लय	-14376
▁९९	-14377
वरले	-14378
सल्ल	-14379
ासित	-14380
▁SAR	-14381
▁एकः	-14382
▁थिय	-14383
▁नमि	-14384
▁भिज	-14385
▁लगन	-14386
▁शेर	-14387
संगीत	-14388
▁अवगत	-14389
▁खालि	-14390
▁परें	-14391
▁फैलि	-14392
▁वाले	-14393
▁वेतन	-14394
▁स्कट	-14395
सम्मका	-14396
▁_____	-14397
▁अनजान	-14398
▁अलेक्	-14399
▁आजीवन	-14400
▁आयोजक	-14401
▁उड्ने	-14402
▁गरेनौ	-14403
▁डक्टर	-14404
▁पट्टी	-14405
▁पोखरा	-14406
▁बतायो	-14407
▁भाँडा	-14408
▁समापन	-14409
▁स्टेर	-14410
▁हड्डी	-14411
अर्काको	-14412
▁अनुरुप	-14413
▁इन्टर्	-14414
▁एकताको	-14415
▁करोडौं	-14416
▁खानामा	-14417
▁खोलियो	-14418
▁छातीमा	-14419
▁तत्त्व	-14420
▁निकासी	-14421
▁फेस्टि	-14422
▁मिलाएर	-14423
▁मेटाउन	-14424
▁रोबर्ट	-14425
▁शासनको	-14426
▁शिकागो	-14427
▁श्रोता	-14428
▁संसदले	-14429
▁सेक्सी	-14430
▁हावाको	-14431
उनुपर्ने	-14432
▁अनुशासन	-14433
▁उपायहरु	-14434
▁काउन्सि	-14435
▁छोडेपछि	-14436
▁छोरीहरु	-14437
▁दाऊदलाई	-14438
▁देख्दैन	-14439
▁निस्केर	-14440
▁फर्केका	-14441
▁बहिनीको	-14442
▁भाग्यले	-14443
▁जसद्वारा	-14444
▁मोडेलहरू	-14445
▁सक्दिनन्	-14446
▁क्रिसमसको	-14447
▁गर्नसक्ने	-14448
▁दुनियाँको	-14449
▁देशहरूबाट	-14450
▁बङ्गलादेश	-14451
▁मध्यरातमा	-14452
▁आधुनिकीकरण	-14453
▁एजेन्सीहरू	-14454
▁अनुसन्धानका	-14455
▁अस्तित्वलाई	-14456
▁नागरिकहरूको	-14457
▁प्रतिद्वन्द	-14458
▁संग्रहालयमा	-14459
ET	-14460
Fi	-14461
IF	-14462
ँए	-14463
ँक	-14464
टस	-14465
ich	-14466
माफ	-14467
मिल	-14468
ुटु	-14469
ुत्	-14470
▁Lo	-14471
▁एह	-14472
▁मड	-14473
▁यह	-14474
ंलाई	-14475
आईपी	-14476
स्रा	-14477
▁400	-14478
▁अनग	-14479
▁उका	-14480
▁जोर	-14481
▁नमु	-14482
▁पिँ	-14483
▁पेस	-14484
▁शमू	-14485
▁हता	-14486
म्सले	-14487
र्यौं	-14488
▁केका	-14489
▁खबरः	-14490
▁खानी	-14491
▁गलती	-14492
▁टोपी	-14493
▁शर्ट	-14494
इसकेको	-14495
▁अन्तत	-14496
▁ग्रीस	-14497
▁टिप्स	-14498
▁दरहरू	-14499
▁दौडमा	-14500
▁भक्तो	-14501
▁संजाल	-14502
▁सजावट	-14503
▁हौसला	-14504
ङ्गल्या	-14505
पत्रिका	-14506
्नुपर्छ	-14507
▁नरहेको	-14508
▁पटक्कै	-14509
▁फर्कनु	-14510
▁बालुवा	-14511
▁भुइँमा	-14512
▁संभवतः	-14513
▁सम्मका	-14514
▁स्ट्री	-14515
▁हाँस्न	-14516
▁अर्कामा	-14517
▁चार्ल्स	-14518
▁जान्दैन	-14519
▁देखिएकी	-14520
▁बदलिएको	-14521
▁भन्नाले	-14522
▁भियतनाम	-14523
▁म्युजिक	-14524
▁स्वास्थ	-14525
▁अनुभवलाई	-14526
▁अभिप्राय	-14527
▁अर्कोतिर	-14528
▁आनुवंशिक	-14529
▁कार्यहरु	-14530
▁जन्माउने	-14531
▁देशभित्र	-14532
▁माथिल्लो	-14533
▁राजीनामा	-14534
▁सुविधाको	-14535
▁क्रिकेटमा	-14536
▁पार्टनरको	-14537
▁बन्नुपर्छ	-14538
▁रेखाचित्र	-14539
▁सुविधाहरु	-14540
▁कुराकानीमा	-14541
▁तिनीहरूबाट	-14542
▁सिक्नुपर्छ	-14543
▁हुनुहुँदैन	-14544
▁प्रस्तावहरू	-14545
▁उत्पादनहरूका	-14546
▁वार्षिकोत्सव	-14547
▁विश्वविद्यालयले	-14548
3"	-14549
8)	-14550
ix	-14551
वह	-14552
:24	-14553
str	-14554
अलि	-14555
माई	-14556
हें	-14557
▁51	-14558
▁ne	-14559
▁घम	-14560
▁५४	-14561
कानु	-14562
कीले	-14563
स्वी	-14564
▁उमा	-14565
▁एपि	-14566
▁गोर	-14567
▁पदा	-14568
▁फूड	-14569
▁बडा	-14570
▁बसी	-14571
▁मदद	-14572
▁मदर	-14573
▁शरद	-14574
▁संद	-14575
▁सप्	-14576
ities	-14577
सत्ता	-14578
▁more	-14579
▁आकलन	-14580
▁आर्य	-14581
▁जनमत	-14582
▁भरें	-14583
▁साइक	-14584
▁स्लॉ	-14585
स्तरमा	-14586
▁कथामा	-14587
▁काट्न	-14588
▁गरून्	-14589
▁छैटौं	-14590
▁जोसेफ	-14591
▁टिमको	-14592
▁ठट्टा	-14593
▁यसैमा	-14594
▁लिगमा	-14595
▁वचनको	-14596
▁सुन्त	-14597
▁हिड्न	-14598
प्रतिनि	-14599
▁अलार्म	-14600
▁असहमति	-14601
▁कुर्सी	-14602
▁जनाउँछ	-14603
▁जहाजको	-14604
▁दिइएका	-14605
▁पब्लिक	-14606
▁पाएपछि	-14607
▁पुग्छु	-14608
▁बजारका	-14609
▁मार्नु	-14610
▁रिकभरी	-14611
▁विन्दु	-14612
▁सकिनेछ	-14613
▁उज्ज्वल	-14614
▁केटाकेट	-14615
▁चिन्दैन	-14616
▁जत्तिकै	-14617
▁टाढाबाट	-14618
▁देखिनेछ	-14619
▁पुग्दैन	-14620
▁प्रकृया	-14621
▁बस्नुस्	-14622
▁इब्राहीम	-14623
▁प्रीमियम	-14624
▁आउनुहुनेछ	-14625
▁खानुहुन्छ	-14626
▁परीक्षणमा	-14627
▁प्रेरणाको	-14628
▁फ्रान्सका	-14629
▁राख्नुहोस	-14630
▁राजधानीमा	-14631
▁सहभागीहरू	-14632
▁प्रवक्ताले	-14633
▁बच्चाहरूसँग	-14634
▁सिद्धान्तमा	-14635
▁अन्त्यसम्ममा	-14636
हट	-14637
oug	-14638
दमी	-14639
सर्	-14640
सेर	-14641
ुको	-14642
्नो	-14643
▁Hu	-14644
▁My	-14645
▁TH	-14646
▁कव	-14647
▁गम	-14648
▁धक	-14649
▁५७	-14650
▁५९	-14651
कीको	-14652
ग्लो	-14653
दैन्	-14654
भगवा	-14655
मतको	-14656
रोमा	-14657
▁आँख	-14658
▁आका	-14659
▁कलि	-14660
▁खुश	-14661
▁दुल	-14662
▁फाँ	-14663
▁भलै	-14664
▁भित	-14665
▁मरू	-14666
▁हुं	-14667
प्राइ	-14668
सकहाँ	-14669
ेरियन	-14670
▁NEPA	-14671
▁Post	-14672
▁this	-14673
▁अठोट	-14674
▁करको	-14675
▁टेम्	-14676
▁दलित	-14677
▁दुखद	-14678
▁नाता	-14679
▁फेडर	-14680
▁बाजी	-14681
▁माइल	-14682
▁मामु	-14683
▁मारी	-14684
▁माला	-14685
▁सोंच	-14686
▁सोलो	-14687
▁उठ्यो	-14688
▁उपवास	-14689
▁एलिजा	-14690
▁कोडको	-14691
▁खेतमा	-14692
▁दुःखद	-14693
▁पकाउन	-14694
▁बलिउड	-14695
▁बेइजि	-14696
▁मिसाइ	-14697
▁युनिट	-14698
▁रिक्त	-14699
▁लडाईं	-14700
▁लिमिट	-14701
▁हमेशा	-14702
मिरेट्स	-14703
विरूद्ध	-14704
▁किंगडम	-14705
▁गर्नुछ	-14706
▁घरबाटै	-14707
▁चुम्बन	-14708
▁जनजाति	-14709
▁जोर्डन	-14710
▁ज्याला	-14711
▁पछिपछि	-14712
▁पिताजी	-14713
▁बन्छन्	-14714
▁भन्सार	-14715
▁भूमिगत	-14716
▁लिनेछु	-14717
▁संदर्भ	-14718
▁सद्भाव	-14719
▁साँझको	-14720
▁सुरुआत	-14721
▁स्तब्ध	-14722
▁होक्का	-14723
▁आउँथ्यो	-14724
▁उहाँसित	-14725
▁गर्मीमा	-14726
▁चाहिदैन	-14727
▁जीन्दगी	-14728
▁तपाइलाई	-14729
▁देखेनन्	-14730
▁ब्लगहरू	-14731
▁महारानी	-14732
▁मारिएको	-14733
▁लाग्दैछ	-14734
▁विशेषतः	-14735
▁संभावित	-14736
▁सोधिएको	-14737
▁इङ्गल्या	-14738
▁उनिहरुको	-14739
▁गर्नेहरु	-14740
▁निमन्त्र	-14741
▁पछाडिबाट	-14742
▁बन्दरगाह	-14743
▁बुद्धिको	-14744
▁स्त्रीले	-14745
▁केन्द्रको	-14746
▁देख्नेछन्	-14747
▁नहुनुहोस्	-14748
▁संविधानमा	-14749
▁इन्जिनियरि	-14750
▁कम्पोनेन्ट	-14751
▁चिकित्सकले	-14752
▁पार्नुहोस्	-14753
▁वस्तुहरूको	-14754
▁एल्युमिनियम	-14755
▁कम्पनीहरुले	-14756
▁परिणामहरूको	-14757
▁सोध्नुहुन्छ	-14758
▁वैज्ञानिकहरुले	-14759
**	-14760
04	-14761
OL	-14762
खन	-14763
▁	-14764
ा	-14765
्	-14766
र	-14767
न	-14768
क	-14769
ि	-14770
म	-14771
ो	-14772
े	-14773
स	-14774
त	-14775
ह	-14776
ल	-14777
य	-14778
प	-14779
ु	-14780
ग	-14781
ी	-14782
छ	-14783
व	-14784
द	-14785
।	-14786
ब	-14787
ै	-14788
ज	-14789
भ	-14790
उ	-14791
ई	-14792
,	-14793
ू	-14794
ट	-14795
ए	-14796
अ	-14797
ँ	-14798
श	-14799
च	-14800
ं	-14801
थ	-14802
ध	-14803
आ	-14804
ख	-14805
ष	-14806
फ	-14807
ड	-14808
ण	-14809
इ	-14810
.	-14811
ौ	-14812
'	-14813
?	-14814
ठ	-14815
-	-14816
"	-14817
घ	-14818
ृ	-14819
झ	-14820
ः	-14821
e	-14822
ढ	-14823
०	-14824
१	-14825
)	-14826
1	-14827
!	-14828
२	-14829
(	-14830
a	-14831
o	-14832
0	-14833
i	-14834
t	-14835
n	-14836
r	-14837
2	-14838
s	-14839
ञ	-14840
:	-14841
l	-14842
३	-14843
3	-14844
ङ	-14845
ऊ	-14846
d	-14847
5	-14848
u	-14849
4	-14850
ओ	-14851
c	-14852
9	-14853
९	-14854
m	-14855
h	-14856
५	-14857
8	-14858
़	-14859
6	-14860
g	-14861
४	-14862
7	-14863
A	-14864
S	-14865
;	-14866
p	-14867
८	-14868
६	-14869
औ	-14870
७	-14871
y	-14872
/	-14873
b	-14874
C	-14875
I	-14876
T	-14877
M	-14878
P	-14879
N	-14880
E	-14881
]	-14882
D	-14883
[	-14884
%	-14885
B	-14886
_	-14887
f	-14888
k	-14889
O	-14890
w	-14891
v	-14892
G	-14893
L	-14894
R	-14895
H	-14896
x	-14897
>	-14898
U	-14899
F	-14900
=	-14901
W	-14902
V	-14903
ऐ	-14904
X	-14905
$	-14906
Y	-14907
ॉ	-14908
॥	-14909
<	-14910
K	-14911
*	-14912
ऋ	-14913
Q	-14914
z	-14915
#	-14916
¥	-14917
+	-14918
॰	-14919
J	-14920
&	-14921
j	-14922
Z	-14923
q	-14924
←	-14925
•	-14926
~	-14927
ॅ	-14928
^	-14929
£	-14930
ऱ	-14931
→	-14932
ऑ	-14933
ऽ	-14934
🙂	-14935
}	-14936
@	-14937
{	-14938
€	-14939
ऩ	-14940
·	-14941
♪	-14942
ळ	-14943
😉	-14944
′	-14945
°	-14946
÷	-14947
†	-14948
ॊ	-14949
↑	-14950
®	-14951
ॐ	-14952
×	-14953
à	-14954
Œ	-14955
️	-14956
é	-14957
¤	-14958
›	-14959
ا	-14960
ل	-14961
॒	-14962
►	-14963
ü	-14964
🙏	-14965
ı	-14966
е	-14967
م	-14968
ş	-14969
İ	-14970
❤	-14971
😀	-14972
―	-14973
ऍ	-14974
॑	-14975
😊	-14976
§	-14977
Þ	-14978
о	-14979
ऎ	-14980
●	-14981
í	-14982
ö	-14983
♦	-14984
ç	-14985
ñ	-14986
̧	-14987
ğ	-14988
с	-14989
á	-14990
ر	-14991
ن	-14992
‐	-14993
例	-14994
â	-14995
̈	-14996
Ş	-14997
ˆ	-14998
м	-14999
ॆ	-15000
া	-15001
👁	-15002
ó	-15003
а	-15004
√	-15005
【	-15006
】	-15007
文	-15008
Û	-15009
س	-15010
※	-15011
☆	-15012
ɪ	-15013
Â	-15014
è	-15015
۳	-15016
≥	-15017
◆	-15018
➜	-15019
、	-15020
👉	-15021
Ü	-15022
😍	-15023
©	-15024
Č	-15025
ي	-15026
▲	-15027
♥	-15028
🙁	-15029
Ç	-15030
ô	-15031
μ	-15032
к	-15033
н	-15034
т	-15035
ب	-15036
و	-15037
ে	-15038
・	-15039
😂	-15040
∕	-15041
👌	-15042
💕	-15043
💵	-15044
🔍	-15045
🤔	-15046
أ	-15047
ع	-15048
ਚ	-15049
ਡ	-15050
య	-15051
▶	-15052
Ö	-15053
ã	-15054
ت	-15055
ા	-15056
☽	-15057
♡	-15058
ā	-15059
α	-15060
د	-15061
ك	-15062
ی	-15063
ক	-15064
⇒	-15065
♫	-15066
Ž	-15067
ص	-15068
۵	-15069
ম	-15070
ி	-15071
ా	-15072
◊	-15073
★	-15074
。	-15075
」	-15076
の	-15077
定	-15078
🌲	-15079
🔴	-15080
😜	-15081
¡	-15082
Ø	-15083
æ	-15084
β	-15085
ы	-15086
،	-15087
ئ	-15088
ة	-15089
ف	-15090
র	-15091
ం	-15092
₹	-15093
⇓	-15094
◇	-15095
➥	-15096
る	-15097
日	-15098
🌹	-15099
😎	-15100
😭	-15101
¦	-15102
¿	-15103
Ó	-15104
œ	-15105
ː	-15106
̄	-15107
Б	-15108
К	-15109
и	-15110
ч	-15111
ю	-15112
ح	-15113
َ	-15114
۸	-15115
ॠ	-15116
দ	-15117
ন	-15118
য	-15119
ল	-15120
়	-15121
ি	-15122
্	-15123
్	-15124
≤	-15125
♣	-15126
✅	-15127
❝	-15128
肯	-15129
👇	-15130
💐	-15131
😘	-15132
😛	-15133
ì	-15134
ŋ	-15135
ư	-15136
ȣ	-15137
̃	-15138
Ω	-15139
В	-15140
Л	-15141
б	-15142
й	-15143
у	-15144
ه	-15145
ব	-15146
শ	-15147
স	-15148
થ	-15149
પ	-15150
ર	-15151
అ	-15152
ధ	-15153
า	-15154
⁄	-15155
☺	-15156
⤓	-15157
し	-15158
ネ	-15159
パ	-15160
ラ	-15161
ル	-15162
ー	-15163
語	-15164
시	-15165
🌷	-15166
🔹	-15167
🤝	-15168
¬	-15169
É	-15170
ä	-15171
ƒ	-15172
Ǒ	-15173
ɯ	-15174
ʊ	-15175
ˈ	-15176
Α	-15177
Β	-15178
π	-15179
І	-15180
в	-15181
г	-15182
л	-15183
р	-15184
ط	-15185
ظ	-15186
ق	-15187
ِ	-15188
ہ	-15189
ऺ	-15190
ং	-15191
ન	-15192
ு	-15193
ల	-15194
ి	-15195
ย	-15196
้	-15197
ํ	-15198
Ḥ	-15199
‡	-15200
‰	-15201
⇨	-15202
−	-15203
✔	-15204
✳	-15205
➔	-15206
「	-15207
え	-15208
ア	-15209
ク	-15210
ス	-15211
セ	-15212
学	-15213
本	-15214
留	-15215
问	-15216
题	-15217
🌙	-15218
🎰	-15219
🏻	-15220
🏼	-15221
👂	-15222
👦	-15223
🔘	-15224
😏	-15225
😞	-15226
😱	-15227
😴	-15228
🤣	-15229
Ô	-15230
ă	-15231
Ğ	-15232
ō	-15233
ž	-15234
ơ	-15235
ǒ	-15236
Ι	-15237
ρ	-15238
С	-15239
ш	-15240
؟	-15241
ऒ	-15242
॔	-15243
ই	-15244
জ	-15245
হ	-15246
৷	-15247
ં	-15248
ઉ	-15249
લ	-15250
ી	-15251
ે	-15252
્	-15253
ச	-15254
த	-15255
ற	-15256
வ	-15257
்	-15258
వ	-15259
ు	-15260
ต	-15261
ม	-15262
ម	-15263
ស	-15264
ូ	-15265
។	-15266
ệ	-15267
⃣	-15268
∞	-15269
○	-15270
☝	-15271
✍	-15272
✓	-15273
い	-15274
お	-15275
げ	-15276
こ	-15277
に	-15278
も	-15279
よ	-15280
イ	-15281
ダ	-15282
前	-15283
音	-15284
더	-15285
로	-15286
봇	-15287
이	-15288
함	-15289
﴾	-15290
﴿	-15291
🆀	-15292
🌱	-15293
🎁	-15294
🎯	-15295
🎼	-15296
🐶	-15297
👍	-15298
💃	-15299
💪	-15300
💫	-15301
😃	-15302
😄	-15303
😖	-15304
😗	-15305
😷	-15306
🚂	-15307
🤙	-15308
🤩	-15309
🤴	-15310
`	-15311
¶	-15312
È	-15313
Ù	-15314
å	-15315
ê	-15316
î	-15317
ï	-15318
ð	-15319
ø	-15320
̐	-15321
̤	-15322
Υ	-15323
τ	-15324
ώ	-15325
Д	-15326
Й	-15327
О	-15328
Р	-15329
д	-15330
Ԍ	-15331
ذ	-15332
ش	-15333
ْ	-15334
پ	-15335
چ	-15336
ک	-15337
ھ	-15338
۞	-15339
۹	-15340
ॄ	-15341
ॢ	-15342
আ	-15343
উ	-15344
ড	-15345
ত	-15346
ো	-15347
ਉ	-15348
ਕ	-15349
ਬ	-15350
ਮ	-15351
ਰ	-15352
ਵ	-15353
਼	-15354
ਾ	-15355
ੱ	-15356
અ	-15357
ધ	-15358
ભ	-15359
ય	-15360
વ	-15361
ன	-15362
ப	-15363
చ	-15364
జ	-15365
మ	-15366
ీ	-15367
ో	-15368
ന	-15369
න	-15370
ම	-15371
හ	-15372
ි	-15373
ค	-15374
ễ	-15375
‹	-15376
≈	-15377
⋙	-15378
│	-15379
■	-15380
◉	-15381
☀	-15382
☛	-15383
☼	-15384
⚠	-15385
⛱	-15386
✋	-15387
❌	-15388
❒	-15389
➢	-15390
➤	-15391
⠀	-15392
⠒	-15393
⦿	-15394
⫼	-15395
》	-15396
か	-15397
は	-15398
ろ	-15399
マ	-15400
事	-15401
享	-15402
令	-15403
先	-15404
分	-15405
午	-15406
发	-15407
名	-15408
吧	-15409
和	-15410
後	-15411
成	-15412
教	-15413
李	-15414
週	-15415
陳	-15416
饿	-15417
가	-15418
내	-15419
네	-15420
물	-15421
베	-15422
[...]
